{
  "version": "1.0",
  "truncation": null,
  "padding": null,
  "added_tokens": [
    {
      "id": 0,
      "content": "[UNK]",
      "single_word": false,
      "lstrip": false,
      "rstrip": false,
      "normalized": false,
      "special": true
    },
    {
      "id": 1,
      "content": "[PAD]",
      "single_word": false,
      "lstrip": false,
      "rstrip": false,
      "normalized": false,
      "special": true
    },
    {
      "id": 2,
      "content": "[CLS]",
      "single_word": false,
      "lstrip": false,
      "rstrip": false,
      "normalized": false,
      "special": true
    },
    {
      "id": 3,
      "content": "[SEP]",
      "single_word": false,
      "lstrip": false,
      "rstrip": false,
      "normalized": false,
      "special": true
    },
    {
      "id": 4,
      "content": "[MASK]",
      "single_word": false,
      "lstrip": false,
      "rstrip": false,
      "normalized": false,
      "special": true
    }
  ],
  "normalizer": null,
  "pre_tokenizer": {
    "type": "ByteLevel",
    "add_prefix_space": false,
    "trim_offsets": true,
    "use_regex": true
  },
  "post_processor": null,
  "decoder": {
    "type": "ByteLevel",
    "add_prefix_space": true,
    "trim_offsets": true,
    "use_regex": true
  },
  "model": {
    "type": "BPE",
    "dropout": null,
    "unk_token": "[UNK]",
    "continuing_subword_prefix": null,
    "end_of_word_suffix": null,
    "fuse_unk": false,
    "byte_fallback": false,
    "ignore_merges": false,
    "vocab": {
      "[UNK]": 0,
      "[PAD]": 1,
      "[CLS]": 2,
      "[SEP]": 3,
      "[MASK]": 4,
      "!": 5,
      "'": 6,
      "(": 7,
      ")": 8,
      "*": 9,
      ",": 10,
      "-": 11,
      ".": 12,
      "0": 13,
      "1": 14,
      "2": 15,
      "3": 16,
      "4": 17,
      "5": 18,
      "6": 19,
      "7": 20,
      "8": 21,
      "9": 22,
      ":": 23,
      ";": 24,
      "?": 25,
      "A": 26,
      "B": 27,
      "C": 28,
      "D": 29,
      "E": 30,
      "F": 31,
      "G": 32,
      "H": 33,
      "I": 34,
      "J": 35,
      "K": 36,
      "L": 37,
      "M": 38,
      "N": 39,
      "O": 40,
      "P": 41,
      "Q": 42,
      "R": 43,
      "S": 44,
      "T": 45,
      "U": 46,
      "V": 47,
      "W": 48,
      "X": 49,
      "Y": 50,
      "Z": 51,
      "a": 52,
      "b": 53,
      "c": 54,
      "d": 55,
      "e": 56,
      "f": 57,
      "g": 58,
      "h": 59,
      "i": 60,
      "j": 61,
      "k": 62,
      "l": 63,
      "m": 64,
      "n": 65,
      "o": 66,
      "p": 67,
      "q": 68,
      "r": 69,
      "s": 70,
      "t": 71,
      "u": 72,
      "v": 73,
      "w": 74,
      "x": 75,
      "y": 76,
      "z": 77,
      "¦": 78,
      "©": 79,
      "¬": 80,
      "¹": 81,
      "Â": 82,
      "Ã": 83,
      "â": 84,
      "ĉ": 85,
      "Ċ": 86,
      "Č": 87,
      "Ġ": 88,
      "Ģ": 89,
      "ĵ": 90,
      "Ķ": 91,
      "ĺ": 92,
      "Ļ": 93,
      "ľ": 94,
      "Ŀ": 95,
      "Ł": 96,
      "Ġt": 97,
      "âĢ": 98,
      "he": 99,
      "Ġa": 100,
      "in": 101,
      "Ġs": 102,
      "Ġw": 103,
      "Ġthe": 104,
      "re": 105,
      "ou": 106,
      "Ġh": 107,
      "ed": 108,
      "on": 109,
      "ing": 110,
      "er": 111,
      "ar": 112,
      "nd": 113,
      "Ġb": 114,
      "âĢľ": 115,
      "âĢĿ": 116,
      "Ġf": 117,
      "Ġo": 118,
      "âĢĻ": 119,
      "at": 120,
      "is": 121,
      "Ġto": 122,
      "it": 123,
      "Ġc": 124,
      "ĠH": 125,
      "as": 126,
      "or": 127,
      "ll": 128,
      "id": 129,
      "Ġhe": 130,
      "Ġd": 131,
      "en": 132,
      "Ġm": 133,
      "Ġl": 134,
      "Ġand": 135,
      "Ġth": 136,
      "Ġof": 137,
      "ry": 138,
      "Ġp": 139,
      "es": 140,
      "Ġha": 141,
      "Ġin": 142,
      "Ġg": 143,
      "an": 144,
      "Ġn": 145,
      "le": 146,
      "arry": 147,
      "ow": 148,
      "Ġsa": 149,
      "ly": 150,
      "ĠâĢ": 151,
      "ot": 152,
      "Ġy": 153,
      "om": 154,
      "Ġwas": 155,
      "Ġbe": 156,
      "gh": 157,
      "ĠHarry": 158,
      "Ġsaid": 159,
      "ac": 160,
      "Ġe": 161,
      "ld": 162,
      "Ġhis": 163,
      "Ġyou": 164,
      "im": 165,
      "ĠâĢľ": 166,
      "us": 167,
      "ve": 168,
      "Ġst": 169,
      "oo": 170,
      "Ġit": 171,
      "Ġon": 172,
      "ĠI": 173,
      "ic": 174,
      "et": 175,
      ",âĢĿ": 176,
      "ver": 177,
      "ion": 178,
      "ro": 179,
      "Ġwh": 180,
      "ir": 181,
      "Ġhad": 182,
      "Ġthat": 183,
      "ut": 184,
      "ght": 185,
      "Ġwe": 186,
      "out": 187,
      "ĠâĢĶ": 188,
      "ent": 189,
      "ad": 190,
      "Ġat": 191,
      "Ġu": 192,
      "Ġas": 193,
      "ĠM": 194,
      "Ġre": 195,
      "ur": 196,
      "al": 197,
      "ore": 198,
      "Ġhim": 199,
      "se": 200,
      "ĠS": 201,
      "?âĢĿ": 202,
      "ag": 203,
      "st": 204,
      "ĠâĢ¦": 205,
      "ĠD": 206,
      "The": 207,
      "ri": 208,
      "Ġwit": 209,
      "ke": 210,
      "ch": 211,
      "ay": 212,
      "ĠR": 213,
      "ook": 214,
      "ould": 215,
      "Ġwith": 216,
      "red": 217,
      "Ġan": 218,
      "Ġfor": 219,
      "am": 220,
      "Ġse": 221,
      "ter": 222,
      "her": 223,
      "um": 224,
      "pp": 225,
      "all": 226,
      "Ġnot": 227,
      "ĠP": 228,
      "ill": 229,
      "ack": 230,
      "rou": 231,
      "ard": 232,
      ".âĢĿ": 233,
      "Ġsh": 234,
      "led": 235,
      "Ġk": 236,
      "ĠRon": 237,
      "erm": 238,
      "!âĢĿ": 239,
      "pe": 240,
      "Ġher": 241,
      "ain": 242,
      "em": 243,
      "Ġlook": 244,
      "ione": 245,
      "Ġup": 246,
      "ermione": 247,
      "Ġfr": 248,
      "Ġdo": 249,
      "ight": 250,
      "Ġthey": 251,
      "ess": 252,
      "ĠW": 253,
      "Ġout": 254,
      "ce": 255,
      "ĠHermione": 256,
      "un": 257,
      "ĠA": 258,
      "and": 259,
      "ind": 260,
      "ge": 261,
      "Ġwere": 262,
      "Ġme": 263,
      "ĠHe": 264,
      "Ġkn": 265,
      "Ġne": 266,
      "Ġthem": 267,
      "ted": 268,
      "to": 269,
      "il": 270,
      "Ġr": 271,
      "Ġfe": 272,
      "ĠG": 273,
      "Ġall": 274,
      "Ġbut": 275,
      "ak": 276,
      "if": 277,
      "Ġhave": 278,
      "Ġfrom": 279,
      "Ġshe": 280,
      "ĠThe": 281,
      "Ġj": 282,
      "umb": 283,
      "hing": 284,
      "ĠC": 285,
      "ust": 286,
      "Ġgo": 287,
      "ck": 288,
      "ĠB": 289,
      "ome": 290,
      "very": 291,
      "ood": 292,
      "ĠF": 293,
      "ell": 294,
      "Ġso": 295,
      "ast": 296,
      "hed": 297,
      "one": 298,
      "Ġwhe": 299,
      "ble": 300,
      "lo": 301,
      "Ġback": 302,
      "qu": 303,
      "umbled": 304,
      "ort": 305,
      "Ġinto": 306,
      "Ġli": 307,
      "ide": 308,
      "own": 309,
      "Ġdid": 310,
      "umbledore": 311,
      "Ġwho": 312,
      "Ġv": 313,
      "Ġwhat": 314,
      "art": 315,
      "Ġcould": 316,
      "ud": 317,
      "round": 318,
      "ant": 319,
      "rid": 320,
      "Ġbeen": 321,
      "ĠL": 322,
      "Ġthou": 323,
      "Ġis": 324,
      "Ġab": 325,
      "Ġex": 326,
      "Harry": 327,
      "Ġle": 328,
      "ink": 329,
      "our": 330,
      "ĠDumbledore": 331,
      "Ġag": 332,
      "Ġno": 333,
      "ist": 334,
      "lf": 335,
      "ra": 336,
      "Ġro": 337,
      "ice": 338,
      "ous": 339,
      "ct": 340,
      "Ġal": 341,
      "ĠâĢĶâĢĿ": 342,
      "Ġde": 343,
      "ong": 344,
      "ff": 345,
      "ul": 346,
      "You": 347,
      "ace": 348,
      "Ġthis": 349,
      "ĠT": 350,
      "oy": 351,
      "Ġover": 352,
      "ss": 353,
      "Ġwould": 354,
      "ers": 355,
      "ley": 356,
      "ked": 357,
      "Ġthere": 358,
      "Ġsu": 359,
      "ig": 360,
      "hat": 361,
      "Ġknow": 362,
      "na": 363,
      "Ġpo": 364,
      "Ġtheir": 365,
      "ep": 366,
      "old": 367,
      "Ġdown": 368,
      "Ġabout": 369,
      "Ġoff": 370,
      "Ġany": 371,
      "iz": 372,
      "Ġagain": 373,
      "ven": 374,
      "Ġch": 375,
      "el": 376,
      "Ġone": 377,
      "ther": 378,
      "Ġlike": 379,
      "Ġlooked": 380,
      "way": 381,
      "urn": 382,
      "Ġsp": 383,
      "Ġqu": 384,
      "Ġnow": 385,
      "He": 386,
      "ting": 387,
      "Ġcon": 388,
      "ick": 389,
      "ĠâĢ¦âĢĿ": 390,
      "Ġaround": 391,
      "Ġyour": 392,
      "Ġus": 393,
      "ass": 394,
      "Ġun": 395,
      "ie": 396,
      "op": 397,
      "ime": 398,
      "Ġhand": 399,
      "Ġey": 400,
      "ally": 401,
      "ĠN": 402,
      "are": 403,
      "ull": 404,
      "ĠWe": 405,
      "Ġby": 406,
      "ap": 407,
      "Ġwor": 408,
      "Ġthink": 409,
      "fess": 410,
      "Ġjust": 411,
      "Ġgot": 412,
      "Ġthen": 413,
      "rofess": 414,
      "ered": 415,
      "rofessor": 416,
      "ark": 417,
      "agrid": 418,
      "Ġcan": 419,
      "Ġsc": 420,
      "ake": 421,
      "Ġtoo": 422,
      "right": 423,
      "Ġare": 424,
      "est": 425,
      "Ġbl": 426,
      "Ġsee": 427,
      "ward": 428,
      "Ġif": 429,
      "Ġget": 430,
      "reat": 431,
      "Ġpl": 432,
      "Ġwhen": 433,
      "Ġcl": 434,
      "up": 435,
      "Ġvery": 436,
      "Ġsl": 437,
      "ĠV": 438,
      "ĠMr": 439,
      "ear": 440,
      "Ġmore": 441,
      "Ġwand": 442,
      "Ġmy": 443,
      "bb": 444,
      "Ġor": 445,
      "Ġhead": 446,
      "nape": 447,
      "ame": 448,
      "Ġmo": 449,
      "og": 450,
      "ĠHagrid": 451,
      "ive": 452,
      "Ġcom": 453,
      "Ġthough": 454,
      "self": 455,
      "ate": 456,
      "ĠProfessor": 457,
      "Ġtw": 458,
      "asley": 459,
      "ang": 460,
      "Ġtime": 461,
      "Ġsm": 462,
      "Ġstill": 463,
      "ĠWeasley": 464,
      "Ġdoor": 465,
      "ound": 466,
      "Ġhow": 467,
      "pped": 468,
      "rough": 469,
      "ved": 470,
      "Ġvo": 471,
      "ĠSnape": 472,
      "ond": 473,
      "Ġeyes": 474,
      "ation": 475,
      "Ġtr": 476,
      "ared": 477,
      "orn": 478,
      "Ġlooking": 479,
      "Ġthan": 480,
      "ĠO": 481,
      "ving": 482,
      "Ġdon": 483,
      "Ġturn": 484,
      "air": 485,
      "ius": 486,
      "Ġthrough": 487,
      "Ġface": 488,
      "Ġgl": 489,
      "Ġsome": 490,
      "fore": 491,
      "ich": 492,
      "ĠE": 493,
      "ite": 494,
      "Ġright": 495,
      "nder": 496,
      "ure": 497,
      "Ġar": 498,
      "ath": 499,
      "ily": 500,
      "Ġgr": 501,
      "au": 502,
      "Ġgoing": 503,
      "alf": 504,
      "Ġvoice": 505,
      "Ġseem": 506,
      "Ġother": 507,
      "It": 508,
      "pt": 509,
      "inn": 510,
      "gg": 511,
      "ious": 512,
      "ave": 513,
      "tle": 514,
      "ened": 515,
      "Ġwhich": 516,
      "ire": 517,
      "Ġfl": 518,
      "Ġsw": 519,
      "ree": 520,
      "Ġsay": 521,
      "Ġthought": 522,
      "Ġbefore": 523,
      "ling": 524,
      "ĠIt": 525,
      "aus": 526,
      "other": 527,
      "ol": 528,
      "alfoy": 529,
      "Ġevery": 530,
      "fter": 531,
      "But": 532,
      "omet": 533,
      "Ġman": 534,
      "ĠPot": 535,
      "able": 536,
      "Ġwill": 537,
      "Ġdidn": 538,
      "Ġhere": 539,
      "Ġen": 540,
      "Ġroom": 541,
      "wn": 542,
      "idd": 543,
      "Ġclo": 544,
      "ched": 545,
      "orm": 546,
      "aking": 547,
      "ab": 548,
      "ade": 549,
      "Ġop": 550,
      "ft": 551,
      "What": 552,
      "od": 553,
      "side": 554,
      "Ġlong": 555,
      "th": 556,
      "Ġpre": 557,
      "Ġim": 558,
      "ile": 559,
      "emort": 560,
      "Ġonly": 561,
      "oldemort": 562,
      "ĠU": 563,
      "Ġwat": 564,
      "ĠMalfoy": 565,
      "aring": 566,
      "king": 567,
      "Ġte": 568,
      "Ġsomet": 569,
      "ho": 570,
      "Ġsaw": 571,
      "ts": 572,
      "And": 573,
      "Ġdis": 574,
      "Ġunder": 575,
      "Ġwhere": 576,
      "Ġkne": 577,
      "Ġhapp": 578,
      "Ġtell": 579,
      "Ġbeh": 580,
      "ĠK": 581,
      "age": 582,
      "row": 583,
      "Ġway": 584,
      "Ġpe": 585,
      "Ġwant": 586,
      "Ġafter": 587,
      "ried": 588,
      "ather": 589,
      "ĠVoldemort": 590,
      "izard": 591,
      "sed": 592,
      "ment": 593,
      "Ġbec": 594,
      "ves": 595,
      "Ġmu": 596,
      "Ġseemed": 597,
      "Ġsomething": 598,
      "Ġapp": 599,
      "Ġke": 600,
      "Ġlo": 601,
      "Ġhimself": 602,
      "irius": 603,
      "thing": 604,
      "Ġaway": 605,
      "Ġfir": 606,
      "Ġlet": 607,
      "Ġbet": 608,
      "Ġbehind": 609,
      "Ġlit": 610,
      "te": 611,
      "Ġeven": 612,
      "ause": 613,
      "ĠPotter": 614,
      "Ġasked": 615,
      "ect": 616,
      "Ġrem": 617,
      "mb": 618,
      "Ġspe": 619,
      "Ġturned": 620,
      "ever": 621,
      "Ġtold": 622,
      "Ġnever": 623,
      "ated": 624,
      "Ġbr": 625,
      "Ġtoward": 626,
      "Ġlast": 627,
      "lt": 628,
      "ks": 629,
      "Ġpoin": 630,
      "Ġcome": 631,
      "Ġac": 632,
      "act": 633,
      "ĠHog": 634,
      "Ġmom": 635,
      "agic": 636,
      "Ġthing": 637,
      "ance": 638,
      "Ġmuch": 639,
      "Ġmoment": 640,
      "Ġpro": 641,
      "ine": 642,
      "Ġtry": 643,
      "Ġyear": 644,
      "ĠSirius": 645,
      "oll": 646,
      "ool": 647,
      "ĠDe": 648,
      "ach": 649,
      "Ġknew": 650,
      "uff": 651,
      "dd": 652,
      "ord": 653,
      "ue": 654,
      "ering": 655,
      "Ġshould": 656,
      "ress": 657,
      "ople": 658,
      "ied": 659,
      "ching": 660,
      "Ġonce": 661,
      "ĠYou": 662,
      "Ġlittle": 663,
      "Well": 664,
      "Ġfirst": 665,
      "arts": 666,
      "We": 667,
      "Ġsil": 668,
      "ru": 669,
      "ful": 670,
      "Ġsec": 671,
      "Ġheard": 672,
      "Ġleft": 673,
      "Ġtwo": 674,
      "Ġmade": 675,
      "Ġpr": 676,
      "Ġhas": 677,
      "ody": 678,
      "ped": 679,
      "ont": 680,
      "No": 681,
      "Ġbot": 682,
      "ĠMin": 683,
      "Ġwa": 684,
      "ish": 685,
      "ĠThey": 686,
      "ase": 687,
      "Ġfelt": 688,
      "Ġgood": 689,
      "warts": 690,
      "owed": 691,
      "Ġdes": 692,
      "Ġpeople": 693,
      "les": 694,
      "Ġcont": 695,
      "ĠHogwarts": 696,
      "Ġits": 697,
      "Ġho": 698,
      "ady": 699,
      "nt": 700,
      "They": 701,
      "Ġpull": 702,
      "ple": 703,
      "Ġdark": 704,
      "room": 705,
      "Ġreally": 706,
      "Ġwizard": 707,
      "ies": 708,
      "Ġmight": 709,
      "Ġwell": 710,
      "ross": 711,
      "Ġatt": 712,
      "ev": 713,
      "less": 714,
      "udd": 715,
      "ĠFred": 716,
      "Ġflo": 717,
      "Ġarm": 718,
      "Ġsn": 719,
      "ory": 720,
      "ions": 721,
      "Ġtal": 722,
      "Ġwal": 723,
      "itch": 724,
      "ber": 725,
      "ille": 726,
      "hen": 727,
      "upin": 728,
      "Ġneed": 729,
      "ock": 730,
      "per": 731,
      "Ġdr": 732,
      "Ġfeel": 733,
      "ough": 734,
      "xt": 735,
      "ors": 736,
      "Ġfront": 737,
      "Ġam": 738,
      "ity": 739,
      "ĠMc": 740,
      "inny": 741,
      "rie": 742,
      "Ġwind": 743,
      "Ġsure": 744,
      "Qu": 745,
      "ĠMrs": 746,
      "ah": 747,
      "Ġever": 748,
      "Ġmust": 749,
      "ouse": 750,
      "ise": 751,
      "orge": 752,
      "Ġopen": 753,
      "Ġent": 754,
      "ose": 755,
      "Oh": 756,
      "eorge": 757,
      "oud": 758,
      "Ġche": 759,
      "eville": 760,
      "Ġmean": 761,
      "arge": 762,
      "ung": 763,
      "Ġimp": 764,
      "Ġcame": 765,
      "Ġold": 766,
      "me": 767,
      "Ġfeet": 768,
      "ĠGeorge": 769,
      "arm": 770,
      "ĠCh": 771,
      "ced": 772,
      "uck": 773,
      "ign": 774,
      "cy": 775,
      "Ġbecause": 776,
      "Ġpass": 777,
      "ream": 778,
      "Ġbel": 779,
      "Ġput": 780,
      "here": 781,
      "pl": 782,
      "Ġhur": 783,
      "Gon": 784,
      "agall": 785,
      "Gonagall": 786,
      "ons": 787,
      "Ġcr": 788,
      "ence": 789,
      "ĠLupin": 790,
      "ĠMcGonagall": 791,
      "ĠShe": 792,
      "rew": 793,
      "unn": 794,
      "Ġend": 795,
      "Ġfind": 796,
      "Ġown": 797,
      "Ġter": 798,
      "eah": 799,
      "Ġtook": 800,
      "Ġcle": 801,
      "ourse": 802,
      "be": 803,
      "Ġbed": 804,
      "Ġbit": 805,
      "anted": 806,
      "Ġanything": 807,
      "Ġsur": 808,
      "Ġgreat": 809,
      "Ġsupp": 810,
      "ĠQu": 811,
      "Ġday": 812,
      "Ġhard": 813,
      "There": 814,
      "Ġfew": 815,
      "Ġmake": 816,
      "Ġstand": 817,
      "Ġtable": 818,
      "Ġtrying": 819,
      "Ġhel": 820,
      "chool": 821,
      "ĠGinny": 822,
      "ished": 823,
      "Ġtake": 824,
      "ĠNeville": 825,
      "ents": 826,
      "ater": 827,
      "ised": 828,
      "ryff": 829,
      "ugg": 830,
      "ryffind": 831,
      "Ġwr": 832,
      "ank": 833,
      "ĠAnd": 834,
      "Ġanother": 835,
      "Ġwent": 836,
      "Ġlight": 837,
      "Ġgi": 838,
      "hes": 839,
      "ern": 840,
      "iff": 841,
      "Ġsecond": 842,
      "She": 843,
      "ridge": 844,
      "Ġhands": 845,
      "Ġnext": 846,
      "ĠGryffind": 847,
      "Ġword": 848,
      "Ġfloor": 849,
      "ost": 850,
      "Ġinside": 851,
      "Ġnight": 852,
      "Ġschool": 853,
      "ove": 854,
      "Ġside": 855,
      "arly": 856,
      "Ġcur": 857,
      "Ġwhile": 858,
      "oot": 859,
      "Ġem": 860,
      "iously": 861,
      "Ġboy": 862,
      "Ġkeep": 863,
      "cle": 864,
      "we": 865,
      "Ġlarge": 866,
      "Ġnew": 867,
      "Ġsound": 868,
      "iet": 869,
      "ee": 870,
      "body": 871,
      "Ġfound": 872,
      "Ġra": 873,
      "tered": 874,
      "Ġlau": 875,
      "Ġthree": 876,
      "ully": 877,
      "Ġcall": 878,
      "mbridge": 879,
      "Ġupon": 880,
      "Ġwindow": 881,
      "ĠIn": 882,
      "Ġwhis": 883,
      "ized": 884,
      "Ġblack": 885,
      "Yes": 886,
      "acher": 887,
      "Ġloud": 888,
      "ĠBl": 889,
      "get": 890,
      "sh": 891,
      "az": 892,
      "Ġsit": 893,
      "Ġel": 894,
      "Ġper": 895,
      "Ġcourse": 896,
      "Ġret": 897,
      "Ġset": 898,
      "Ġhair": 899,
      "app": 900,
      "ary": 901,
      "istry": 902,
      "Ġgave": 903,
      "Ġseen": 904,
      "bl": 905,
      "Ġground": 906,
      "ip": 907,
      "ne": 908,
      "Ġnothing": 909,
      "ement": 910,
      "ĠUmbridge": 911,
      "Ġstood": 912,
      "ild": 913,
      "Ġstr": 914,
      "ix": 915,
      "ty": 916,
      "ail": 917,
      "Ġhear": 918,
      "Ġhelp": 919,
      "ĠMinistry": 920,
      "ĠDeath": 921,
      "Ron": 922,
      "Th": 923,
      "ating": 924,
      "udden": 925,
      "Ġsk": 926,
      "ĠGryffindor": 927,
      "Ġonto": 928,
      "Ġreal": 929,
      "Ġjo": 930,
      "aw": 931,
      "Ġwhy": 932,
      "Ġfin": 933,
      "hy": 934,
      "Ġair": 935,
      "Ġhalf": 936,
      "Ġpulled": 937,
      "igh": 938,
      "Ġsudden": 939,
      "iss": 940,
      "airs": 941,
      "ightly": 942,
      "Ġbook": 943,
      "ower": 944,
      "ĠThere": 945,
      "ĠBut": 946,
      "ĠJ": 947,
      "Yeah": 948,
      "Ġwall": 949,
      "ness": 950,
      "Ġshout": 951,
      "Ġlif": 952,
      "av": 953,
      "Ġour": 954,
      "Ġmat": 955,
      "oody": 956,
      "Ġcast": 957,
      "Ġsat": 958,
      "Ġacross": 959,
      "ached": 960,
      "Ġwanted": 961,
      "ĠâĢĻ": 962,
      "ĠTh": 963,
      "Ġbeg": 964,
      "Ġsqu": 965,
      "bby": 966,
      "Ġstud": 967,
      "Ġfell": 968,
      "ans": 969,
      "Ġquick": 970,
      "ible": 971,
      "Ġplace": 972,
      "Ġhouse": 973,
      "Ġbeing": 974,
      "Ġwait": 975,
      "unt": 976,
      "ways": 977,
      "Ġfire": 978,
      "ump": 979,
      "ĠSt": 980,
      "ings": 981,
      "Ġeach": 982,
      "ently": 983,
      "Ġmost": 984,
      "ng": 985,
      "ars": 986,
      "Ġfoll": 987,
      "Ġwithout": 988,
      "Ġwasn": 989,
      "udge": 990,
      "Ġboth": 991,
      "Ġcor": 992,
      "Ġdoes": 993,
      "That": 994,
      "arted": 995,
      "Ġquite": 996,
      "Ġclass": 997,
      "Hermione": 998,
      "Ġdone": 999,
      "ĠDark": 1000,
      "Ġquiet": 1001,
      "Ġyears": 1002,
      "ib": 1003,
      "Ġsmall": 1004,
      "Ġhappened": 1005,
      "ening": 1006,
      "Ġmind": 1007,
      "Ġang": 1008,
      "Ġagainst": 1009,
      "Ġalong": 1010,
      "fully": 1011,
      "os": 1012,
      "So": 1013,
      "Ġcare": 1014,
      "outh": 1015,
      "Ġbetter": 1016,
      "ister": 1017,
      "ĠDo": 1018,
      "Ġcouldn": 1019,
      "cted": 1020,
      "aster": 1021,
      "riend": 1022,
      "ins": 1023,
      "Ġdoing": 1024,
      "ernon": 1025,
      "ĠâĢĺ": 1026,
      "Ġmagic": 1027,
      "Ġunt": 1028,
      "ric": 1029,
      "iling": 1030,
      "ten": 1031,
      "owing": 1032,
      "ying": 1033,
      "Ġple": 1034,
      "lu": 1035,
      "ĠVernon": 1036,
      "ey": 1037,
      "hap": 1038,
      "Ġbreat": 1039,
      "Ġenough": 1040,
      "pered": 1041,
      "Ġelse": 1042,
      "Ġste": 1043,
      "ĠMugg": 1044,
      "ĠUn": 1045,
      "li": 1046,
      "Ġexpe": 1047,
      "bes": 1048,
      "ĠMagic": 1049,
      "Ġkill": 1050,
      "ĠMad": 1051,
      "ined": 1052,
      "ready": 1053,
      "Ġhold": 1054,
      "Ġfam": 1055,
      "Ġmouth": 1056,
      "Ġeye": 1057,
      "eh": 1058,
      "pr": 1059,
      "Ġmut": 1060,
      "Ġless": 1061,
      "urs": 1062,
      "Ġmin": 1063,
      "amp": 1064,
      "Ġbo": 1065,
      "Ġfore": 1066,
      "tain": 1067,
      "und": 1068,
      "Ġalready": 1069,
      "aught": 1070,
      "ret": 1071,
      "Ġres": 1072,
      "lyther": 1073,
      "awn": 1074,
      "Ġyell": 1075,
      "ia": 1076,
      "Ġrobes": 1077,
      "cl": 1078,
      "Ġstaring": 1079,
      "arn": 1080,
      "Ġremem": 1081,
      "Ġwalked": 1082,
      "Ġpart": 1083,
      "Who": 1084,
      "reak": 1085,
      "Ġfriend": 1086,
      "Ġforward": 1087,
      "Ġbelie": 1088,
      "ince": 1089,
      "Ġgold": 1090,
      "iddle": 1091,
      "Ġread": 1092,
      "Ġdiff": 1093,
      "form": 1094,
      "eared": 1095,
      "ĠSlyther": 1096,
      "Ġpast": 1097,
      "Ġrest": 1098,
      "Ġtre": 1099,
      "ĠPer": 1100,
      "ĠHis": 1101,
      "pping": 1102,
      "Ġrather": 1103,
      "anger": 1104,
      "ĠMoody": 1105,
      "ween": 1106,
      "Ġtop": 1107,
      "Ġthose": 1108,
      "ably": 1109,
      "Ġgone": 1110,
      "ĠPet": 1111,
      "Ġreturn": 1112,
      "Ġsna": 1113,
      "Ġthese": 1114,
      "ense": 1115,
      "Ġbetween": 1116,
      "Ġwon": 1117,
      "Ġstanding": 1118,
      "Ġsuddenly": 1119,
      "Ġscar": 1120,
      "ged": 1121,
      "Ġob": 1122,
      "Ġinst": 1123,
      "ained": 1124,
      "Ġwhispered": 1125,
      "udley": 1126,
      "Ġbegan": 1127,
      "Ġuntil": 1128,
      "Ġfull": 1129,
      "most": 1130,
      "dded": 1131,
      "Ġgive": 1132,
      "Ġmany": 1133,
      "Ġopened": 1134,
      "Ġbro": 1135,
      "Ġcar": 1136,
      "ange": 1137,
      "Ġyet": 1138,
      "ĠAr": 1139,
      "wl": 1140,
      "Ġrec": 1141,
      "Ġslightly": 1142,
      "Ġsitting": 1143,
      "Ġtried": 1144,
      "Ġwond": 1145,
      "Ġcold": 1146,
      "ens": 1147,
      "Ġlist": 1148,
      "ĠThen": 1149,
      "ither": 1150,
      "idditch": 1151,
      "mon": 1152,
      "Ġcou": 1153,
      "Ġsto": 1154,
      "Ġglass": 1155,
      "Ġquickly": 1156,
      "oke": 1157,
      "ĠFudge": 1158,
      "Ġthings": 1159,
      "head": 1160,
      "Ġsame": 1161,
      "ches": 1162,
      "Ġhor": 1163,
      "Ġdro": 1164,
      "Ġdist": 1165,
      "Ġgre": 1166,
      "ult": 1167,
      "Ġminut": 1168,
      "How": 1169,
      "Ġclose": 1170,
      "ghorn": 1171,
      "Ġoffice": 1172,
      "Ġtalking": 1173,
      "Ġraised": 1174,
      "Ġcorrid": 1175,
      "Ġstart": 1176,
      "Ġstarted": 1177,
      "ĠQuidditch": 1178,
      "lughorn": 1179,
      "ph": 1180,
      "Ġreached": 1181,
      "Ġcastle": 1182,
      "Ġbad": 1183,
      "ĠGr": 1184,
      "ames": 1185,
      "day": 1186,
      "ĠUncle": 1187,
      "irl": 1188,
      "ĠLord": 1189,
      "ĠHall": 1190,
      "ention": 1191,
      "Ġdeep": 1192,
      "cket": 1193,
      "osed": 1194,
      "Ġwouldn": 1195,
      "Ġad": 1196,
      "ĠBlack": 1197,
      "gether": 1198,
      "Ġunderst": 1199,
      "Ġable": 1200,
      "Ġslow": 1201,
      "aken": 1202,
      "igg": 1203,
      "Ġco": 1204,
      "Ġdead": 1205,
      "Ġhigh": 1206,
      "tering": 1207,
      "Ġalways": 1208,
      "Ġdrag": 1209,
      "Ġexp": 1210,
      "Ġshouted": 1211,
      "Ġpain": 1212,
      "Ġalmost": 1213,
      "Ġtogether": 1214,
      "Ġname": 1215,
      "Ġstra": 1216,
      "Ġide": 1217,
      "ĠDudley": 1218,
      "erv": 1219,
      "iv": 1220,
      "Ġfather": 1221,
      "Ġlater": 1222,
      "lves": 1223,
      "you": 1224,
      "ĠSlughorn": 1225,
      "Ġanyone": 1226,
      "Ġcoming": 1227,
      "Ġfing": 1228,
      "Ġwork": 1229,
      "rac": 1230,
      "ured": 1231,
      "Ġusu": 1232,
      "Ġcalled": 1233,
      "Ġhour": 1234,
      "Ġmem": 1235,
      "Ġind": 1236,
      "Ġuse": 1237,
      "med": 1238,
      "Ġbes": 1239,
      "aters": 1240,
      "ately": 1241,
      "vis": 1242,
      "Ġposs": 1243,
      "Ġsle": 1244,
      "Ġstared": 1245,
      "der": 1246,
      "Ġbroom": 1247,
      "Not": 1248,
      "Ġgirl": 1249,
      "Ġscream": 1250,
      "sw": 1251,
      "Ġfar": 1252,
      "Ġpers": 1253,
      "Ġhowever": 1254,
      "Ġfour": 1255,
      "Ġdec": 1256,
      "Ġcontin": 1257,
      "Ġfeeling": 1258,
      "ere": 1259,
      "aced": 1260,
      "Ġfoot": 1261,
      "Ġcrow": 1262,
      "Ġmar": 1263,
      "Ġgu": 1264,
      "cus": 1265,
      "ci": 1266,
      "Ġowl": 1267,
      "Ġyeh": 1268,
      "unk": 1269,
      "Ġpar": 1270,
      "Ġwatching": 1271,
      "Ġsight": 1272,
      "Ġcrowd": 1273,
      "Ġquietly": 1274,
      "Ġwhole": 1275,
      "Ġvis": 1276,
      "Ġstudents": 1277,
      "ĠPercy": 1278,
      "ery": 1279,
      "raw": 1280,
      "rabb": 1281,
      "ron": 1282,
      "Ġsign": 1283,
      "ited": 1284,
      "Ġleg": 1285,
      "ought": 1286,
      "Ġdet": 1287,
      "Ġhall": 1288,
      "Ġbeside": 1289,
      "ird": 1290,
      "eps": 1291,
      "Ġlot": 1292,
      "Ġempt": 1293,
      "ĠDobby": 1294,
      "ued": 1295,
      "ures": 1296,
      "orry": 1297,
      "Ġlow": 1298,
      "Ġask": 1299,
      "ĠWhat": 1300,
      "Ġfur": 1301,
      "ict": 1302,
      "ĠSe": 1303,
      "Ġletter": 1304,
      "Ġstraight": 1305,
      "Ġaw": 1306,
      "Ġmother": 1307,
      "Ġred": 1308,
      "Ġoutside": 1309,
      "una": 1310,
      "iled": 1311,
      "rest": 1312,
      "Ġheart": 1313,
      "ĠAn": 1314,
      "Dumbledore": 1315,
      "ith": 1316,
      "Ġstop": 1317,
      "Ġeverything": 1318,
      "Ġcorn": 1319,
      "Ġcaught": 1320,
      "Ġwee": 1321,
      "ĠEaters": 1322,
      "Ġeveryone": 1323,
      "icked": 1324,
      "Ġmove": 1325,
      "Ġpassed": 1326,
      "ene": 1327,
      "Ġansw": 1328,
      "ĠSlytherin": 1329,
      "Ġcat": 1330,
      "Ġidea": 1331,
      "imes": 1332,
      "Ġsupposed": 1333,
      "rouch": 1334,
      "Ġwhether": 1335,
      "Ġkept": 1336,
      "Ġlife": 1337,
      "Ġsir": 1338,
      "Ġbelieve": 1339,
      "Ġslowly": 1340,
      "ply": 1341,
      "Ġstopped": 1342,
      "Professor": 1343,
      "Ġri": 1344,
      "Ġbest": 1345,
      "Ġisn": 1346,
      "Ġdef": 1347,
      "Ġsaying": 1348,
      "Ġwords": 1349,
      "If": 1350,
      "Ġhope": 1351,
      "Ġact": 1352,
      "Ġhit": 1353,
      "Ġmuttered": 1354,
      "Ġbur": 1355,
      "Ġgetting": 1356,
      "Ġdement": 1357,
      "acked": 1358,
      "Ġpot": 1359,
      "ĠMuggle": 1360,
      "where": 1361,
      "Ġwizards": 1362,
      "cc": 1363,
      "Ġsince": 1364,
      "Ġhaven": 1365,
      "Ġ(": 1366,
      "Ġhome": 1367,
      "Ġshort": 1368,
      "ĠAs": 1369,
      "ize": 1370,
      "Ġbreath": 1371,
      "Ġtaken": 1372,
      "rif": 1373,
      "cing": 1374,
      "Ġbreak": 1375,
      "ĠIf": 1376,
      "rum": 1377,
      "Ġplay": 1378,
      "Ġlaugh": 1379,
      "so": 1380,
      "edric": 1381,
      "Ġsomeone": 1382,
      "ject": 1383,
      "Ġsort": 1384,
      "Ġstay": 1385,
      "aged": 1386,
      "Don": 1387,
      "light": 1388,
      "âĢľâĢ": 1389,
      "ĠLuna": 1390,
      "ĠY": 1391,
      "Ġfall": 1392,
      "Ġstone": 1393,
      "Ġholding": 1394,
      "Ġgreen": 1395,
      "reacher": 1396,
      "rible": 1397,
      "Ġlea": 1398,
      "Ġmoved": 1399,
      "ging": 1400,
      "ĠSc": 1401,
      "Ġext": 1402,
      "Ġquest": 1403,
      "orning": 1404,
      "Ġcloak": 1405,
      "Ġdi": 1406,
      "ĠCrouch": 1407,
      "ursley": 1408,
      "phe": 1409,
      "rel": 1410,
      "ati": 1411,
      "Ġyes": 1412,
      "ĠDursley": 1413,
      "Ġdisapp": 1414,
      "Ġempty": 1415,
      "cept": 1416,
      "ĠFl": 1417,
      "Ġleave": 1418,
      "Ġnose": 1419,
      "Ġalone": 1420,
      "Ġcorridor": 1421,
      "Ġunderstand": 1422,
      "ility": 1423,
      "Ġcomp": 1424,
      "Ġsilence": 1425,
      "Ġloudly": 1426,
      "Ġbus": 1427,
      "ier": 1428,
      "Ġhadn": 1429,
      "Ġexam": 1430,
      "Ġtalk": 1431,
      "Ġminutes": 1432,
      "ows": 1433,
      "Ġwearing": 1434,
      "Ġappeared": 1435,
      "Ġpoint": 1436,
      "Ġmaking": 1437,
      "Ġteacher": 1438,
      "man": 1439,
      "Ġtaking": 1440,
      "iding": 1441,
      "ided": 1442,
      "Ġshoulder": 1443,
      "Ġpointed": 1444,
      "Ġarri": 1445,
      "Ġsurpr": 1446,
      "haps": 1447,
      "Ġbag": 1448,
      "ushed": 1449,
      "rave": 1450,
      "tend": 1451,
      "Ġhat": 1452,
      "umm": 1453,
      "ĠClo": 1454,
      "Ġspell": 1455,
      "ĠHow": 1456,
      "Ġmorning": 1457,
      "anks": 1458,
      "ĠAl": 1459,
      "Ġarms": 1460,
      "Ġfollowed": 1461,
      "ale": 1462,
      "ertain": 1463,
      "Ġrel": 1464,
      "unia": 1465,
      "Ġremember": 1466,
      "Why": 1467,
      "now": 1468,
      "Ġdire": 1469,
      "ously": 1470,
      "iny": 1471,
      "Ġfle": 1472,
      "Ġpower": 1473,
      "Ġstuff": 1474,
      "iced": 1475,
      "Ġwatched": 1476,
      "fect": 1477,
      "Ġmeet": 1478,
      "Ġwater": 1479,
      "Ġpointing": 1480,
      "ken": 1481,
      "read": 1482,
      "anced": 1483,
      "Ġothers": 1484,
      "Ġsilver": 1485,
      "Ġbu": 1486,
      "ĠMadam": 1487,
      "sp": 1488,
      "Ġce": 1489,
      "Ġmatter": 1490,
      "Do": 1491,
      "kay": 1492,
      "Ġfly": 1493,
      "Ġsever": 1494,
      "Ġser": 1495,
      "Ġkind": 1496,
      "ĠAunt": 1497,
      "ĠCedric": 1498,
      "actly": 1499,
      "ression": 1500,
      "ror": 1501,
      "Ġbright": 1502,
      "ilch": 1503,
      "Ġteam": 1504,
      "Ġdesk": 1505,
      "orc": 1506,
      "Ġmon": 1507,
      "Ġinter": 1508,
      "Ġexc": 1509,
      "Ġspot": 1510,
      "Ġcomple": 1511,
      "Ġcommon": 1512,
      "Ġacc": 1513,
      "ĠPetunia": 1514,
      "Ġcorner": 1515,
      "ĠCloak": 1516,
      "bo": 1517,
      "lled": 1518,
      "Ġclosed": 1519,
      "Ġseveral": 1520,
      "Ġchair": 1521,
      "Hagrid": 1522,
      "Ġhurried": 1523,
      "fort": 1524,
      "Ġthinking": 1525,
      "aces": 1526,
      "Ġwhite": 1527,
      "Ġref": 1528,
      "antly": 1529,
      "Ġentr": 1530,
      "Ġpat": 1531,
      "uring": 1532,
      "Ġkit": 1533,
      "Ġfast": 1534,
      "imb": 1535,
      "oyle": 1536,
      "Ġsuch": 1537,
      "ired": 1538,
      "ashed": 1539,
      "Ġmis": 1540,
      "ĠMinister": 1541,
      "This": 1542,
      "Mr": 1543,
      "Ġru": 1544,
      "ĠBill": 1545,
      "Ġhaving": 1546,
      "Ġbody": 1547,
      "selves": 1548,
      "Ġshaking": 1549,
      "lock": 1550,
      "Ġdoesn": 1551,
      "sit": 1552,
      "Ġmet": 1553,
      "vers": 1554,
      "Ġseat": 1555,
      "ĠAll": 1556,
      "Ġperson": 1557,
      "Ġlay": 1558,
      "ased": 1559,
      "Ġfamily": 1560,
      "Ġins": 1561,
      "Ġattem": 1562,
      "Ġusual": 1563,
      "Ġsent": 1564,
      "Ġthick": 1565,
      "Ġspeak": 1566,
      "ibility": 1567,
      "Ġheav": 1568,
      "ĠMy": 1569,
      "Ġgiven": 1570,
      "Ġten": 1571,
      "Ġnear": 1572,
      "unning": 1573,
      "nts": 1574,
      "rey": 1575,
      "Ġyelled": 1576,
      "Ġdirect": 1577,
      "Ġsorry": 1578,
      "chment": 1579,
      "Ġprot": 1580,
      "like": 1581,
      "Ġheld": 1582,
      "Ġdanger": 1583,
      "Ġneck": 1584,
      "rait": 1585,
      "Ġpocket": 1586,
      "Ġconf": 1587,
      "Ġused": 1588,
      "idden": 1589,
      "chen": 1590,
      "Ġ?âĢĿ": 1591,
      "Ġtrou": 1592,
      "Ġmur": 1593,
      "Ġmist": 1594,
      "esc": 1595,
      "Ġgaz": 1596,
      "ored": 1597,
      "Ġvan": 1598,
      "Ġblood": 1599,
      "Ġbooks": 1600,
      "Ġparchment": 1601,
      "aven": 1602,
      "Ġwrong": 1603,
      "ĠRiddle": 1604,
      "Ġsub": 1605,
      "Ġwatch": 1606,
      "Ġkitchen": 1607,
      "ipped": 1608,
      "sing": 1609,
      "Ġfight": 1610,
      "ash": 1611,
      "auld": 1612,
      "ps": 1613,
      "vent": 1614,
      "Ġed": 1615,
      "Ġentrance": 1616,
      "hart": 1617,
      "ze": 1618,
      "Ġmay": 1619,
      "icul": 1620,
      "ĠFilch": 1621,
      "Ġunc": 1622,
      "Ġswe": 1623,
      "rying": 1624,
      "Ġsaf": 1625,
      "awney": 1626,
      "relawney": 1627,
      "but": 1628,
      "ead": 1629,
      "Ġport": 1630,
      "ĠSn": 1631,
      "ĠWhen": 1632,
      "Ġexpl": 1633,
      "Ġtelling": 1634,
      "ockhart": 1635,
      "Ġcontinued": 1636,
      "no": 1637,
      "ĠTrelawney": 1638,
      "Ġadded": 1639,
      "Ġmoving": 1640,
      "Ġlost": 1641,
      "rugg": 1642,
      "Ġfingers": 1643,
      "Ġburst": 1644,
      "Ġsim": 1645,
      "Ġfact": 1646,
      "ork": 1647,
      "Ġodd": 1648,
      "leur": 1649,
      "acing": 1650,
      "ĠCho": 1651,
      "Ġeither": 1652,
      "terest": 1653,
      "abb": 1654,
      "tail": 1655,
      "case": 1656,
      "Ġrep": 1657,
      "Ġshut": 1658,
      "Ġdementors": 1659,
      "As": 1660,
      "ining": 1661,
      "Ġdou": 1662,
      "Ġnumb": 1663,
      "Ġforg": 1664,
      "aming": 1665,
      "Ġcomplete": 1666,
      "onks": 1667,
      "ooking": 1668,
      "Ġsmile": 1669,
      "overed": 1670,
      "undred": 1671,
      "Ġanswer": 1672,
      "let": 1673,
      "ĠHead": 1674,
      "Ġexactly": 1675,
      "ĠKreacher": 1676,
      "Ġdied": 1677,
      "Ġpare": 1678,
      "rux": 1679,
      "orcrux": 1680,
      "Know": 1681,
      "Ġfree": 1682,
      "Ġexpect": 1683,
      "by": 1684,
      "ĠHorcrux": 1685,
      "raco": 1686,
      "Ġfive": 1687,
      "Ġinc": 1688,
      "Ġinterest": 1689,
      "anded": 1690,
      "Ġdear": 1691,
      "Be": 1692,
      "Ġtear": 1693,
      "Ġdream": 1694,
      "rive": 1695,
      "Ġran": 1696,
      "ĠBag": 1697,
      "Ġsoon": 1698,
      "Ġdiffere": 1699,
      "tom": 1700,
      "ĠBe": 1701,
      "ually": 1702,
      "Ġstre": 1703,
      "Ġdays": 1704,
      "An": 1705,
      "Ġbene": 1706,
      "Ġthemselves": 1707,
      "ĠGreat": 1708,
      "rabbe": 1709,
      "br": 1710,
      "Ġtiny": 1711,
      "oun": 1712,
      "Ġhundred": 1713,
      "Ġcup": 1714,
      "ĠBell": 1715,
      "Ġpres": 1716,
      "ĠGoyle": 1717,
      "Ġdeath": 1718,
      "Ġsnake": 1719,
      "cent": 1720,
      "ping": 1721,
      "int": 1722,
      "Ġyoung": 1723,
      "ically": 1724,
      "ĠLockhart": 1725,
      "Ġwaiting": 1726,
      "Ġreturned": 1727,
      "Ġsleep": 1728,
      "Ġstair": 1729,
      "Ġshook": 1730,
      "Ġknock": 1731,
      "Ġspoke": 1732,
      "ield": 1733,
      "Ġplan": 1734,
      "anged": 1735,
      "ĠKrum": 1736,
      "Ġportrait": 1737,
      "inging": 1738,
      "Ġwitch": 1739,
      "ĠFire": 1740,
      "Ġspr": 1741,
      "Ġtrain": 1742,
      "Ġturning": 1743,
      "Ġdropped": 1744,
      "All": 1745,
      "Ġbell": 1746,
      "Ġnoticed": 1747,
      "Ġnearly": 1748,
      "Ġabove": 1749,
      "ntly": 1750,
      "Ġparents": 1751,
      "Ġshar": 1752,
      "ĠOr": 1753,
      "aff": 1754,
      "Ġtou": 1755,
      "Ġgobl": 1756,
      "Ġleast": 1757,
      "ĠThis": 1758,
      "Ġshall": 1759,
      "Ġago": 1760,
      "Ġnoise": 1761,
      "Ġalso": 1762,
      "ively": 1763,
      "ĠDursleys": 1764,
      "Ġwide": 1765,
      "Ġrun": 1766,
      "ĠTonks": 1767,
      "inning": 1768,
      "stairs": 1769,
      "ĠPr": 1770,
      "Ġtimes": 1771,
      "Ġlying": 1772,
      "Ġdarkness": 1773,
      "Ġgolden": 1774,
      "Ġbeneath": 1775,
      "Ġgas": 1776,
      "Ġstairs": 1777,
      "Ġsteps": 1778,
      "umped": 1779,
      "ĠFleur": 1780,
      "ax": 1781,
      "eak": 1782,
      "Ġpur": 1783,
      "Ġclut": 1784,
      "ĠCharm": 1785,
      "Ġforest": 1786,
      "Ġtri": 1787,
      "Ġburn": 1788,
      "Ġexcept": 1789,
      "Er": 1790,
      "My": 1791,
      "mas": 1792,
      "wo": 1793,
      "Ġround": 1794,
      "ination": 1795,
      "Ġentered": 1796,
      "Now": 1797,
      "Ġsus": 1798,
      "Ġfa": 1799,
      "ets": 1800,
      "roll": 1801,
      "upid": 1802,
      "Ġappro": 1803,
      "Ġcheck": 1804,
      "Ġhurt": 1805,
      "ising": 1806,
      "Ġcarry": 1807,
      "Ġears": 1808,
      "uth": 1809,
      "Ġreg": 1810,
      "ckon": 1811,
      "arely": 1812,
      "Ġdoors": 1813,
      "ason": 1814,
      "ĠInvis": 1815,
      "Ġfinished": 1816,
      "âĢľâĢĶ": 1817,
      "Ġflew": 1818,
      "ĠBagman": 1819,
      "wig": 1820,
      "Ġwom": 1821,
      "ren": 1822,
      "ĠDraco": 1823,
      "Ġsoft": 1824,
      "artment": 1825,
      "apt": 1826,
      "Ġchest": 1827,
      "Ġleaving": 1828,
      "Ġceiling": 1829,
      "ĠInvisibility": 1830,
      "ces": 1831,
      "rist": 1832,
      "ount": 1833,
      "Ġnerv": 1834,
      "Ġev": 1835,
      "rod": 1836,
      "enty": 1837,
      "ster": 1838,
      "Ġwhose": 1839,
      "abin": 1840,
      "Ġgrounds": 1841,
      "Ġfriends": 1842,
      "ald": 1843,
      "Ġcase": 1844,
      "Ġear": 1845,
      "amed": 1846,
      "Ġshock": 1847,
      "Ġneare": 1848,
      "ĠCrabbe": 1849,
      "Ġwrit": 1850,
      "Ġplease": 1851,
      "Ġquestion": 1852,
      "Ġton": 1853,
      "Ġopp": 1854,
      "ĠFor": 1855,
      "Ġspl": 1856,
      "ĠOn": 1857,
      "Ġtrouble": 1858,
      "ristmas": 1859,
      "edwig": 1860,
      "Ġcoll": 1861,
      "Ġthrew": 1862,
      "ĠPro": 1863,
      "Ġrealized": 1864,
      "Ġdraw": 1865,
      "Ġmid": 1866,
      "ressed": 1867,
      "Ġstaircase": 1868,
      "aned": 1869,
      "Ġstupid": 1870,
      "Ġrepe": 1871,
      "Ġmanaged": 1872,
      "Ġpract": 1873,
      "Ġarrived": 1874,
      "Come": 1875,
      "vo": 1876,
      "Ġcross": 1877,
      "ĠNo": 1878,
      "Ġclear": 1879,
      "St": 1880,
      "Ġsix": 1881,
      "rily": 1882,
      "akes": 1883,
      "Ġlegs": 1884,
      "eed": 1885,
      "Ġesc": 1886,
      "atri": 1887,
      "ĠChristmas": 1888,
      "Ġgiant": 1889,
      "Ġap": 1890,
      "Ġchance": 1891,
      "atrix": 1892,
      "stick": 1893,
      "ĠDean": 1894,
      "rified": 1895,
      "Ġtent": 1896,
      "Ġint": 1897,
      "Ġenorm": 1898,
      "Ġmagical": 1899,
      "board": 1900,
      "Chap": 1901,
      "Good": 1902,
      "Ġmad": 1903,
      "ages": 1904,
      "Ġlooks": 1905,
      "Ġrunning": 1906,
      "Ġimport": 1907,
      "Ġpotion": 1908,
      "Chapter": 1909,
      "ER": 1910,
      "Snape": 1911,
      "uc": 1912,
      "aper": 1913,
      "Ġglanced": 1914,
      "ormtail": 1915,
      "Ġbecame": 1916,
      "off": 1917,
      "ishing": 1918,
      "Ġeas": 1919,
      "ief": 1920,
      "Ġclimb": 1921,
      "Ġwalls": 1922,
      "ush": 1923,
      "illed": 1924,
      "Ġnobody": 1925,
      "Ġattack": 1926,
      "Ġvanished": 1927,
      "OU": 1928,
      "ger": 1929,
      "Ġcreat": 1930,
      "Ġeff": 1931,
      "ĠNow": 1932,
      "Ġlonger": 1933,
      "Ġevening": 1934,
      "Ġwindows": 1935,
      "Ġglasses": 1936,
      "Ġexpression": 1937,
      "mly": 1938,
      "ug": 1939,
      "Ġwarn": 1940,
      "Ġpict": 1941,
      "used": 1942,
      "rill": 1943,
      "ĠWizard": 1944,
      "Ġsays": 1945,
      "Ġemer": 1946,
      "the": 1947,
      "ingly": 1948,
      "olt": 1949,
      "Ġmatch": 1950,
      "Ġwoman": 1951,
      "Ġer": 1952,
      "Ġcertain": 1953,
      "ask": 1954,
      "Ġwithin": 1955,
      "Ġworld": 1956,
      "Ġtrunk": 1957,
      "Ġpress": 1958,
      "Ġforgot": 1959,
      "When": 1960,
      "Where": 1961,
      "work": 1962,
      "Ġson": 1963,
      "Ġocc": 1964,
      "Ġcent": 1965,
      "Ġknown": 1966,
      "Ġperhaps": 1967,
      "Ġdragon": 1968,
      "Ġenormous": 1969,
      "Ġpie": 1970,
      "Ġinform": 1971,
      "ĠRe": 1972,
      "Ġseized": 1973,
      "ĠThat": 1974,
      "iew": 1975,
      "Ġsword": 1976,
      "inted": 1977,
      "Ġhop": 1978,
      "Ġfif": 1979,
      "ident": 1980,
      "Ġmeant": 1981,
      "Ġsafe": 1982,
      "Ġthr": 1983,
      "Ġwalking": 1984,
      "Ġnumber": 1985,
      "bably": 1986,
      "lin": 1987,
      "rup": 1988,
      "ser": 1989,
      "Ġready": 1990,
      "looking": 1991,
      "ĠHedwig": 1992,
      "Ġluck": 1993,
      "Ġcho": 1994,
      "ogn": 1995,
      "ection": 1996,
      "Ġpulling": 1997,
      "ĠProphe": 1998,
      "kes": 1999,
      "Ġsun": 2000,
      "Ġbar": 2001,
      "Ġherself": 2002,
      "Ġlead": 2003,
      "Ġknows": 2004,
      "Ġfinally": 2005,
      "In": 2006,
      "Ġthin": 2007,
      "als": 2008,
      "Ġshad": 2009,
      "Ġangry": 2010,
      "ĠHouse": 2011,
      "str": 2012,
      "Ġve": 2013,
      "Ġign": 2014,
      "Ġsumm": 2015,
      "Ġcir": 2016,
      "Ġhang": 2017,
      "Ġass": 2018,
      "pect": 2019,
      "inking": 2020,
      "ations": 2021,
      "Ġbelow": 2022,
      "Ġangrily": 2023,
      "Ġwood": 2024,
      "Ġelf": 2025,
      "ĠSo": 2026,
      "amus": 2027,
      "Ġhappy": 2028,
      "Ġtonight": 2029,
      "bus": 2030,
      "rely": 2031,
      "ices": 2032,
      "aining": 2033,
      "Ġrememb": 2034,
      "Ġbroke": 2035,
      "Ġbroken": 2036,
      "Ex": 2037,
      "Ġokay": 2038,
      "rought": 2039,
      "ĠAt": 2040,
      "Ġwands": 2041,
      "Ġsmiling": 2042,
      "Ġkilled": 2043,
      "Ġlistening": 2044,
      "ĠBellatrix": 2045,
      "nding": 2046,
      "Ġfig": 2047,
      "aning": 2048,
      "Ġheads": 2049,
      "Ġtrue": 2050,
      "unny": 2051,
      "ĠArts": 2052,
      "Ġrecogn": 2053,
      "Ġweek": 2054,
      "Ġflying": 2055,
      "kab": 2056,
      "rim": 2057,
      "zkab": 2058,
      "Ġinv": 2059,
      "Ġclearly": 2060,
      "Ġjob": 2061,
      "Ġinstead": 2062,
      "Ġcompletely": 2063,
      "zkaban": 2064,
      "oom": 2065,
      "rell": 2066,
      "Ġbat": 2067,
      "Ġcut": 2068,
      "Ġthro": 2069,
      "Ġpale": 2070,
      "cho": 2071,
      "arently": 2072,
      "Ġflat": 2073,
      "Ġseconds": 2074,
      "Ġvisit": 2075,
      "Did": 2076,
      "ĠWormtail": 2077,
      "inky": 2078,
      "icking": 2079,
      "Ġsuppose": 2080,
      "Ġlesson": 2081,
      "claw": 2082,
      "avenclaw": 2083,
      "Look": 2084,
      "gain": 2085,
      "tly": 2086,
      "ub": 2087,
      "Ġegg": 2088,
      "aled": 2089,
      "ĠAzkaban": 2090,
      "Ġnodded": 2091,
      "Ġanyway": 2092,
      "Ġmemory": 2093,
      "mit": 2094,
      "isk": 2095,
      "ison": 2096,
      "Ġreason": 2097,
      "Ġbackward": 2098,
      "inner": 2099,
      "Ġbrother": 2100,
      "Ġtrees": 2101,
      "ĠSnitch": 2102,
      "ĠProphet": 2103,
      "cause": 2104,
      "not": 2105,
      "Ġz": 2106,
      "oul": 2107,
      "Ġbarely": 2108,
      "Ġthrow": 2109,
      "Ġecho": 2110,
      "ĠEvery": 2111,
      "Ġdisc": 2112,
      "Ġmonth": 2113,
      "Ġrepeated": 2114,
      "Ġmiss": 2115,
      "Ġmention": 2116,
      "Ġlake": 2117,
      "Ġstret": 2118,
      "Ġshow": 2119,
      "Ġimag": 2120,
      "ĠJames": 2121,
      "ĠMagical": 2122,
      "Ġought": 2123,
      "arrow": 2124,
      "Ġball": 2125,
      "Ġsky": 2126,
      "master": 2127,
      "Ġill": 2128,
      "Ġtor": 2129,
      "Ġwhom": 2130,
      "ĠSh": 2131,
      "ĠRavenclaw": 2132,
      "ĠWell": 2133,
      "ghed": 2134,
      "ike": 2135,
      "ider": 2136,
      "Ġled": 2137,
      "Ġreckon": 2138,
      "ĠEater": 2139,
      "Ġhidden": 2140,
      "Ġgle": 2141,
      "Ġstory": 2142,
      "Ġforced": 2143,
      "Ġshot": 2144,
      "ains": 2145,
      "Ġlearn": 2146,
      "Ġscr": 2147,
      "Ġstrange": 2148,
      "ĠSeamus": 2149,
      "Ġtears": 2150,
      "Ġahead": 2151,
      "Ġcal": 2152,
      "unch": 2153,
      "Ġbox": 2154,
      "Ġhours": 2155,
      "auldron": 2156,
      "Ġdoub": 2157,
      "wh": 2158,
      "ye": 2159,
      "iness": 2160,
      "orrow": 2161,
      "ĠWood": 2162,
      "Ġcons": 2163,
      "Ġhappen": 2164,
      "Ġgiving": 2165,
      "ĠMuggles": 2166,
      "Ġhorrible": 2167,
      "Ġbig": 2168,
      "ĠHer": 2169,
      "orted": 2170,
      "Ġdorm": 2171,
      "Ġmiddle": 2172,
      "Ġpair": 2173,
      "imm": 2174,
      "Ġrat": 2175,
      "Ġquill": 2176,
      "Ġimportant": 2177,
      "rook": 2178,
      "Ġwing": 2179,
      "Ġcabin": 2180,
      "Ġmir": 2181,
      "Ġfear": 2182,
      "Ġblank": 2183,
      "Ġstepped": 2184,
      "Ġsnapped": 2185,
      "Ġdifferent": 2186,
      "Ġir": 2187,
      "Ġbow": 2188,
      "Ġfre": 2189,
      "ates": 2190,
      "isted": 2191,
      "ition": 2192,
      "Ġanx": 2193,
      "ĠEr": 2194,
      "shanks": 2195,
      "rookshanks": 2196,
      "aroff": 2197,
      "Ġthird": 2198,
      "ane": 2199,
      "arkaroff": 2200,
      "Just": 2201,
      "On": 2202,
      "Ġcop": 2203,
      "Ġgri": 2204,
      "ancing": 2205,
      "omf": 2206,
      "Ġeag": 2207,
      "aped": 2208,
      "lessly": 2209,
      "eeves": 2210,
      "Ġdormit": 2211,
      "ial": 2212,
      "Ġsing": 2213,
      "Ġhum": 2214,
      "Ġbrought": 2215,
      "ita": 2216,
      "Ġlate": 2217,
      "Ġstrugg": 2218,
      "ĠPar": 2219,
      "Ġblue": 2220,
      "Ġtruth": 2221,
      "Ġpoints": 2222,
      "atur": 2223,
      "Ġpushed": 2224,
      "vering": 2225,
      "uffle": 2226,
      "Ġdeser": 2227,
      "Ġpossible": 2228,
      "ape": 2229,
      "Ġfright": 2230,
      "ĠPomf": 2231,
      "Ġprobably": 2232,
      "ĠPomfrey": 2233,
      "Of": 2234,
      "ta": 2235,
      "Ġstom": 2236,
      "Ġtrans": 2237,
      "Ġgray": 2238,
      "Ġsilent": 2239,
      "Ġdesper": 2240,
      "ĠOrder": 2241,
      "Ġcarrying": 2242,
      "Ġsummer": 2243,
      "ipp": 2244,
      "more": 2245,
      "Ġduring": 2246,
      "Ġrose": 2247,
      "Ġyourself": 2248,
      "bbing": 2249,
      "Ġhardly": 2250,
      "Ġsounded": 2251,
      "ixed": 2252,
      "Ġexcited": 2253,
      "Ġdangerous": 2254,
      "At": 2255,
      "IN": 2256,
      "Let": 2257,
      "rit": 2258,
      "Ġhast": 2259,
      "Ġfine": 2260,
      "Ġfaces": 2261,
      "icult": 2262,
      "ĠMar": 2263,
      "Ġshrie": 2264,
      "Ġsugg": 2265,
      "Ġchamp": 2266,
      "teen": 2267,
      "Ġbottle": 2268,
      "Ġlaughed": 2269,
      "Ġwonder": 2270,
      "ĠAlbus": 2271,
      "Ġadd": 2272,
      "nded": 2273,
      "Ġfro": 2274,
      "ĠSever": 2275,
      "ters": 2276,
      "ular": 2277,
      "Ġpretend": 2278,
      "Ġappear": 2279,
      "Ġobject": 2280,
      "Ah": 2281,
      "gy": 2282,
      "Ġcried": 2283,
      "Ġmaster": 2284,
      "Ġglo": 2285,
      "ĠAgain": 2286,
      "Ġroared": 2287,
      "Ġexpected": 2288,
      "Ġobv": 2289,
      "Ġedge": 2290,
      "sme": 2291,
      "ghter": 2292,
      "ĠOne": 2293,
      "thur": 2294,
      "Ġnews": 2295,
      "Ġlaughter": 2296,
      "Ġdifficult": 2297,
      "Ġcouple": 2298,
      "Ġgoblin": 2299,
      "Ġpicked": 2300,
      "ĠPat": 2301,
      "Ġjumped": 2302,
      "ĠCup": 2303,
      "Ġworse": 2304,
      "Ġpleased": 2305,
      "smeade": 2306,
      "Ġdrew": 2307,
      "Then": 2308,
      "pell": 2309,
      "geour": 2310,
      "Ġaren": 2311,
      "Ġcloser": 2312,
      "ĠDef": 2313,
      "Ġparticul": 2314,
      "medi": 2315,
      "rimgeour": 2316,
      "ufflep": 2317,
      "Are": 2318,
      "For": 2319,
      "Ġhung": 2320,
      "Ġcovered": 2321,
      "Ġpun": 2322,
      "Ġform": 2323,
      "ament": 2324,
      "ĠCrookshanks": 2325,
      "Ġgirls": 2326,
      "Ġheavy": 2327,
      "bolt": 2328,
      "Ġtem": 2329,
      "Ġwild": 2330,
      "ital": 2331,
      "ĠHufflep": 2332,
      "oring": 2333,
      "Ġyeah": 2334,
      "aching": 2335,
      "ĠHogsmeade": 2336,
      "Ġstreet": 2337,
      "apped": 2338,
      "uge": 2339,
      "Ġtree": 2340,
      "Ġsister": 2341,
      "Ġfunny": 2342,
      "Ġcol": 2343,
      "Ġnorm": 2344,
      "ushing": 2345,
      "rol": 2346,
      "Ġstomach": 2347,
      "fast": 2348,
      "reme": 2349,
      "Ġbas": 2350,
      "ories": 2351,
      "eter": 2352,
      "Ġnote": 2353,
      "ĠApp": 2354,
      "ife": 2355,
      "orth": 2356,
      "ĠEx": 2357,
      "host": 2358,
      "Ġindeed": 2359,
      "Ġsubject": 2360,
      "ucius": 2361,
      "ĠHufflepuff": 2362,
      "Ġtight": 2363,
      "Ġfield": 2364,
      "Ġdinner": 2365,
      "ĠDigg": 2366,
      "Ġposit": 2367,
      "Ġord": 2368,
      "Ġwondered": 2369,
      "Ġsimply": 2370,
      "Ġapart": 2371,
      "Ġgrou": 2372,
      "Ġnor": 2373,
      "Ġmerely": 2374,
      "Ġgrow": 2375,
      "Ġimmedi": 2376,
      "Ġtea": 2377,
      "Ġperfect": 2378,
      "avor": 2379,
      "Ġthroat": 2380,
      "Is": 2381,
      "Ġph": 2382,
      "Ġghost": 2383,
      "aybe": 2384,
      "Ġfrown": 2385,
      "ourn": 2386,
      "ĠTr": 2387,
      "Ġwants": 2388,
      "Ġlaughing": 2389,
      "aut": 2390,
      "Ġmark": 2391,
      "oth": 2392,
      "eth": 2393,
      "amber": 2394,
      "geon": 2395,
      "cked": 2396,
      "Ġalive": 2397,
      "Ġslid": 2398,
      "Ġmyself": 2399,
      "Ġlove": 2400,
      "blood": 2401,
      "Ġcarefully": 2402,
      "Ġscreamed": 2403,
      "Ġgasped": 2404,
      "iar": 2405,
      "wick": 2406,
      "Ġavo": 2407,
      "Ġmess": 2408,
      "oming": 2409,
      "Ġaside": 2410,
      "riph": 2411,
      "ept": 2412,
      "Ġheadmaster": 2413,
      "ĠKarkaroff": 2414,
      "Ġwalk": 2415,
      "Ġjoined": 2416,
      "Ġactually": 2417,
      "riphook": 2418,
      "bs": 2419,
      "eep": 2420,
      "Ġtra": 2421,
      "Ġbath": 2422,
      "Ġfer": 2423,
      "Ġdad": 2424,
      "Ġdare": 2425,
      "Ġnarrow": 2426,
      "ĠWhy": 2427,
      "Ġleapt": 2428,
      "Ġchild": 2429,
      "avender": 2430,
      "Ġhole": 2431,
      "Ġtremb": 2432,
      "Ġstarting": 2433,
      "Ġguard": 2434,
      "aily": 2435,
      "face": 2436,
      "itwick": 2437,
      "ĠNot": 2438,
      "Ġworry": 2439,
      "ments": 2440,
      "Ġapparently": 2441,
      "Ġremained": 2442,
      "ungus": 2443,
      "Ġfamil": 2444,
      "Ġbroomstick": 2445,
      "Ġattemp": 2446,
      "Sh": 2447,
      "aid": 2448,
      "Ġtip": 2449,
      "Ġdem": 2450,
      "Ġnice": 2451,
      "ĠSke": 2452,
      "amb": 2453,
      "ĠPeeves": 2454,
      "blet": 2455,
      "Ġabs": 2456,
      "Ġsomebody": 2457,
      "Ġprom": 2458,
      "Ġneeded": 2459,
      "ĠGranger": 2460,
      "Ġcatch": 2461,
      "Ġbreakfast": 2462,
      "Ġremembered": 2463,
      "ning": 2464,
      "Ġbent": 2465,
      "Ġann": 2466,
      "Ġshop": 2467,
      "anding": 2468,
      "Ġweren": 2469,
      "aused": 2470,
      "Ġterrible": 2471,
      "Ġteachers": 2472,
      "ĠAgainst": 2473,
      "Bl": 2474,
      "Right": 2475,
      "yond": 2476,
      "zen": 2477,
      "Ġtightly": 2478,
      "ones": 2479,
      "ote": 2480,
      "Ġbeyond": 2481,
      "ays": 2482,
      "Ġdog": 2483,
      "Ġsmiled": 2484,
      "Ġknees": 2485,
      "Ġbecome": 2486,
      "Ġdrink": 2487,
      "undungus": 2488,
      "Ġadv": 2489,
      "Ġextreme": 2490,
      "ĠFlitwick": 2491,
      "Ġdirection": 2492,
      "rode": 2493,
      "Ġclimbed": 2494,
      "AR": 2495,
      "col": 2496,
      "ges": 2497,
      "joy": 2498,
      "Ġhuge": 2499,
      "imp": 2500,
      "Ġallowed": 2501,
      "Ġview": 2502,
      "Ġsomewhere": 2503,
      "ĠPotions": 2504,
      "Ġstrong": 2505,
      "Ġsurprise": 2506,
      "Ġoppos": 2507,
      "Ġtall": 2508,
      "Ġwish": 2509,
      "Ġcre": 2510,
      "Ġsurprised": 2511,
      "Ġpicture": 2512,
      "Ġaf": 2513,
      "Ġtoday": 2514,
      "Ġdest": 2515,
      "any": 2516,
      "Ġnone": 2517,
      "ĠDaily": 2518,
      "Ġforget": 2519,
      "ammed": 2520,
      "Ġsear": 2521,
      "Ġpost": 2522,
      "Ġworking": 2523,
      "Ġslipped": 2524,
      "Ġbottom": 2525,
      "ĠScrimgeour": 2526,
      "abbers": 2527,
      "Ġsharply": 2528,
      "Ġclutching": 2529,
      "Ġinformation": 2530,
      "His": 2531,
      "ler": 2532,
      "vati": 2533,
      "arl": 2534,
      "ashing": 2535,
      "Ġpink": 2536,
      "Ġitself": 2537,
      "Ġuna": 2538,
      "ĠLucius": 2539,
      "Ġanymore": 2540,
      "eling": 2541,
      "Ġworried": 2542,
      "Ġtwenty": 2543,
      "Ġteeth": 2544,
      "Ġproper": 2545,
      "Ġlessons": 2546,
      "ĠSec": 2547,
      "Ġeager": 2548,
      "ĠDiggory": 2549,
      "Ġpaper": 2550,
      "Ġstaff": 2551,
      "ute": 2552,
      "agg": 2553,
      "ague": 2554,
      "itely": 2555,
      "Ġhasn": 2556,
      "Ġcrack": 2557,
      "beak": 2558,
      "Ġboys": 2559,
      "Ġclassroom": 2560,
      "Ġforehead": 2561,
      "Ġdecided": 2562,
      "ĠSkeeter": 2563,
      "ĠâĢĿ": 2564,
      "Ġtail": 2565,
      "Ġsense": 2566,
      "Ġhot": 2567,
      "ical": 2568,
      "urse": 2569,
      "Ġupstairs": 2570,
      "raid": 2571,
      "early": 2572,
      "Ġhappily": 2573,
      "Ġsnow": 2574,
      "uckbeak": 2575,
      "Ġsurround": 2576,
      "spital": 2577,
      "ĠDefense": 2578,
      "kin": 2579,
      "zing": 2580,
      "Ġhol": 2581,
      "Ġdust": 2582,
      "ĠRita": 2583,
      "Ġliving": 2584,
      "Ġhospital": 2585,
      "Ġattention": 2586,
      "Ġextra": 2587,
      "Ġattempt": 2588,
      "Ġforgotten": 2589,
      "Ġopposite": 2590,
      "Eye": 2591,
      "inx": 2592,
      "Ġbang": 2593,
      "Ġfain": 2594,
      "asure": 2595,
      "Ġdun": 2596,
      "Ġsol": 2597,
      "Ġpol": 2598,
      "Ġconvers": 2599,
      "Ġseeing": 2600,
      "OR": 2601,
      "Very": 2602,
      "elf": 2603,
      "ha": 2604,
      "Ġfilled": 2605,
      "Ġpan": 2606,
      "Ġweak": 2607,
      "ude": 2608,
      "ĠLavender": 2609,
      "rows": 2610,
      "Ġspeaking": 2611,
      "ĠJust": 2612,
      "Ġfollowing": 2613,
      "Ġcount": 2614,
      "Ġfinger": 2615,
      "Ġdeterm": 2616,
      "Ġgazing": 2617,
      "Ġpresent": 2618,
      "Ġafraid": 2619,
      "Malfoy": 2620,
      "Ġhiding": 2621,
      "Ġfavor": 2622,
      "Ġcry": 2623,
      "steps": 2624,
      "ĠDad": 2625,
      "ander": 2626,
      "ĠGriphook": 2627,
      "Ġdeal": 2628,
      "Ġconv": 2629,
      "Ġenjoy": 2630,
      "Ġpiece": 2631,
      "HE": 2632,
      "ton": 2633,
      "Ġtow": 2634,
      "irrell": 2635,
      "Ġrepl": 2636,
      "Ġforce": 2637,
      "elve": 2638,
      "Ġtrust": 2639,
      "Ġswung": 2640,
      "Ġdiscus": 2641,
      "Ġsecret": 2642,
      "Ġmeans": 2643,
      "Ġlisten": 2644,
      "Ġextremely": 2645,
      "Can": 2646,
      "Ġpack": 2647,
      "ĠWinky": 2648,
      "gelin": 2649,
      "ĠFr": 2650,
      "Ġplaced": 2651,
      "ruck": 2652,
      "Ġimpati": 2653,
      "Ġwondering": 2654,
      "Ġfuriously": 2655,
      "gelina": 2656,
      "ON": 2657,
      "its": 2658,
      "Ġmass": 2659,
      "Ġnotice": 2660,
      "Ġspir": 2661,
      "Ġdisg": 2662,
      "Ġcoun": 2663,
      "Ġpossess": 2664,
      "ĠScabbers": 2665,
      "Ġpurple": 2666,
      "Ġmirror": 2667,
      "Ġsingle": 2668,
      "back": 2669,
      "hered": 2670,
      "aded": 2671,
      "blem": 2672,
      "Ġchange": 2673,
      "Ġsmell": 2674,
      "Ġvoices": 2675,
      "Ġarg": 2676,
      "Ġgrinning": 2677,
      "Ġbring": 2678,
      "ĠBlud": 2679,
      "Ġeyeb": 2680,
      "Ġdisappeared": 2681,
      "Ġcirc": 2682,
      "Ġdormitory": 2683,
      "night": 2684,
      "oon": 2685,
      "Ġ1": 2686,
      "inting": 2687,
      "Ġhesit": 2688,
      "ĠMundungus": 2689,
      "ĠDis": 2690,
      "Ġlibr": 2691,
      "Ġkeeping": 2692,
      "ĠSlytherins": 2693,
      "ĠFirebolt": 2694,
      "Ġimmediately": 2695,
      "Ġwarm": 2696,
      "arled": 2697,
      "Ġbound": 2698,
      "Ġfood": 2699,
      "lliv": 2700,
      "Ġdie": 2701,
      "Ġnast": 2702,
      "Ġstrode": 2703,
      "tern": 2704,
      "Ġroll": 2705,
      "ĠTom": 2706,
      "izing": 2707,
      "Ġjoin": 2708,
      "Ġbellowed": 2709,
      "Ġhastily": 2710,
      "een": 2711,
      "ker": 2712,
      "ring": 2713,
      "rtle": 2714,
      "tig": 2715,
      "Ġble": 2716,
      "Ġline": 2717,
      "leep": 2718,
      "Ġstep": 2719,
      "ĠSome": 2720,
      "ĠBuckbeak": 2721,
      "Ġwhatever": 2722,
      "Ġpassage": 2723,
      "Ġfootsteps": 2724,
      "Ġmarble": 2725,
      "Ġhomework": 2726,
      "Ġpowerful": 2727,
      "Ġknocked": 2728,
      "ury": 2729,
      "llent": 2730,
      "Ġlanded": 2731,
      "ads": 2732,
      "Ġje": 2733,
      "orting": 2734,
      "Ġrolled": 2735,
      "unno": 2736,
      "Ġterrified": 2737,
      "Ġwaited": 2738,
      "Ġtouch": 2739,
      "Ġpractice": 2740,
      "Ġdoubt": 2741,
      "ĠSeverus": 2742,
      "tigrew": 2743,
      "Sirius": 2744,
      "clock": 2745,
      "how": 2746,
      "ived": 2747,
      "Ġterm": 2748,
      "Ġfixed": 2749,
      "itched": 2750,
      "Ġpri": 2751,
      "cellent": 2752,
      "Ġrid": 2753,
      "ogra": 2754,
      "Ġlocket": 2755,
      "Ġremind": 2756,
      "Ġweeks": 2757,
      "llivander": 2758,
      "uing": 2759,
      "Ġele": 2760,
      "ĠWith": 2761,
      "Ġscared": 2762,
      "Ġafterno": 2763,
      "Ġattacked": 2764,
      "Ġbedroom": 2765,
      "Ġminute": 2766,
      "Dobby": 2767,
      "Ġnearer": 2768,
      "ournament": 2769,
      "Ġholid": 2770,
      "Ġlibrary": 2771,
      "LE": 2772,
      "af": 2773,
      "pic": 2774,
      "tled": 2775,
      "inct": 2776,
      "Ġsick": 2777,
      "Ġcauldron": 2778,
      "Ġdress": 2779,
      "Ġpath": 2780,
      "Ġpage": 2781,
      "Ġgrabb": 2782,
      "Ġur": 2783,
      "Ġsend": 2784,
      "oney": 2785,
      "Ġlive": 2786,
      "ĠTower": 2787,
      "Ġtwelve": 2788,
      "Ġenc": 2789,
      "ables": 2790,
      "Ġprefect": 2791,
      "Ġfirmly": 2792,
      "Ġreading": 2793,
      "Ġusually": 2794,
      "Ġmeeting": 2795,
      "ĠWizarding": 2796,
      "Ġfigure": 2797,
      "ĠErn": 2798,
      "reed": 2799,
      "Ġmap": 2800,
      "Ġgard": 2801,
      "Ġeart": 2802,
      "Ġthinks": 2803,
      "Ġcannot": 2804,
      "ĠWeasleys": 2805,
      "Ġglad": 2806,
      "inned": 2807,
      "Ġproblem": 2808,
      "Ġnervously": 2809,
      "ĠAppar": 2810,
      "bot": 2811,
      "ls": 2812,
      "Ġtask": 2813,
      "atter": 2814,
      "Ġmag": 2815,
      "otts": 2816,
      "Ġshowed": 2817,
      "aked": 2818,
      "ĠCurse": 2819,
      "Ġdelight": 2820,
      "Ġprophe": 2821,
      "Ġfollow": 2822,
      "Ġplaying": 2823,
      "Ġparticularly": 2824,
      "Ġgroup": 2825,
      "Ġafternoon": 2826,
      "come": 2827,
      "fer": 2828,
      "omp": 2829,
      "ĠBur": 2830,
      "Ġrock": 2831,
      "Ġdep": 2832,
      "Ġspent": 2833,
      "ĠNor": 2834,
      "Ġsne": 2835,
      "ibly": 2836,
      "Ġsoftly": 2837,
      "Ġphot": 2838,
      "arlie": 2839,
      "Your": 2840,
      "ual": 2841,
      "atie": 2842,
      "ides": 2843,
      "Ġincl": 2844,
      "Ġbeard": 2845,
      "Ġglit": 2846,
      "Ġgrim": 2847,
      "Ġamong": 2848,
      "ĠArthur": 2849,
      "Ġowls": 2850,
      "Ġfallen": 2851,
      "Ġdiary": 2852,
      "Ġbathroom": 2853,
      "Per": 2854,
      "ian": 2855,
      "Ġtroll": 2856,
      "Ġhon": 2857,
      "eng": 2858,
      "irth": 2859,
      "Ġreve": 2860,
      "Ġsevent": 2861,
      "Ġwaving": 2862,
      "ĠQuirrell": 2863,
      "Ġhalfway": 2864,
      "ĠAngelina": 2865,
      "Ġdefin": 2866,
      "Ġspells": 2867,
      "Ġexcit": 2868,
      "Ġshadow": 2869,
      "Ġrecognized": 2870,
      "Ġcopy": 2871,
      "ĠParvati": 2872,
      "Ġnormal": 2873,
      ".âĢĻ": 2874,
      "Get": 2875,
      "ior": 2876,
      "arc": 2877,
      "arily": 2878,
      "Ġfist": 2879,
      "Ġoh": 2880,
      "Ġperm": 2881,
      "ested": 2882,
      "Ġgro": 2883,
      "Ġasleep": 2884,
      "Ġgrass": 2885,
      "olly": 2886,
      "Ġsideways": 2887,
      "Ġcorridors": 2888,
      "Ġheavily": 2889,
      "Ġprophecy": 2890,
      "fig": 2891,
      "iant": 2892,
      "Ġtom": 2893,
      "Ġgen": 2894,
      "lease": 2895,
      "Ġworked": 2896,
      "ollow": 2897,
      "Ġsurface": 2898,
      "Ġcurse": 2899,
      "ĠYOU": 2900,
      "Ġsuspic": 2901,
      "Ġdeserted": 2902,
      "Ġconversation": 2903,
      "Every": 2904,
      "that": 2905,
      "itted": 2906,
      "Ġcage": 2907,
      "Ġdri": 2908,
      "enix": 2909,
      "Ġpow": 2910,
      "otion": 2911,
      "Ġseven": 2912,
      "Ġchanged": 2913,
      "ĠOllivander": 2914,
      "though": 2915,
      "hoenix": 2916,
      "Ġskin": 2917,
      "ĠMyrtle": 2918,
      "centr": 2919,
      "ĠPrime": 2920,
      "Ġdetermined": 2921,
      "set": 2922,
      "tic": 2923,
      "Ġess": 2924,
      "Ġsy": 2925,
      "aling": 2926,
      "Ġsho": 2927,
      "isten": 2928,
      "Ġalarm": 2929,
      "ieve": 2930,
      "ĠNick": 2931,
      "Ġbrain": 2932,
      "Ġshoulders": 2933,
      "Ġclosely": 2934,
      "Ġfalling": 2935,
      "Ġbrightly": 2936,
      "Ġfighting": 2937,
      "Ġhanging": 2938,
      "Ġtrembling": 2939,
      "AT": 2940,
      "Un": 2941,
      "Voldemort": 2942,
      "Ġgrave": 2943,
      "Ġyer": 2944,
      "Ġbeaming": 2945,
      "Ġeat": 2946,
      "Ġemb": 2947,
      "Ġstat": 2948,
      "irty": 2949,
      "ĠMiss": 2950,
      "ĠMax": 2951,
      "Ġrece": 2952,
      "ceed": 2953,
      "Ġjump": 2954,
      "ĠLily": 2955,
      "Ġleaned": 2956,
      "ĠKatie": 2957,
      "Ġhurrying": 2958,
      "Ġexplain": 2959,
      "Ġapproached": 2960,
      "Ġcrossed": 2961,
      "Ġcertainly": 2962,
      "Ġhoping": 2963,
      "Ġthrowing": 2964,
      "Ġgarden": 2965,
      "Ġearth": 2966,
      "ĠMaxime": 2967,
      "cious": 2968,
      "du": 2969,
      "oss": 2970,
      "Ġtrave": 2971,
      "Ġsank": 2972,
      "rets": 2973,
      "org": 2974,
      "ann": 2975,
      "ooped": 2976,
      "ĠSee": 2977,
      "ĠFang": 2978,
      "Ġtrick": 2979,
      "Ġcurtain": 2980,
      "Ġsqueak": 2981,
      "ĠPettigrew": 2982,
      "Ġscarlet": 2983,
      "âĢľâĢ¦": 2984,
      "Ġstretched": 2985,
      "Ġfrowning": 2986,
      "Ġnasty": 2987,
      "Re": 2988,
      "lace": 2989,
      "wizard": 2990,
      "Ġaff": 2991,
      "Ġwin": 2992,
      "Ġbirth": 2993,
      "Ġcand": 2994,
      "idly": 2995,
      "Ġpu": 2996,
      "Ġbew": 2997,
      "illy": 2998,
      "ĠGo": 2999,
      "ction": 3000,
      "Ġusing": 3001,
      "oph": 3002,
      "Ġcloud": 3003,
      "Ġimm": 3004,
      "Ġcheer": 3005,
      "Ġmissed": 3006,
      "Ġeagerly": 3007,
      "Maybe": 3008,
      "ope": 3009,
      "Ġworth": 3010,
      "Ġfool": 3011,
      "Ġinvis": 3012,
      "ots": 3013,
      "Ġrow": 3014,
      "cks": 3015,
      "Ġvill": 3016,
      "Ġunless": 3017,
      "Ġcompl": 3018,
      "Ġsmoot": 3019,
      "Ġanger": 3020,
      "Ġmurm": 3021,
      "Ġmaybe": 3022,
      "Ġsplit": 3023,
      "Ġemerged": 3024,
      "ĠPatron": 3025,
      "Ġeyebrows": 3026,
      "Ġtomorrow": 3027,
      "under": 3028,
      "zed": 3029,
      "Ġtables": 3030,
      "Ġhig": 3031,
      "Ġfacing": 3032,
      "attered": 3033,
      "Ġdread": 3034,
      "Ġoften": 3035,
      "Ġink": 3036,
      "Ġones": 3037,
      "ĠDid": 3038,
      "ĠDep": 3039,
      "umin": 3040,
      "ĠAfter": 3041,
      "ilius": 3042,
      "Ġspark": 3043,
      "bbed": 3044,
      "Ġseems": 3045,
      "Ġappl": 3046,
      "Ġsnarled": 3047,
      "Ġputting": 3048,
      "ney": 3049,
      "Ġrealize": 3050,
      "Ġeffort": 3051,
      "Ġmonths": 3052,
      "Ġperfectly": 3053,
      "ĠTrans": 3054,
      ",âĢĻ": 3055,
      "With": 3056,
      "Ġdra": 3057,
      "Ġinj": 3058,
      "Ġgame": 3059,
      "ĠWhere": 3060,
      "anting": 3061,
      "Ġconcentr": 3062,
      "Ġdistant": 3063,
      "Ġbusiness": 3064,
      "Mrs": 3065,
      "Ġnervous": 3066,
      "Ġcenta": 3067,
      "bottom": 3068,
      "OT": 3069,
      "bed": 3070,
      "yway": 3071,
      "Ġsoul": 3072,
      "asant": 3073,
      "Ġlunch": 3074,
      "icing": 3075,
      "Ġrain": 3076,
      "Ġhanded": 3077,
      "Ġcomm": 3078,
      "Ġpret": 3079,
      "Ġwaved": 3080,
      "ĠCharlie": 3081,
      "ingsley": 3082,
      "ĠMadame": 3083,
      "Ġevid": 3084,
      "Ġfifty": 3085,
      "Ġechoed": 3086,
      "Ġunable": 3087,
      "Ġimpatiently": 3088,
      "Some": 3089,
      "Xen": 3090,
      "Ġcro": 3091,
      "ances": 3092,
      "Ġsave": 3093,
      "ott": 3094,
      "Ġearly": 3095,
      "ĠRem": 3096,
      "Ġliked": 3097,
      "uding": 3098,
      "ĠOh": 3099,
      "Ġperform": 3100,
      "Ġslee": 3101,
      "Ġbusy": 3102,
      "reyback": 3103,
      "Ġpressed": 3104,
      "Ġzoom": 3105,
      "ograph": 3106,
      "Ġinvisible": 3107,
      "OO": 3108,
      "Pot": 3109,
      "inary": 3110,
      "Ġinches": 3111,
      "vel": 3112,
      "Ġwitches": 3113,
      "illing": 3114,
      "Ġshowing": 3115,
      "Ġune": 3116,
      "Ġspeed": 3117,
      "Ġshouldn": 3118,
      "Ġmuttering": 3119,
      "Ġquestions": 3120,
      "Ġnearest": 3121,
      "Ġfrightened": 3122,
      "Ġobviously": 3123,
      "ĠPatronus": 3124,
      "ĠDepartment": 3125,
      "Ġpretty": 3126,
      "ected": 3127,
      "ĠZ": 3128,
      "Ġfun": 3129,
      "isf": 3130,
      "Ġmen": 3131,
      "Ġasking": 3132,
      "ĠMum": 3133,
      "ĠSpell": 3134,
      "ĠDel": 3135,
      "alle": 3136,
      "Ġjer": 3137,
      "Ġgoblet": 3138,
      "ĠLong": 3139,
      "ongue": 3140,
      "Ġsuff": 3141,
      "Ġpoor": 3142,
      "Ġmoon": 3143,
      "Ġwhisper": 3144,
      "Ġadmit": 3145,
      "Ġcupboard": 3146,
      "Ġthrown": 3147,
      "Ġirrit": 3148,
      "Ġgrowled": 3149,
      "Ġhesitated": 3150,
      "Okay": 3151,
      "my": 3152,
      "nce": 3153,
      "ole": 3154,
      "val": 3155,
      "Ġward": 3156,
      "roy": 3157,
      "Ġneither": 3158,
      "ants": 3159,
      "Ġthoughts": 3160,
      "Ġprep": 3161,
      "Ġappre": 3162,
      "Ġexplo": 3163,
      "Ġscreaming": 3164,
      "Ġspotted": 3165,
      "ĠHorcruxes": 3166,
      "Ġdrawing": 3167,
      "cern": 3168,
      "Ġmus": 3169,
      "Ġhissed": 3170,
      "ĠIm": 3171,
      "ĠSpr": 3172,
      "Ġlips": 3173,
      "ighed": 3174,
      "Ġflames": 3175,
      "Ġpassing": 3176,
      "ĠStone": 3177,
      "Because": 3178,
      "Ġshrieked": 3179,
      "ophilius": 3180,
      "Xenophilius": 3181,
      "Mad": 3182,
      "uice": 3183,
      "Ġsens": 3184,
      "Ġhide": 3185,
      "ony": 3186,
      "Ġfil": 3187,
      "Ġpay": 3188,
      "velo": 3189,
      "Ġstuck": 3190,
      "rog": 3191,
      "Ġund": 3192,
      "pected": 3193,
      "ĠGreyback": 3194,
      "ified": 3195,
      "omething": 3196,
      "unned": 3197,
      "apping": 3198,
      "ilda": 3199,
      "Ġguess": 3200,
      "Ġprotect": 3201,
      "Ġfault": 3202,
      "Ġoccas": 3203,
      "Ġposition": 3204,
      "Ġgrabbed": 3205,
      "Go": 3206,
      "One": 3207,
      "fin": 3208,
      "Ġgra": 3209,
      "ĠWand": 3210,
      "ĠLee": 3211,
      "Ġspread": 3212,
      "Ġclot": 3213,
      "Ġslight": 3214,
      "Ġtwice": 3215,
      "Ġench": 3216,
      "Ġletters": 3217,
      "Ġsharp": 3218,
      "ĠBludger": 3219,
      "ĠErnie": 3220,
      "Neville": 3221,
      "atform": 3222,
      "ĠMark": 3223,
      "ĠPe": 3224,
      "ĠAur": 3225,
      "quire": 3226,
      "Ġprev": 3227,
      "Ġspect": 3228,
      "Ġentire": 3229,
      "ĠChamber": 3230,
      "ucked": 3231,
      "Ġhelped": 3232,
      "Ġyellow": 3233,
      "Ġseats": 3234,
      "Ġwriting": 3235,
      "Ġmidair": 3236,
      "Ġhuman": 3237,
      "Ġdefinitely": 3238,
      "Ġbirthday": 3239,
      "ĠSprout": 3240,
      "Ar": 3241,
      "ST": 3242,
      "ias": 3243,
      "oken": 3244,
      "Ġfit": 3245,
      "Ġcour": 3246,
      "lder": 3247,
      "utter": 3248,
      "Ġreach": 3249,
      "Ġupward": 3250,
      "ĠCorn": 3251,
      "ĠTo": 3252,
      "Ġcharm": 3253,
      "Ġworst": 3254,
      "Ġcomfort": 3255,
      "thy": 3256,
      "ĠKingsley": 3257,
      "Ġcontrol": 3258,
      "Ġparty": 3259,
      "Ġcarried": 3260,
      "Ġbadly": 3261,
      "Ġhighly": 3262,
      "Ġseriously": 3263,
      "Ġrefle": 3264,
      "Ġeasy": 3265,
      "Ġwooden": 3266,
      "Ġfresh": 3267,
      "ĠTransfig": 3268,
      "ĠLongbottom": 3269,
      "),": 3270,
      "aunt": 3271,
      "born": 3272,
      "ium": 3273,
      "mm": 3274,
      "ses": 3275,
      "Ġwake": 3276,
      "arg": 3277,
      "Ġhearing": 3278,
      "Ġnine": 3279,
      "Ġshrugg": 3280,
      "ĠWor": 3281,
      "inked": 3282,
      "Ġdel": 3283,
      "ulus": 3284,
      "Ġdownstairs": 3285,
      "Ġunple": 3286,
      "Ġthanks": 3287,
      "ĠPotion": 3288,
      "Ġteach": 3289,
      "Ġmoments": 3290,
      "ĠQuaff": 3291,
      "Ġunderstood": 3292,
      "Ġdisappo": 3293,
      "Ġcompartment": 3294,
      "Ġobjects": 3295,
      "Ġcolor": 3296,
      "Ġdungeon": 3297,
      "ner": 3298,
      "Ġtone": 3299,
      "ingotts": 3300,
      "Ġblock": 3301,
      "Ġcard": 3302,
      "Ġmer": 3303,
      "Ġpure": 3304,
      "Ġnames": 3305,
      "Ġshining": 3306,
      "gered": 3307,
      "Ġrising": 3308,
      "ĠGalle": 3309,
      "Ġexper": 3310,
      "els": 3311,
      "Ġremain": 3312,
      "Ġsnat": 3313,
      "Ġsounding": 3314,
      "Ġshouting": 3315,
      "Ġlifted": 3316,
      "Ġcoldly": 3317,
      "ĠGringotts": 3318,
      "racted": 3319,
      "Ġpatch": 3320,
      "Ġinterested": 3321,
      "rivet": 3322,
      "Ġleading": 3323,
      "Ġgleaming": 3324,
      "Ġgloom": 3325,
      "Ġfamiliar": 3326,
      "Ġannoy": 3327,
      "AN": 3328,
      "Fred": 3329,
      "cess": 3330,
      "ding": 3331,
      "Ġbin": 3332,
      "Ġcool": 3333,
      "Ġthreat": 3334,
      "Ġpile": 3335,
      "Ġpitch": 3336,
      "Ġpacked": 3337,
      "ĠDrive": 3338,
      "ĠWh": 3339,
      "ĠLove": 3340,
      "Ġnois": 3341,
      "ĠTri": 3342,
      "Ġplatform": 3343,
      "Ġthank": 3344,
      "Ġgrowing": 3345,
      "Ġswept": 3346,
      "Ġsatisf": 3347,
      "Ġcarri": 3348,
      "ĠCharms": 3349,
      "Ġglittering": 3350,
      "Ġexcitement": 3351,
      "ĠQuaffle": 3352,
      "ait": 3353,
      "den": 3354,
      "ik": 3355,
      "Ġbre": 3356,
      "Ġbird": 3357,
      "Ġlur": 3358,
      "Ġpause": 3359,
      "Ġbeat": 3360,
      "ĠPh": 3361,
      "ĠPrivet": 3362,
      "roud": 3363,
      "ĠWas": 3364,
      "antic": 3365,
      "ouses": 3366,
      "ational": 3367,
      "ruct": 3368,
      "Ġsurely": 3369,
      "Ġbitter": 3370,
      "cial": 3371,
      "Ġinterrup": 3372,
      "Ġlucky": 3373,
      "Ġchampions": 3374,
      "Ġvillage": 3375,
      "Potter": 3376,
      "See": 3377,
      "faced": 3378,
      "wise": 3379,
      "Ġsighed": 3380,
      "Ġlamp": 3381,
      "Ġhalt": 3382,
      "Ġwhist": 3383,
      "urred": 3384,
      "ĠWho": 3385,
      "ĠGod": 3386,
      "Ġjinx": 3387,
      "ĠTwo": 3388,
      "eping": 3389,
      "Ġanybody": 3390,
      "Here": 3391,
      "ineas": 3392,
      "dding": 3393,
      "Ġsounds": 3394,
      "Ġstudent": 3395,
      "Ġdetention": 3396,
      "Ġfurious": 3397,
      "Ġaware": 3398,
      "Ġshortly": 3399,
      "Ġmiser": 3400,
      "Ġcreatures": 3401,
      "Ġwarning": 3402,
      "Ġexcitedly": 3403,
      "Ġproperly": 3404,
      "haired": 3405,
      "Listen": 3406,
      "io": 3407,
      "reg": 3408,
      "Ġbrill": 3409,
      "Ġfat": 3410,
      "Ġdunno": 3411,
      "Ġeh": 3412,
      "irst": 3413,
      "Ġsoared": 3414,
      "Ġswall": 3415,
      "ausing": 3416,
      "Ġarmch": 3417,
      "Ġchee": 3418,
      "Ġbelong": 3419,
      "Thank": 3420,
      "Ġbreathing": 3421,
      "Ġhorror": 3422,
      "Ġcover": 3423,
      "ĠHowever": 3424,
      "Ġmurd": 3425,
      "Ġburning": 3426,
      "Ġphotograph": 3427,
      "ossible": 3428,
      "Ġhigher": 3429,
      "Sorry": 3430,
      "well": 3431,
      "Ġwings": 3432,
      "Ġdam": 3433,
      "Ġrev": 3434,
      "uration": 3435,
      "Ġsomehow": 3436,
      "ĠEven": 3437,
      "Ġlouder": 3438,
      "Ġlift": 3439,
      "Ġcareful": 3440,
      "Ġdeeply": 3441,
      "Nothing": 3442,
      "Ġescape": 3443,
      "Ġeffect": 3444,
      "Ġdestroy": 3445,
      "Lupin": 3446,
      "ues": 3447,
      "zy": 3448,
      "Ġage": 3449,
      "ency": 3450,
      "Ġlanding": 3451,
      "Ġpound": 3452,
      "Ġsaved": 3453,
      "omfort": 3454,
      "Ġstag": 3455,
      "agon": 3456,
      "key": 3457,
      "Ġrang": 3458,
      "Ġsped": 3459,
      "Ġheaded": 3460,
      "Ġamaz": 3461,
      "rief": 3462,
      "Ġimpression": 3463,
      "Ġimpossible": 3464,
      "ĠGryffindors": 3465,
      "Ġsque": 3466,
      "Ġfirepl": 3467,
      "ivination": 3468,
      "Ġlowered": 3469,
      "ĠHeadless": 3470,
      "Ġlearned": 3471,
      "colate": 3472,
      "Ġsolid": 3473,
      "Wh": 3474,
      "bly": 3475,
      "ean": 3476,
      "ivering": 3477,
      "Ġtest": 3478,
      "Ġfold": 3479,
      "riff": 3480,
      "ĠFat": 3481,
      "Ġknowing": 3482,
      "elius": 3483,
      "Ġconcern": 3484,
      "Ġunf": 3485,
      "Thanks": 3486,
      "Ġfamous": 3487,
      "Ġfurther": 3488,
      "Ġrelief": 3489,
      "Ġprotection": 3490,
      "ĠReg": 3491,
      "Ġcalmly": 3492,
      "Ġavoid": 3493,
      "Ġfavorite": 3494,
      "Ġholidays": 3495,
      "Ġdelighted": 3496,
      "Ġspectac": 3497,
      "EN": 3498,
      "Ginny": 3499,
      "aving": 3500,
      "bers": 3501,
      "bidden": 3502,
      "gr": 3503,
      "Ġtap": 3504,
      "Ġserv": 3505,
      "Ġfo": 3506,
      "Ġfier": 3507,
      "Ġstri": 3508,
      "Ġstick": 3509,
      "oof": 3510,
      "ores": 3511,
      "ilt": 3512,
      "ific": 3513,
      "Ġgoal": 3514,
      "Ġlived": 3515,
      "Ġabrup": 3516,
      "ieved": 3517,
      "ĠNe": 3518,
      "Ġsmoke": 3519,
      "action": 3520,
      "Ġsilvery": 3521,
      "Ġsurv": 3522,
      "Ġfinal": 3523,
      "Ġresp": 3524,
      "Ġpersu": 3525,
      "Ġdementor": 3526,
      "Ġcreature": 3527,
      "Ġgrip": 3528,
      "ĠTransfiguration": 3529,
      "ĠTriwizard": 3530,
      "gly": 3531,
      "good": 3532,
      "mer": 3533,
      "sion": 3534,
      "Ġsize": 3535,
      "Ġwra": 3536,
      "Ġbab": 3537,
      "Ġmoney": 3538,
      "Ġlawn": 3539,
      "ĠPens": 3540,
      "ils": 3541,
      "Ġlikely": 3542,
      "Ġspider": 3543,
      "Ġscene": 3544,
      "olved": 3545,
      "Ġeverybody": 3546,
      "Ġhappening": 3547,
      "Ġremo": 3548,
      "Ġhurry": 3549,
      "issa": 3550,
      "Ġexpelled": 3551,
      "Ġdefe": 3552,
      "Ġincred": 3553,
      "Ġwritten": 3554,
      "while": 3555,
      "Ġanxiously": 3556,
      "arcissa": 3557,
      "Ġsmooth": 3558,
      "Ġclothes": 3559,
      "ĠPensieve": 3560,
      "aun": 3561,
      "ipping": 3562,
      "pose": 3563,
      "tor": 3564,
      "ines": 3565,
      "Ġmum": 3566,
      "Ġmine": 3567,
      "Ġpill": 3568,
      "Ġinf": 3569,
      "Ġinno": 3570,
      "Ġgul": 3571,
      "Ġgigg": 3572,
      "Ġeight": 3573,
      "urm": 3574,
      "ĠSm": 3575,
      "aging": 3576,
      "Ġbutter": 3577,
      "Ġva": 3578,
      "ĠLady": 3579,
      "Ġagreed": 3580,
      "Ġanywhere": 3581,
      "Ġconce": 3582,
      "Ġslammed": 3583,
      "ĠKeep": 3584,
      "Ġpeering": 3585,
      "Ġjoke": 3586,
      "Ġserious": 3587,
      "Ġrubb": 3588,
      "Ġnearby": 3589,
      "Ġdesperately": 3590,
      "Ġpanic": 3591,
      "Ġpriv": 3592,
      "of": 3593,
      "sc": 3594,
      "Ġmood": 3595,
      "Ġproud": 3596,
      "Ġstream": 3597,
      "irt": 3598,
      "pper": 3599,
      "unity": 3600,
      "Ġring": 3601,
      "Ġfeast": 3602,
      "Ġuncle": 3603,
      "ogriff": 3604,
      "Ġtwins": 3605,
      "Ġclean": 3606,
      "Ġdragged": 3607,
      "Ġdirectly": 3608,
      "Ġdouble": 3609,
      "Ġescaped": 3610,
      "Ġmissing": 3611,
      "ippogriff": 3612,
      "Ġoccasion": 3613,
      "nze": 3614,
      "Ġhood": 3615,
      "arr": 3616,
      "asted": 3617,
      "ids": 3618,
      "Ġpanted": 3619,
      "Ġstation": 3620,
      "Ġweight": 3621,
      "Ġugly": 3622,
      "ĠCol": 3623,
      "isting": 3624,
      "ĠNearly": 3625,
      "Ġsometimes": 3626,
      "Ġcorre": 3627,
      "Ġbelieved": 3628,
      "Ġdistance": 3629,
      "Ġmembers": 3630,
      "cuse": 3631,
      "rawp": 3632,
      "Ġmovement": 3633,
      "Ġmistake": 3634,
      "ounced": 3635,
      "Ġscrat": 3636,
      "Ġsuggested": 3637,
      "ĠLovegood": 3638,
      "Ġfierce": 3639,
      "Never": 3640,
      "Ġben": 3641,
      "Ġfury": 3642,
      "oose": 3643,
      "ĠMor": 3644,
      "ember": 3645,
      "Ġwerewo": 3646,
      "umbling": 3647,
      "udo": 3648,
      "ourney": 3649,
      "athilda": 3650,
      "Ġflung": 3651,
      "Ġbrand": 3652,
      "Ġsquare": 3653,
      "Ġboard": 3654,
      "bye": 3655,
      "Ġgoblins": 3656,
      "Ġchildren": 3657,
      "Ġgener": 3658,
      "orgin": 3659,
      "Ġwerewolf": 3660,
      "RE": 3661,
      "To": 3662,
      "cul": 3663,
      "eled": 3664,
      "year": 3665,
      "ĠXenophilius": 3666,
      "Ġtreat": 3667,
      "Ġsad": 3668,
      "uttered": 3669,
      "ĠDivination": 3670,
      "Ġdozen": 3671,
      "Ġrage": 3672,
      "Ġlie": 3673,
      "udblood": 3674,
      "ĠTHE": 3675,
      "bbly": 3676,
      "Ġheading": 3677,
      "anging": 3678,
      "Ġloads": 3679,
      "Ġcleared": 3680,
      "ĠStan": 3681,
      "ertainly": 3682,
      "ĠPrince": 3683,
      "Ġattempted": 3684,
      "ĠPhineas": 3685,
      "Al": 3686,
      "Have": 3687,
      "Kreacher": 3688,
      "aud": 3689,
      "cto": 3690,
      "father": 3691,
      "gden": 3692,
      "Ġaim": 3693,
      "ature": 3694,
      "Ġcas": 3695,
      "Ġdim": 3696,
      "Ġpou": 3697,
      "Ġpaused": 3698,
      "ĠCome": 3699,
      "Ġexch": 3700,
      "Ġalthough": 3701,
      "Ġpoison": 3702,
      "estly": 3703,
      "reatures": 3704,
      "Ġplain": 3705,
      "ondon": 3706,
      "Ġglance": 3707,
      "Ġeverywhere": 3708,
      "Ġopening": 3709,
      "Ġharder": 3710,
      "Ġindign": 3711,
      "ĠAlley": 3712,
      "Ġuncomfort": 3713,
      "ĠDisapp": 3714,
      "After": 3715,
      "aved": 3716,
      "gar": 3717,
      "ov": 3718,
      "Ġhippogriff": 3719,
      "oned": 3720,
      "itting": 3721,
      "Ġgap": 3722,
      "Ġwel": 3723,
      "urity": 3724,
      "rier": 3725,
      "ĠRoom": 3726,
      "unks": 3727,
      "iles": 3728,
      "Ġfee": 3729,
      "Ġjourney": 3730,
      "ĠCreatures": 3731,
      "ĠBorgin": 3732,
      "ĠLondon": 3733,
      "Ġsuit": 3734,
      "ĠOF": 3735,
      "Ġbran": 3736,
      "uffy": 3737,
      "Ġraising": 3738,
      "Ġinstruct": 3739,
      "Ġdrop": 3740,
      "Ġconfused": 3741,
      "Ġexplained": 3742,
      "Ġhundreds": 3743,
      "Ġtouched": 3744,
      "Ġhoped": 3745,
      "Ġimagine": 3746,
      "Ġanxious": 3747,
      "Ġcurtains": 3748,
      "Ġprevious": 3749,
      "ĠWorld": 3750,
      ").": 3751,
      "co": 3752,
      "hus": 3753,
      "mist": 3754,
      "tling": 3755,
      "zz": 3756,
      "res": 3757,
      "Ġmain": 3758,
      "Ġlower": 3759,
      "Ġpen": 3760,
      "Ġstir": 3761,
      "ĠSorting": 3762,
      "unted": 3763,
      "ĠGrawp": 3764,
      "Ġvague": 3765,
      "Ġchairs": 3766,
      "Ġblind": 3767,
      "angled": 3768,
      "Ġtrack": 3769,
      "Ġtele": 3770,
      "Ġlocked": 3771,
      "Ġbrown": 3772,
      "Ġcontact": 3773,
      "Ġsquee": 3774,
      "Ġbroad": 3775,
      "Ġdived": 3776,
      "Ġaccident": 3777,
      "Ġburned": 3778,
      "strang": 3779,
      "Ġscramb": 3780,
      "Ġstruggling": 3781,
      "ING": 3782,
      "Ġbasin": 3783,
      "Ġdemanded": 3784,
      "ĠGalleons": 3785,
      "Ġbreaking": 3786,
      "ĠDisappar": 3787,
      "Lagg": 3788,
      "Ġwave": 3789,
      "Ġwished": 3790,
      "Ġfair": 3791,
      "Ġchat": 3792,
      "lly": 3793,
      "Ġpal": 3794,
      "Ġpanting": 3795,
      "oted": 3796,
      "Ġstro": 3797,
      "ĠMarge": 3798,
      "agged": 3799,
      "ayed": 3800,
      "ĠLet": 3801,
      "ules": 3802,
      "Ġspace": 3803,
      "Ġglancing": 3804,
      "Ġwrite": 3805,
      "shot": 3806,
      "Ġfinish": 3807,
      "Ġmarched": 3808,
      "Ġtriump": 3809,
      "ountain": 3810,
      "Ġshadows": 3811,
      "Ġcalm": 3812,
      "Ġconvin": 3813,
      "Ġmurmured": 3814,
      "ĠCornelius": 3815,
      "ĠColin": 3816,
      "Laggen": 3817,
      "RY": 3818,
      "iry": 3819,
      "min": 3820,
      "ĠYes": 3821,
      "Ġtoad": 3822,
      "llus": 3823,
      "Ġmakes": 3824,
      "using": 3825,
      "usion": 3826,
      "vey": 3827,
      "ĠIs": 3828,
      "Ġant": 3829,
      "Ġshudd": 3830,
      "Ġtherefore": 3831,
      "Ġpop": 3832,
      "imey": 3833,
      "Ġsmir": 3834,
      "Ġkeen": 3835,
      "Ġsettled": 3836,
      "Ġdragons": 3837,
      "Ġfourth": 3838,
      "Ġleaves": 3839,
      "Ġdisappear": 3840,
      "Ġgaze": 3841,
      "Ġinteresting": 3842,
      "Ġshocked": 3843,
      "ĠOnce": 3844,
      "Ġfaint": 3845,
      "Ġcounter": 3846,
      "ĠBurrow": 3847,
      "urmstrang": 3848,
      "Ġbutterbe": 3849,
      "bat": 3850,
      "cise": 3851,
      "par": 3852,
      "tles": 3853,
      "Ġsour": 3854,
      "Ġbother": 3855,
      "Ġfan": 3856,
      "Ġfart": 3857,
      "ety": 3858,
      "iful": 3859,
      "elves": 3860,
      "Ġgets": 3861,
      "bbled": 3862,
      "Ġtwisted": 3863,
      "Ġgrand": 3864,
      "Ġflash": 3865,
      "Ġnewsp": 3866,
      "ĠThree": 3867,
      "Ġuseful": 3868,
      "Ġvisible": 3869,
      "Ġawake": 3870,
      "Ġbuild": 3871,
      "Ġchecking": 3872,
      "Ġchoice": 3873,
      "Ġechoing": 3874,
      "Ġsuggest": 3875,
      "Ġreceived": 3876,
      "ĠGodric": 3877,
      "Ġswallowed": 3878,
      "Ġarmchair": 3879,
      "Ġfireplace": 3880,
      "Pl": 3881,
      "VE": 3882,
      "aj": 3883,
      "ige": 3884,
      "Ġtired": 3885,
      "Ġwet": 3886,
      "inger": 3887,
      "arters": 3888,
      "iders": 3889,
      "Ġlim": 3890,
      "Ġpin": 3891,
      "Ġstrid": 3892,
      "ĠDurmstrang": 3893,
      "Ġnotes": 3894,
      "Ġkicked": 3895,
      "une": 3896,
      "ĠBr": 3897,
      "Ġvi": 3898,
      "Ġlevel": 3899,
      "Ġnodding": 3900,
      "Ġdev": 3901,
      "elw": 3902,
      "Ġunw": 3903,
      "Ġhandle": 3904,
      "Ġplaces": 3905,
      "Ġgrinned": 3906,
      "olute": 3907,
      "Ġlock": 3908,
      "Ġwhisp": 3909,
      "ĠHallows": 3910,
      "Ġripped": 3911,
      "ĠFirenze": 3912,
      "Ġfailed": 3913,
      "renched": 3914,
      "Ġeasily": 3915,
      "Ġignored": 3916,
      "Ġmagn": 3917,
      "Ġstatue": 3918,
      "Ġunpleasant": 3919,
      "Must": 3920,
      "bow": 3921,
      "ded": 3922,
      "ule": 3923,
      "Ġ2": 3924,
      "Ġsway": 3925,
      "Ġcrying": 3926,
      "Ġlad": 3927,
      "ache": 3928,
      "usted": 3929,
      "oop": 3930,
      "ading": 3931,
      "ĠMer": 3932,
      "ĠMost": 3933,
      "uri": 3934,
      "uries": 3935,
      "amm": 3936,
      "ĠPlace": 3937,
      "ĠCon": 3938,
      "Ġexcellent": 3939,
      "Ġleaning": 3940,
      "Ġunus": 3941,
      "Ġplate": 3942,
      "Ġdoorway": 3943,
      "ĠOf": 3944,
      "ĠOgden": 3945,
      "Ġenvelo": 3946,
      "Ġprefer": 3947,
      "Ġteaching": 3948,
      "Ġkey": 3949,
      "Ġlights": 3950,
      "awkes": 3951,
      "Ġclasses": 3952,
      "Ġgazed": 3953,
      "Ġexpecting": 3954,
      "aturday": 3955,
      "Ġappearance": 3956,
      "Ġattempting": 3957,
      "Ġcountry": 3958,
      "Ġtriumph": 3959,
      "do": 3960,
      "word": 3961,
      "Ġwife": 3962,
      "eding": 3963,
      "Ġbrave": 3964,
      "ities": 3965,
      "Ġcaused": 3966,
      "Ġdu": 3967,
      "Ġdressed": 3968,
      "Ġthunder": 3969,
      "Ġpump": 3970,
      "Ġgest": 3971,
      "Ġbeaut": 3972,
      "Ġstorm": 3973,
      "stal": 3974,
      "ĠDon": 3975,
      "ouldn": 3976,
      "acket": 3977,
      "ĠWill": 3978,
      "Ġjud": 3979,
      "logy": 3980,
      "istory": 3981,
      "Ġyours": 3982,
      "ops": 3983,
      "ĠNarcissa": 3984,
      "Ġslip": 3985,
      "ĠElder": 3986,
      "Ġsecurity": 3987,
      "Ġdesce": 3988,
      "Ġsneak": 3989,
      "ĠMcLaggen": 3990,
      "Ġenthus": 3991,
      "Ġdistinct": 3992,
      "Ġexamining": 3993,
      "Ġaccomp": 3994,
      "Ġsweat": 3995,
      "quirement": 3996,
      "Ġbaby": 3997,
      "oh": 3998,
      "Ġrough": 3999,
      "Ġslo": 4000,
      "Ġbul": 4001,
      "Ġcrou": 4002,
      "Ġpushing": 4003,
      "ĠSaturday": 4004,
      "Ġkiss": 4005,
      "Ġknife": 4006,
      "ĠLudo": 4007,
      "Ġexist": 4008,
      "ults": 4009,
      "Ġorder": 4010,
      "Ġsmashed": 4011,
      "gged": 4012,
      "Ġpeered": 4013,
      "Ġwanting": 4014,
      "Ġstands": 4015,
      "Ġhandsome": 4016,
      "Ġcalling": 4017,
      "iping": 4018,
      "Ġfellow": 4019,
      "Ġbuy": 4020,
      "ĠRequirement": 4021,
      "Ġpunish": 4022,
      "Ġtemper": 4023,
      "Ġcrystal": 4024,
      "Ġessay": 4025,
      "Ġbrilliant": 4026,
      "Ġabruptly": 4027,
      "Ġviol": 4028,
      "LL": 4029,
      "mp": 4030,
      "ris": 4031,
      "sure": 4032,
      "Ġtournament": 4033,
      "Ġtoile": 4034,
      "Ġdying": 4035,
      "Ġdirty": 4036,
      "Ġlap": 4037,
      "Ġinch": 4038,
      "omed": 4039,
      "Ġstad": 4040,
      "Ġreapp": 4041,
      "ĠPo": 4042,
      "Ġshif": 4043,
      "aker": 4044,
      "ĠFin": 4045,
      "Ġlives": 4046,
      "Ġval": 4047,
      "Ġconst": 4048,
      "ĠNige": 4049,
      "Ġdesp": 4050,
      "Ġwrote": 4051,
      "Ġcurled": 4052,
      "Ġdifficul": 4053,
      "ĠPerhaps": 4054,
      "Ġcontinue": 4055,
      "Ġfigures": 4056,
      "Ġtort": 4057,
      "Ġdesperate": 4058,
      "Ġpretending": 4059,
      "Ġorders": 4060,
      "Ġremoved": 4061,
      "Ġstadium": 4062,
      "ĠNigellus": 4063,
      "Ġdifficulty": 4064,
      "ech": 4065,
      "ĠĠ": 4066,
      "Ġbought": 4067,
      "âĢĻ,": 4068,
      "Ġdrif": 4069,
      "Ġstare": 4070,
      "icorn": 4071,
      "ĠMaster": 4072,
      "ĠMudblood": 4073,
      "ĠSqu": 4074,
      "umed": 4075,
      "Ġfeather": 4076,
      "ĠBul": 4077,
      "Ġsocks": 4078,
      "Ġdeli": 4079,
      "Ġchar": 4080,
      "eless": 4081,
      "Ġblond": 4082,
      "angling": 4083,
      "Ġglaring": 4084,
      "Ġglimp": 4085,
      "Ġmuff": 4086,
      "Ġfinding": 4087,
      "Ġhelping": 4088,
      "ansy": 4089,
      "Ġpossibly": 4090,
      "Ġdecide": 4091,
      "Ġcompany": 4092,
      "fortun": 4093,
      "Ġdiscovered": 4094,
      "Ġillumin": 4095
    },
    "merges": [
      [
        "Ġ",
        "t"
      ],
      [
        "â",
        "Ģ"
      ],
      [
        "h",
        "e"
      ],
      [
        "Ġ",
        "a"
      ],
      [
        "i",
        "n"
      ],
      [
        "Ġ",
        "s"
      ],
      [
        "Ġ",
        "w"
      ],
      [
        "Ġt",
        "he"
      ],
      [
        "r",
        "e"
      ],
      [
        "o",
        "u"
      ],
      [
        "Ġ",
        "h"
      ],
      [
        "e",
        "d"
      ],
      [
        "o",
        "n"
      ],
      [
        "in",
        "g"
      ],
      [
        "e",
        "r"
      ],
      [
        "a",
        "r"
      ],
      [
        "n",
        "d"
      ],
      [
        "Ġ",
        "b"
      ],
      [
        "âĢ",
        "ľ"
      ],
      [
        "âĢ",
        "Ŀ"
      ],
      [
        "Ġ",
        "f"
      ],
      [
        "Ġ",
        "o"
      ],
      [
        "âĢ",
        "Ļ"
      ],
      [
        "a",
        "t"
      ],
      [
        "i",
        "s"
      ],
      [
        "Ġt",
        "o"
      ],
      [
        "i",
        "t"
      ],
      [
        "Ġ",
        "c"
      ],
      [
        "Ġ",
        "H"
      ],
      [
        "a",
        "s"
      ],
      [
        "o",
        "r"
      ],
      [
        "l",
        "l"
      ],
      [
        "i",
        "d"
      ],
      [
        "Ġ",
        "he"
      ],
      [
        "Ġ",
        "d"
      ],
      [
        "e",
        "n"
      ],
      [
        "Ġ",
        "m"
      ],
      [
        "Ġ",
        "l"
      ],
      [
        "Ġa",
        "nd"
      ],
      [
        "Ġt",
        "h"
      ],
      [
        "Ġo",
        "f"
      ],
      [
        "r",
        "y"
      ],
      [
        "Ġ",
        "p"
      ],
      [
        "e",
        "s"
      ],
      [
        "Ġh",
        "a"
      ],
      [
        "Ġ",
        "in"
      ],
      [
        "Ġ",
        "g"
      ],
      [
        "a",
        "n"
      ],
      [
        "Ġ",
        "n"
      ],
      [
        "l",
        "e"
      ],
      [
        "ar",
        "ry"
      ],
      [
        "o",
        "w"
      ],
      [
        "Ġs",
        "a"
      ],
      [
        "l",
        "y"
      ],
      [
        "Ġ",
        "âĢ"
      ],
      [
        "o",
        "t"
      ],
      [
        "Ġ",
        "y"
      ],
      [
        "o",
        "m"
      ],
      [
        "Ġw",
        "as"
      ],
      [
        "Ġb",
        "e"
      ],
      [
        "g",
        "h"
      ],
      [
        "ĠH",
        "arry"
      ],
      [
        "Ġsa",
        "id"
      ],
      [
        "a",
        "c"
      ],
      [
        "Ġ",
        "e"
      ],
      [
        "l",
        "d"
      ],
      [
        "Ġh",
        "is"
      ],
      [
        "Ġy",
        "ou"
      ],
      [
        "i",
        "m"
      ],
      [
        "Ġ",
        "âĢľ"
      ],
      [
        "u",
        "s"
      ],
      [
        "v",
        "e"
      ],
      [
        "Ġs",
        "t"
      ],
      [
        "o",
        "o"
      ],
      [
        "Ġ",
        "it"
      ],
      [
        "Ġ",
        "on"
      ],
      [
        "Ġ",
        "I"
      ],
      [
        "i",
        "c"
      ],
      [
        "e",
        "t"
      ],
      [
        ",",
        "âĢĿ"
      ],
      [
        "v",
        "er"
      ],
      [
        "i",
        "on"
      ],
      [
        "r",
        "o"
      ],
      [
        "Ġw",
        "h"
      ],
      [
        "i",
        "r"
      ],
      [
        "Ġha",
        "d"
      ],
      [
        "Ġth",
        "at"
      ],
      [
        "u",
        "t"
      ],
      [
        "gh",
        "t"
      ],
      [
        "Ġw",
        "e"
      ],
      [
        "ou",
        "t"
      ],
      [
        "ĠâĢ",
        "Ķ"
      ],
      [
        "en",
        "t"
      ],
      [
        "a",
        "d"
      ],
      [
        "Ġa",
        "t"
      ],
      [
        "Ġ",
        "u"
      ],
      [
        "Ġa",
        "s"
      ],
      [
        "Ġ",
        "M"
      ],
      [
        "Ġ",
        "re"
      ],
      [
        "u",
        "r"
      ],
      [
        "a",
        "l"
      ],
      [
        "o",
        "re"
      ],
      [
        "Ġh",
        "im"
      ],
      [
        "s",
        "e"
      ],
      [
        "Ġ",
        "S"
      ],
      [
        "?",
        "âĢĿ"
      ],
      [
        "a",
        "g"
      ],
      [
        "s",
        "t"
      ],
      [
        "ĠâĢ",
        "¦"
      ],
      [
        "Ġ",
        "D"
      ],
      [
        "T",
        "he"
      ],
      [
        "r",
        "i"
      ],
      [
        "Ġw",
        "it"
      ],
      [
        "k",
        "e"
      ],
      [
        "c",
        "h"
      ],
      [
        "a",
        "y"
      ],
      [
        "Ġ",
        "R"
      ],
      [
        "oo",
        "k"
      ],
      [
        "ou",
        "ld"
      ],
      [
        "Ġwit",
        "h"
      ],
      [
        "re",
        "d"
      ],
      [
        "Ġa",
        "n"
      ],
      [
        "Ġf",
        "or"
      ],
      [
        "a",
        "m"
      ],
      [
        "Ġs",
        "e"
      ],
      [
        "t",
        "er"
      ],
      [
        "he",
        "r"
      ],
      [
        "u",
        "m"
      ],
      [
        "p",
        "p"
      ],
      [
        "a",
        "ll"
      ],
      [
        "Ġn",
        "ot"
      ],
      [
        "Ġ",
        "P"
      ],
      [
        "i",
        "ll"
      ],
      [
        "ac",
        "k"
      ],
      [
        "r",
        "ou"
      ],
      [
        "ar",
        "d"
      ],
      [
        ".",
        "âĢĿ"
      ],
      [
        "Ġs",
        "h"
      ],
      [
        "l",
        "ed"
      ],
      [
        "Ġ",
        "k"
      ],
      [
        "ĠR",
        "on"
      ],
      [
        "er",
        "m"
      ],
      [
        "!",
        "âĢĿ"
      ],
      [
        "p",
        "e"
      ],
      [
        "Ġhe",
        "r"
      ],
      [
        "a",
        "in"
      ],
      [
        "e",
        "m"
      ],
      [
        "Ġl",
        "ook"
      ],
      [
        "ion",
        "e"
      ],
      [
        "Ġu",
        "p"
      ],
      [
        "erm",
        "ione"
      ],
      [
        "Ġf",
        "r"
      ],
      [
        "Ġd",
        "o"
      ],
      [
        "i",
        "ght"
      ],
      [
        "Ġthe",
        "y"
      ],
      [
        "es",
        "s"
      ],
      [
        "Ġ",
        "W"
      ],
      [
        "Ġ",
        "out"
      ],
      [
        "c",
        "e"
      ],
      [
        "ĠH",
        "ermione"
      ],
      [
        "u",
        "n"
      ],
      [
        "Ġ",
        "A"
      ],
      [
        "a",
        "nd"
      ],
      [
        "in",
        "d"
      ],
      [
        "g",
        "e"
      ],
      [
        "Ġwe",
        "re"
      ],
      [
        "Ġm",
        "e"
      ],
      [
        "ĠH",
        "e"
      ],
      [
        "Ġk",
        "n"
      ],
      [
        "Ġn",
        "e"
      ],
      [
        "Ġthe",
        "m"
      ],
      [
        "t",
        "ed"
      ],
      [
        "t",
        "o"
      ],
      [
        "i",
        "l"
      ],
      [
        "Ġ",
        "r"
      ],
      [
        "Ġf",
        "e"
      ],
      [
        "Ġ",
        "G"
      ],
      [
        "Ġa",
        "ll"
      ],
      [
        "Ġb",
        "ut"
      ],
      [
        "a",
        "k"
      ],
      [
        "i",
        "f"
      ],
      [
        "Ġha",
        "ve"
      ],
      [
        "Ġfr",
        "om"
      ],
      [
        "Ġs",
        "he"
      ],
      [
        "Ġ",
        "The"
      ],
      [
        "Ġ",
        "j"
      ],
      [
        "um",
        "b"
      ],
      [
        "h",
        "ing"
      ],
      [
        "Ġ",
        "C"
      ],
      [
        "us",
        "t"
      ],
      [
        "Ġg",
        "o"
      ],
      [
        "c",
        "k"
      ],
      [
        "Ġ",
        "B"
      ],
      [
        "om",
        "e"
      ],
      [
        "ver",
        "y"
      ],
      [
        "oo",
        "d"
      ],
      [
        "Ġ",
        "F"
      ],
      [
        "e",
        "ll"
      ],
      [
        "Ġs",
        "o"
      ],
      [
        "as",
        "t"
      ],
      [
        "he",
        "d"
      ],
      [
        "on",
        "e"
      ],
      [
        "Ġw",
        "he"
      ],
      [
        "b",
        "le"
      ],
      [
        "l",
        "o"
      ],
      [
        "Ġb",
        "ack"
      ],
      [
        "q",
        "u"
      ],
      [
        "umb",
        "led"
      ],
      [
        "or",
        "t"
      ],
      [
        "Ġin",
        "to"
      ],
      [
        "Ġl",
        "i"
      ],
      [
        "id",
        "e"
      ],
      [
        "ow",
        "n"
      ],
      [
        "Ġd",
        "id"
      ],
      [
        "umbled",
        "ore"
      ],
      [
        "Ġwh",
        "o"
      ],
      [
        "Ġ",
        "v"
      ],
      [
        "Ġwh",
        "at"
      ],
      [
        "ar",
        "t"
      ],
      [
        "Ġc",
        "ould"
      ],
      [
        "u",
        "d"
      ],
      [
        "rou",
        "nd"
      ],
      [
        "an",
        "t"
      ],
      [
        "r",
        "id"
      ],
      [
        "Ġbe",
        "en"
      ],
      [
        "Ġ",
        "L"
      ],
      [
        "Ġth",
        "ou"
      ],
      [
        "Ġ",
        "is"
      ],
      [
        "Ġa",
        "b"
      ],
      [
        "Ġe",
        "x"
      ],
      [
        "H",
        "arry"
      ],
      [
        "Ġl",
        "e"
      ],
      [
        "in",
        "k"
      ],
      [
        "ou",
        "r"
      ],
      [
        "ĠD",
        "umbledore"
      ],
      [
        "Ġa",
        "g"
      ],
      [
        "Ġn",
        "o"
      ],
      [
        "is",
        "t"
      ],
      [
        "l",
        "f"
      ],
      [
        "r",
        "a"
      ],
      [
        "Ġ",
        "ro"
      ],
      [
        "ic",
        "e"
      ],
      [
        "ou",
        "s"
      ],
      [
        "c",
        "t"
      ],
      [
        "Ġa",
        "l"
      ],
      [
        "ĠâĢĶ",
        "âĢĿ"
      ],
      [
        "Ġd",
        "e"
      ],
      [
        "on",
        "g"
      ],
      [
        "f",
        "f"
      ],
      [
        "u",
        "l"
      ],
      [
        "Y",
        "ou"
      ],
      [
        "ac",
        "e"
      ],
      [
        "Ġth",
        "is"
      ],
      [
        "Ġ",
        "T"
      ],
      [
        "o",
        "y"
      ],
      [
        "Ġo",
        "ver"
      ],
      [
        "s",
        "s"
      ],
      [
        "Ġw",
        "ould"
      ],
      [
        "er",
        "s"
      ],
      [
        "le",
        "y"
      ],
      [
        "k",
        "ed"
      ],
      [
        "Ġthe",
        "re"
      ],
      [
        "Ġs",
        "u"
      ],
      [
        "i",
        "g"
      ],
      [
        "h",
        "at"
      ],
      [
        "Ġkn",
        "ow"
      ],
      [
        "n",
        "a"
      ],
      [
        "Ġp",
        "o"
      ],
      [
        "Ġthe",
        "ir"
      ],
      [
        "e",
        "p"
      ],
      [
        "o",
        "ld"
      ],
      [
        "Ġd",
        "own"
      ],
      [
        "Ġab",
        "out"
      ],
      [
        "Ġof",
        "f"
      ],
      [
        "Ġan",
        "y"
      ],
      [
        "i",
        "z"
      ],
      [
        "Ġag",
        "ain"
      ],
      [
        "v",
        "en"
      ],
      [
        "Ġc",
        "h"
      ],
      [
        "e",
        "l"
      ],
      [
        "Ġon",
        "e"
      ],
      [
        "t",
        "her"
      ],
      [
        "Ġli",
        "ke"
      ],
      [
        "Ġlook",
        "ed"
      ],
      [
        "w",
        "ay"
      ],
      [
        "ur",
        "n"
      ],
      [
        "Ġs",
        "p"
      ],
      [
        "Ġ",
        "qu"
      ],
      [
        "Ġn",
        "ow"
      ],
      [
        "H",
        "e"
      ],
      [
        "t",
        "ing"
      ],
      [
        "Ġc",
        "on"
      ],
      [
        "ic",
        "k"
      ],
      [
        "ĠâĢ¦",
        "âĢĿ"
      ],
      [
        "Ġa",
        "round"
      ],
      [
        "Ġyou",
        "r"
      ],
      [
        "Ġ",
        "us"
      ],
      [
        "as",
        "s"
      ],
      [
        "Ġu",
        "n"
      ],
      [
        "i",
        "e"
      ],
      [
        "o",
        "p"
      ],
      [
        "im",
        "e"
      ],
      [
        "Ġha",
        "nd"
      ],
      [
        "Ġe",
        "y"
      ],
      [
        "all",
        "y"
      ],
      [
        "Ġ",
        "N"
      ],
      [
        "a",
        "re"
      ],
      [
        "u",
        "ll"
      ],
      [
        "ĠW",
        "e"
      ],
      [
        "Ġb",
        "y"
      ],
      [
        "a",
        "p"
      ],
      [
        "Ġw",
        "or"
      ],
      [
        "Ġth",
        "ink"
      ],
      [
        "f",
        "ess"
      ],
      [
        "Ġj",
        "ust"
      ],
      [
        "Ġg",
        "ot"
      ],
      [
        "Ġthe",
        "n"
      ],
      [
        "ro",
        "fess"
      ],
      [
        "e",
        "red"
      ],
      [
        "rofess",
        "or"
      ],
      [
        "ar",
        "k"
      ],
      [
        "ag",
        "rid"
      ],
      [
        "Ġc",
        "an"
      ],
      [
        "Ġs",
        "c"
      ],
      [
        "a",
        "ke"
      ],
      [
        "Ġto",
        "o"
      ],
      [
        "ri",
        "ght"
      ],
      [
        "Ġa",
        "re"
      ],
      [
        "es",
        "t"
      ],
      [
        "Ġb",
        "l"
      ],
      [
        "Ġse",
        "e"
      ],
      [
        "w",
        "ard"
      ],
      [
        "Ġ",
        "if"
      ],
      [
        "Ġg",
        "et"
      ],
      [
        "re",
        "at"
      ],
      [
        "Ġp",
        "l"
      ],
      [
        "Ġwhe",
        "n"
      ],
      [
        "Ġc",
        "l"
      ],
      [
        "u",
        "p"
      ],
      [
        "Ġ",
        "very"
      ],
      [
        "Ġs",
        "l"
      ],
      [
        "Ġ",
        "V"
      ],
      [
        "ĠM",
        "r"
      ],
      [
        "e",
        "ar"
      ],
      [
        "Ġm",
        "ore"
      ],
      [
        "Ġw",
        "and"
      ],
      [
        "Ġm",
        "y"
      ],
      [
        "b",
        "b"
      ],
      [
        "Ġo",
        "r"
      ],
      [
        "Ġhe",
        "ad"
      ],
      [
        "na",
        "pe"
      ],
      [
        "am",
        "e"
      ],
      [
        "Ġm",
        "o"
      ],
      [
        "o",
        "g"
      ],
      [
        "ĠH",
        "agrid"
      ],
      [
        "i",
        "ve"
      ],
      [
        "Ġc",
        "om"
      ],
      [
        "Ġthou",
        "gh"
      ],
      [
        "se",
        "lf"
      ],
      [
        "at",
        "e"
      ],
      [
        "ĠP",
        "rofessor"
      ],
      [
        "Ġt",
        "w"
      ],
      [
        "as",
        "ley"
      ],
      [
        "an",
        "g"
      ],
      [
        "Ġt",
        "ime"
      ],
      [
        "Ġs",
        "m"
      ],
      [
        "Ġst",
        "ill"
      ],
      [
        "ĠWe",
        "asley"
      ],
      [
        "Ġdo",
        "or"
      ],
      [
        "ou",
        "nd"
      ],
      [
        "Ġh",
        "ow"
      ],
      [
        "pp",
        "ed"
      ],
      [
        "rou",
        "gh"
      ],
      [
        "v",
        "ed"
      ],
      [
        "Ġv",
        "o"
      ],
      [
        "ĠS",
        "nape"
      ],
      [
        "on",
        "d"
      ],
      [
        "Ġey",
        "es"
      ],
      [
        "at",
        "ion"
      ],
      [
        "Ġt",
        "r"
      ],
      [
        "a",
        "red"
      ],
      [
        "or",
        "n"
      ],
      [
        "Ġlook",
        "ing"
      ],
      [
        "Ġth",
        "an"
      ],
      [
        "Ġ",
        "O"
      ],
      [
        "v",
        "ing"
      ],
      [
        "Ġd",
        "on"
      ],
      [
        "Ġt",
        "urn"
      ],
      [
        "a",
        "ir"
      ],
      [
        "i",
        "us"
      ],
      [
        "Ġth",
        "rough"
      ],
      [
        "Ġf",
        "ace"
      ],
      [
        "Ġg",
        "l"
      ],
      [
        "Ġs",
        "ome"
      ],
      [
        "f",
        "ore"
      ],
      [
        "ic",
        "h"
      ],
      [
        "Ġ",
        "E"
      ],
      [
        "it",
        "e"
      ],
      [
        "Ġ",
        "right"
      ],
      [
        "nd",
        "er"
      ],
      [
        "u",
        "re"
      ],
      [
        "Ġa",
        "r"
      ],
      [
        "at",
        "h"
      ],
      [
        "i",
        "ly"
      ],
      [
        "Ġg",
        "r"
      ],
      [
        "a",
        "u"
      ],
      [
        "Ġgo",
        "ing"
      ],
      [
        "al",
        "f"
      ],
      [
        "Ġvo",
        "ice"
      ],
      [
        "Ġse",
        "em"
      ],
      [
        "Ġo",
        "ther"
      ],
      [
        "I",
        "t"
      ],
      [
        "p",
        "t"
      ],
      [
        "in",
        "n"
      ],
      [
        "g",
        "g"
      ],
      [
        "i",
        "ous"
      ],
      [
        "a",
        "ve"
      ],
      [
        "t",
        "le"
      ],
      [
        "en",
        "ed"
      ],
      [
        "Ġwh",
        "ich"
      ],
      [
        "i",
        "re"
      ],
      [
        "Ġf",
        "l"
      ],
      [
        "Ġs",
        "w"
      ],
      [
        "re",
        "e"
      ],
      [
        "Ġsa",
        "y"
      ],
      [
        "Ġthou",
        "ght"
      ],
      [
        "Ġbe",
        "fore"
      ],
      [
        "l",
        "ing"
      ],
      [
        "ĠI",
        "t"
      ],
      [
        "a",
        "us"
      ],
      [
        "ot",
        "her"
      ],
      [
        "o",
        "l"
      ],
      [
        "alf",
        "oy"
      ],
      [
        "Ġe",
        "very"
      ],
      [
        "f",
        "ter"
      ],
      [
        "B",
        "ut"
      ],
      [
        "om",
        "et"
      ],
      [
        "Ġm",
        "an"
      ],
      [
        "ĠP",
        "ot"
      ],
      [
        "a",
        "ble"
      ],
      [
        "Ġw",
        "ill"
      ],
      [
        "Ġdid",
        "n"
      ],
      [
        "Ġhe",
        "re"
      ],
      [
        "Ġ",
        "en"
      ],
      [
        "Ġro",
        "om"
      ],
      [
        "w",
        "n"
      ],
      [
        "id",
        "d"
      ],
      [
        "Ġc",
        "lo"
      ],
      [
        "c",
        "hed"
      ],
      [
        "or",
        "m"
      ],
      [
        "ak",
        "ing"
      ],
      [
        "a",
        "b"
      ],
      [
        "ad",
        "e"
      ],
      [
        "Ġo",
        "p"
      ],
      [
        "f",
        "t"
      ],
      [
        "W",
        "hat"
      ],
      [
        "o",
        "d"
      ],
      [
        "s",
        "ide"
      ],
      [
        "Ġl",
        "ong"
      ],
      [
        "t",
        "h"
      ],
      [
        "Ġp",
        "re"
      ],
      [
        "Ġ",
        "im"
      ],
      [
        "i",
        "le"
      ],
      [
        "em",
        "ort"
      ],
      [
        "Ġon",
        "ly"
      ],
      [
        "old",
        "emort"
      ],
      [
        "Ġ",
        "U"
      ],
      [
        "Ġw",
        "at"
      ],
      [
        "ĠM",
        "alfoy"
      ],
      [
        "ar",
        "ing"
      ],
      [
        "k",
        "ing"
      ],
      [
        "Ġt",
        "e"
      ],
      [
        "Ġs",
        "omet"
      ],
      [
        "h",
        "o"
      ],
      [
        "Ġsa",
        "w"
      ],
      [
        "t",
        "s"
      ],
      [
        "A",
        "nd"
      ],
      [
        "Ġd",
        "is"
      ],
      [
        "Ġu",
        "nder"
      ],
      [
        "Ġwhe",
        "re"
      ],
      [
        "Ġkn",
        "e"
      ],
      [
        "Ġha",
        "pp"
      ],
      [
        "Ġt",
        "ell"
      ],
      [
        "Ġbe",
        "h"
      ],
      [
        "Ġ",
        "K"
      ],
      [
        "ag",
        "e"
      ],
      [
        "r",
        "ow"
      ],
      [
        "Ġw",
        "ay"
      ],
      [
        "Ġp",
        "e"
      ],
      [
        "Ġw",
        "ant"
      ],
      [
        "Ġa",
        "fter"
      ],
      [
        "ri",
        "ed"
      ],
      [
        "at",
        "her"
      ],
      [
        "ĠV",
        "oldemort"
      ],
      [
        "iz",
        "ard"
      ],
      [
        "s",
        "ed"
      ],
      [
        "m",
        "ent"
      ],
      [
        "Ġbe",
        "c"
      ],
      [
        "v",
        "es"
      ],
      [
        "Ġm",
        "u"
      ],
      [
        "Ġseem",
        "ed"
      ],
      [
        "Ġsomet",
        "hing"
      ],
      [
        "Ġa",
        "pp"
      ],
      [
        "Ġ",
        "ke"
      ],
      [
        "Ġl",
        "o"
      ],
      [
        "Ġhim",
        "self"
      ],
      [
        "ir",
        "ius"
      ],
      [
        "t",
        "hing"
      ],
      [
        "Ġa",
        "way"
      ],
      [
        "Ġf",
        "ir"
      ],
      [
        "Ġl",
        "et"
      ],
      [
        "Ġbe",
        "t"
      ],
      [
        "Ġbeh",
        "ind"
      ],
      [
        "Ġl",
        "it"
      ],
      [
        "t",
        "e"
      ],
      [
        "Ġe",
        "ven"
      ],
      [
        "aus",
        "e"
      ],
      [
        "ĠPot",
        "ter"
      ],
      [
        "Ġas",
        "ked"
      ],
      [
        "e",
        "ct"
      ],
      [
        "Ġre",
        "m"
      ],
      [
        "m",
        "b"
      ],
      [
        "Ġs",
        "pe"
      ],
      [
        "Ġturn",
        "ed"
      ],
      [
        "e",
        "ver"
      ],
      [
        "Ġto",
        "ld"
      ],
      [
        "Ġne",
        "ver"
      ],
      [
        "at",
        "ed"
      ],
      [
        "Ġb",
        "r"
      ],
      [
        "Ġto",
        "ward"
      ],
      [
        "Ġl",
        "ast"
      ],
      [
        "l",
        "t"
      ],
      [
        "k",
        "s"
      ],
      [
        "Ġpo",
        "in"
      ],
      [
        "Ġc",
        "ome"
      ],
      [
        "Ġa",
        "c"
      ],
      [
        "ac",
        "t"
      ],
      [
        "ĠH",
        "og"
      ],
      [
        "Ġm",
        "om"
      ],
      [
        "ag",
        "ic"
      ],
      [
        "Ġth",
        "ing"
      ],
      [
        "an",
        "ce"
      ],
      [
        "Ġmu",
        "ch"
      ],
      [
        "Ġmom",
        "ent"
      ],
      [
        "Ġp",
        "ro"
      ],
      [
        "in",
        "e"
      ],
      [
        "Ġt",
        "ry"
      ],
      [
        "Ġy",
        "ear"
      ],
      [
        "ĠS",
        "irius"
      ],
      [
        "o",
        "ll"
      ],
      [
        "oo",
        "l"
      ],
      [
        "ĠD",
        "e"
      ],
      [
        "ac",
        "h"
      ],
      [
        "Ġkne",
        "w"
      ],
      [
        "u",
        "ff"
      ],
      [
        "d",
        "d"
      ],
      [
        "or",
        "d"
      ],
      [
        "u",
        "e"
      ],
      [
        "er",
        "ing"
      ],
      [
        "Ġsh",
        "ould"
      ],
      [
        "re",
        "ss"
      ],
      [
        "op",
        "le"
      ],
      [
        "i",
        "ed"
      ],
      [
        "ch",
        "ing"
      ],
      [
        "Ġon",
        "ce"
      ],
      [
        "Ġ",
        "You"
      ],
      [
        "Ġlit",
        "tle"
      ],
      [
        "W",
        "ell"
      ],
      [
        "Ġfir",
        "st"
      ],
      [
        "art",
        "s"
      ],
      [
        "W",
        "e"
      ],
      [
        "Ġs",
        "il"
      ],
      [
        "r",
        "u"
      ],
      [
        "f",
        "ul"
      ],
      [
        "Ġse",
        "c"
      ],
      [
        "Ġhe",
        "ard"
      ],
      [
        "Ġle",
        "ft"
      ],
      [
        "Ġtw",
        "o"
      ],
      [
        "Ġm",
        "ade"
      ],
      [
        "Ġp",
        "r"
      ],
      [
        "Ġh",
        "as"
      ],
      [
        "od",
        "y"
      ],
      [
        "p",
        "ed"
      ],
      [
        "on",
        "t"
      ],
      [
        "N",
        "o"
      ],
      [
        "Ġb",
        "ot"
      ],
      [
        "ĠM",
        "in"
      ],
      [
        "Ġw",
        "a"
      ],
      [
        "is",
        "h"
      ],
      [
        "ĠThe",
        "y"
      ],
      [
        "as",
        "e"
      ],
      [
        "Ġfe",
        "lt"
      ],
      [
        "Ġg",
        "ood"
      ],
      [
        "w",
        "arts"
      ],
      [
        "ow",
        "ed"
      ],
      [
        "Ġd",
        "es"
      ],
      [
        "Ġpe",
        "ople"
      ],
      [
        "l",
        "es"
      ],
      [
        "Ġcon",
        "t"
      ],
      [
        "ĠHog",
        "warts"
      ],
      [
        "Ġit",
        "s"
      ],
      [
        "Ġh",
        "o"
      ],
      [
        "ad",
        "y"
      ],
      [
        "n",
        "t"
      ],
      [
        "The",
        "y"
      ],
      [
        "Ġp",
        "ull"
      ],
      [
        "p",
        "le"
      ],
      [
        "Ġd",
        "ark"
      ],
      [
        "ro",
        "om"
      ],
      [
        "Ġre",
        "ally"
      ],
      [
        "Ġw",
        "izard"
      ],
      [
        "i",
        "es"
      ],
      [
        "Ġm",
        "ight"
      ],
      [
        "Ġwe",
        "ll"
      ],
      [
        "ro",
        "ss"
      ],
      [
        "Ġat",
        "t"
      ],
      [
        "e",
        "v"
      ],
      [
        "l",
        "ess"
      ],
      [
        "ud",
        "d"
      ],
      [
        "ĠF",
        "red"
      ],
      [
        "Ġf",
        "lo"
      ],
      [
        "Ġar",
        "m"
      ],
      [
        "Ġs",
        "n"
      ],
      [
        "or",
        "y"
      ],
      [
        "ion",
        "s"
      ],
      [
        "Ġt",
        "al"
      ],
      [
        "Ġw",
        "al"
      ],
      [
        "it",
        "ch"
      ],
      [
        "b",
        "er"
      ],
      [
        "ill",
        "e"
      ],
      [
        "he",
        "n"
      ],
      [
        "up",
        "in"
      ],
      [
        "Ġne",
        "ed"
      ],
      [
        "o",
        "ck"
      ],
      [
        "p",
        "er"
      ],
      [
        "Ġd",
        "r"
      ],
      [
        "Ġfe",
        "el"
      ],
      [
        "ou",
        "gh"
      ],
      [
        "x",
        "t"
      ],
      [
        "or",
        "s"
      ],
      [
        "Ġfr",
        "ont"
      ],
      [
        "Ġa",
        "m"
      ],
      [
        "it",
        "y"
      ],
      [
        "ĠM",
        "c"
      ],
      [
        "inn",
        "y"
      ],
      [
        "ri",
        "e"
      ],
      [
        "Ġw",
        "ind"
      ],
      [
        "Ġsu",
        "re"
      ],
      [
        "Q",
        "u"
      ],
      [
        "ĠMr",
        "s"
      ],
      [
        "a",
        "h"
      ],
      [
        "Ġe",
        "ver"
      ],
      [
        "Ġm",
        "ust"
      ],
      [
        "ou",
        "se"
      ],
      [
        "is",
        "e"
      ],
      [
        "or",
        "ge"
      ],
      [
        "Ġop",
        "en"
      ],
      [
        "Ġ",
        "ent"
      ],
      [
        "o",
        "se"
      ],
      [
        "O",
        "h"
      ],
      [
        "e",
        "orge"
      ],
      [
        "ou",
        "d"
      ],
      [
        "Ġc",
        "he"
      ],
      [
        "ev",
        "ille"
      ],
      [
        "Ġme",
        "an"
      ],
      [
        "ar",
        "ge"
      ],
      [
        "un",
        "g"
      ],
      [
        "Ġim",
        "p"
      ],
      [
        "Ġc",
        "ame"
      ],
      [
        "Ġo",
        "ld"
      ],
      [
        "m",
        "e"
      ],
      [
        "Ġfe",
        "et"
      ],
      [
        "ĠG",
        "eorge"
      ],
      [
        "ar",
        "m"
      ],
      [
        "ĠC",
        "h"
      ],
      [
        "c",
        "ed"
      ],
      [
        "u",
        "ck"
      ],
      [
        "ig",
        "n"
      ],
      [
        "c",
        "y"
      ],
      [
        "Ġbec",
        "ause"
      ],
      [
        "Ġp",
        "ass"
      ],
      [
        "re",
        "am"
      ],
      [
        "Ġbe",
        "l"
      ],
      [
        "Ġp",
        "ut"
      ],
      [
        "he",
        "re"
      ],
      [
        "p",
        "l"
      ],
      [
        "Ġh",
        "ur"
      ],
      [
        "G",
        "on"
      ],
      [
        "ag",
        "all"
      ],
      [
        "Gon",
        "agall"
      ],
      [
        "on",
        "s"
      ],
      [
        "Ġc",
        "r"
      ],
      [
        "en",
        "ce"
      ],
      [
        "ĠL",
        "upin"
      ],
      [
        "ĠMc",
        "Gonagall"
      ],
      [
        "ĠS",
        "he"
      ],
      [
        "re",
        "w"
      ],
      [
        "un",
        "n"
      ],
      [
        "Ġe",
        "nd"
      ],
      [
        "Ġf",
        "ind"
      ],
      [
        "Ġo",
        "wn"
      ],
      [
        "Ġt",
        "er"
      ],
      [
        "e",
        "ah"
      ],
      [
        "Ġtoo",
        "k"
      ],
      [
        "Ġc",
        "le"
      ],
      [
        "our",
        "se"
      ],
      [
        "b",
        "e"
      ],
      [
        "Ġb",
        "ed"
      ],
      [
        "Ġb",
        "it"
      ],
      [
        "an",
        "ted"
      ],
      [
        "Ġany",
        "thing"
      ],
      [
        "Ġs",
        "ur"
      ],
      [
        "Ġg",
        "reat"
      ],
      [
        "Ġsu",
        "pp"
      ],
      [
        "Ġ",
        "Qu"
      ],
      [
        "Ġd",
        "ay"
      ],
      [
        "Ġh",
        "ard"
      ],
      [
        "The",
        "re"
      ],
      [
        "Ġfe",
        "w"
      ],
      [
        "Ġm",
        "ake"
      ],
      [
        "Ġst",
        "and"
      ],
      [
        "Ġt",
        "able"
      ],
      [
        "Ġtry",
        "ing"
      ],
      [
        "Ġhe",
        "l"
      ],
      [
        "ch",
        "ool"
      ],
      [
        "ĠG",
        "inny"
      ],
      [
        "is",
        "hed"
      ],
      [
        "Ġt",
        "ake"
      ],
      [
        "ĠN",
        "eville"
      ],
      [
        "ent",
        "s"
      ],
      [
        "at",
        "er"
      ],
      [
        "is",
        "ed"
      ],
      [
        "ry",
        "ff"
      ],
      [
        "u",
        "gg"
      ],
      [
        "ryff",
        "ind"
      ],
      [
        "Ġw",
        "r"
      ],
      [
        "an",
        "k"
      ],
      [
        "ĠA",
        "nd"
      ],
      [
        "Ġan",
        "other"
      ],
      [
        "Ġw",
        "ent"
      ],
      [
        "Ġl",
        "ight"
      ],
      [
        "Ġg",
        "i"
      ],
      [
        "he",
        "s"
      ],
      [
        "er",
        "n"
      ],
      [
        "if",
        "f"
      ],
      [
        "Ġsec",
        "ond"
      ],
      [
        "S",
        "he"
      ],
      [
        "rid",
        "ge"
      ],
      [
        "Ġhand",
        "s"
      ],
      [
        "Ġne",
        "xt"
      ],
      [
        "ĠG",
        "ryffind"
      ],
      [
        "Ġwor",
        "d"
      ],
      [
        "Ġflo",
        "or"
      ],
      [
        "o",
        "st"
      ],
      [
        "Ġin",
        "side"
      ],
      [
        "Ġn",
        "ight"
      ],
      [
        "Ġs",
        "chool"
      ],
      [
        "o",
        "ve"
      ],
      [
        "Ġs",
        "ide"
      ],
      [
        "ar",
        "ly"
      ],
      [
        "Ġc",
        "ur"
      ],
      [
        "Ġwh",
        "ile"
      ],
      [
        "o",
        "ot"
      ],
      [
        "Ġe",
        "m"
      ],
      [
        "ious",
        "ly"
      ],
      [
        "Ġb",
        "oy"
      ],
      [
        "Ġke",
        "ep"
      ],
      [
        "c",
        "le"
      ],
      [
        "w",
        "e"
      ],
      [
        "Ġl",
        "arge"
      ],
      [
        "Ġne",
        "w"
      ],
      [
        "Ġs",
        "ound"
      ],
      [
        "i",
        "et"
      ],
      [
        "e",
        "e"
      ],
      [
        "b",
        "ody"
      ],
      [
        "Ġf",
        "ound"
      ],
      [
        "Ġr",
        "a"
      ],
      [
        "t",
        "ered"
      ],
      [
        "Ġl",
        "au"
      ],
      [
        "Ġth",
        "ree"
      ],
      [
        "ull",
        "y"
      ],
      [
        "Ġc",
        "all"
      ],
      [
        "mb",
        "ridge"
      ],
      [
        "Ġup",
        "on"
      ],
      [
        "Ġwind",
        "ow"
      ],
      [
        "ĠI",
        "n"
      ],
      [
        "Ġwh",
        "is"
      ],
      [
        "iz",
        "ed"
      ],
      [
        "Ġbl",
        "ack"
      ],
      [
        "Y",
        "es"
      ],
      [
        "ac",
        "her"
      ],
      [
        "Ġl",
        "oud"
      ],
      [
        "ĠB",
        "l"
      ],
      [
        "g",
        "et"
      ],
      [
        "s",
        "h"
      ],
      [
        "a",
        "z"
      ],
      [
        "Ġs",
        "it"
      ],
      [
        "Ġe",
        "l"
      ],
      [
        "Ġp",
        "er"
      ],
      [
        "Ġc",
        "ourse"
      ],
      [
        "Ġre",
        "t"
      ],
      [
        "Ġs",
        "et"
      ],
      [
        "Ġha",
        "ir"
      ],
      [
        "a",
        "pp"
      ],
      [
        "ar",
        "y"
      ],
      [
        "ist",
        "ry"
      ],
      [
        "Ġg",
        "ave"
      ],
      [
        "Ġse",
        "en"
      ],
      [
        "b",
        "l"
      ],
      [
        "Ġg",
        "round"
      ],
      [
        "i",
        "p"
      ],
      [
        "n",
        "e"
      ],
      [
        "Ġnot",
        "hing"
      ],
      [
        "em",
        "ent"
      ],
      [
        "ĠU",
        "mbridge"
      ],
      [
        "Ġst",
        "ood"
      ],
      [
        "i",
        "ld"
      ],
      [
        "Ġst",
        "r"
      ],
      [
        "i",
        "x"
      ],
      [
        "t",
        "y"
      ],
      [
        "a",
        "il"
      ],
      [
        "Ġhe",
        "ar"
      ],
      [
        "Ġhel",
        "p"
      ],
      [
        "ĠMin",
        "istry"
      ],
      [
        "ĠDe",
        "ath"
      ],
      [
        "R",
        "on"
      ],
      [
        "T",
        "h"
      ],
      [
        "at",
        "ing"
      ],
      [
        "udd",
        "en"
      ],
      [
        "Ġs",
        "k"
      ],
      [
        "ĠGryffind",
        "or"
      ],
      [
        "Ġon",
        "to"
      ],
      [
        "Ġre",
        "al"
      ],
      [
        "Ġj",
        "o"
      ],
      [
        "a",
        "w"
      ],
      [
        "Ġwh",
        "y"
      ],
      [
        "Ġf",
        "in"
      ],
      [
        "h",
        "y"
      ],
      [
        "Ġa",
        "ir"
      ],
      [
        "Ġha",
        "lf"
      ],
      [
        "Ġpull",
        "ed"
      ],
      [
        "i",
        "gh"
      ],
      [
        "Ġs",
        "udden"
      ],
      [
        "is",
        "s"
      ],
      [
        "air",
        "s"
      ],
      [
        "ight",
        "ly"
      ],
      [
        "Ġb",
        "ook"
      ],
      [
        "ow",
        "er"
      ],
      [
        "ĠThe",
        "re"
      ],
      [
        "ĠB",
        "ut"
      ],
      [
        "Ġ",
        "J"
      ],
      [
        "Y",
        "eah"
      ],
      [
        "Ġw",
        "all"
      ],
      [
        "n",
        "ess"
      ],
      [
        "Ġsh",
        "out"
      ],
      [
        "Ġl",
        "if"
      ],
      [
        "a",
        "v"
      ],
      [
        "Ġ",
        "our"
      ],
      [
        "Ġm",
        "at"
      ],
      [
        "ood",
        "y"
      ],
      [
        "Ġc",
        "ast"
      ],
      [
        "Ġs",
        "at"
      ],
      [
        "Ġac",
        "ross"
      ],
      [
        "ac",
        "hed"
      ],
      [
        "Ġw",
        "anted"
      ],
      [
        "Ġ",
        "âĢĻ"
      ],
      [
        "ĠT",
        "h"
      ],
      [
        "Ġbe",
        "g"
      ],
      [
        "Ġs",
        "qu"
      ],
      [
        "bb",
        "y"
      ],
      [
        "Ġst",
        "ud"
      ],
      [
        "Ġfe",
        "ll"
      ],
      [
        "an",
        "s"
      ],
      [
        "Ġqu",
        "ick"
      ],
      [
        "i",
        "ble"
      ],
      [
        "Ġpl",
        "ace"
      ],
      [
        "Ġh",
        "ouse"
      ],
      [
        "Ġbe",
        "ing"
      ],
      [
        "Ġwa",
        "it"
      ],
      [
        "un",
        "t"
      ],
      [
        "way",
        "s"
      ],
      [
        "Ġf",
        "ire"
      ],
      [
        "um",
        "p"
      ],
      [
        "ĠS",
        "t"
      ],
      [
        "ing",
        "s"
      ],
      [
        "Ġe",
        "ach"
      ],
      [
        "ent",
        "ly"
      ],
      [
        "Ġmo",
        "st"
      ],
      [
        "n",
        "g"
      ],
      [
        "ar",
        "s"
      ],
      [
        "Ġf",
        "oll"
      ],
      [
        "Ġwith",
        "out"
      ],
      [
        "Ġwas",
        "n"
      ],
      [
        "ud",
        "ge"
      ],
      [
        "Ġbot",
        "h"
      ],
      [
        "Ġc",
        "or"
      ],
      [
        "Ġdo",
        "es"
      ],
      [
        "T",
        "hat"
      ],
      [
        "ar",
        "ted"
      ],
      [
        "Ġqu",
        "ite"
      ],
      [
        "Ġcl",
        "ass"
      ],
      [
        "H",
        "ermione"
      ],
      [
        "Ġd",
        "one"
      ],
      [
        "ĠD",
        "ark"
      ],
      [
        "Ġqu",
        "iet"
      ],
      [
        "Ġyear",
        "s"
      ],
      [
        "i",
        "b"
      ],
      [
        "Ġsm",
        "all"
      ],
      [
        "Ġhapp",
        "ened"
      ],
      [
        "en",
        "ing"
      ],
      [
        "Ġm",
        "ind"
      ],
      [
        "Ġan",
        "g"
      ],
      [
        "Ġagain",
        "st"
      ],
      [
        "Ġal",
        "ong"
      ],
      [
        "f",
        "ully"
      ],
      [
        "o",
        "s"
      ],
      [
        "S",
        "o"
      ],
      [
        "Ġc",
        "are"
      ],
      [
        "out",
        "h"
      ],
      [
        "Ġbet",
        "ter"
      ],
      [
        "is",
        "ter"
      ],
      [
        "ĠD",
        "o"
      ],
      [
        "Ġcould",
        "n"
      ],
      [
        "c",
        "ted"
      ],
      [
        "as",
        "ter"
      ],
      [
        "rie",
        "nd"
      ],
      [
        "in",
        "s"
      ],
      [
        "Ġdo",
        "ing"
      ],
      [
        "ern",
        "on"
      ],
      [
        "ĠâĢ",
        "ĺ"
      ],
      [
        "Ġm",
        "agic"
      ],
      [
        "Ġun",
        "t"
      ],
      [
        "r",
        "ic"
      ],
      [
        "il",
        "ing"
      ],
      [
        "t",
        "en"
      ],
      [
        "ow",
        "ing"
      ],
      [
        "y",
        "ing"
      ],
      [
        "Ġp",
        "le"
      ],
      [
        "l",
        "u"
      ],
      [
        "ĠV",
        "ernon"
      ],
      [
        "e",
        "y"
      ],
      [
        "h",
        "ap"
      ],
      [
        "Ġb",
        "reat"
      ],
      [
        "Ġen",
        "ough"
      ],
      [
        "pe",
        "red"
      ],
      [
        "Ġel",
        "se"
      ],
      [
        "Ġst",
        "e"
      ],
      [
        "ĠM",
        "ugg"
      ],
      [
        "ĠU",
        "n"
      ],
      [
        "l",
        "i"
      ],
      [
        "Ġex",
        "pe"
      ],
      [
        "b",
        "es"
      ],
      [
        "ĠM",
        "agic"
      ],
      [
        "Ġk",
        "ill"
      ],
      [
        "ĠM",
        "ad"
      ],
      [
        "in",
        "ed"
      ],
      [
        "re",
        "ady"
      ],
      [
        "Ġh",
        "old"
      ],
      [
        "Ġf",
        "am"
      ],
      [
        "Ġm",
        "outh"
      ],
      [
        "Ġey",
        "e"
      ],
      [
        "e",
        "h"
      ],
      [
        "p",
        "r"
      ],
      [
        "Ġm",
        "ut"
      ],
      [
        "Ġl",
        "ess"
      ],
      [
        "ur",
        "s"
      ],
      [
        "Ġm",
        "in"
      ],
      [
        "am",
        "p"
      ],
      [
        "Ġb",
        "o"
      ],
      [
        "Ġf",
        "ore"
      ],
      [
        "t",
        "ain"
      ],
      [
        "u",
        "nd"
      ],
      [
        "Ġal",
        "ready"
      ],
      [
        "au",
        "ght"
      ],
      [
        "re",
        "t"
      ],
      [
        "Ġre",
        "s"
      ],
      [
        "ly",
        "ther"
      ],
      [
        "a",
        "wn"
      ],
      [
        "Ġy",
        "ell"
      ],
      [
        "i",
        "a"
      ],
      [
        "Ġro",
        "bes"
      ],
      [
        "c",
        "l"
      ],
      [
        "Ġst",
        "aring"
      ],
      [
        "ar",
        "n"
      ],
      [
        "Ġrem",
        "em"
      ],
      [
        "Ġwal",
        "ked"
      ],
      [
        "Ġp",
        "art"
      ],
      [
        "W",
        "ho"
      ],
      [
        "re",
        "ak"
      ],
      [
        "Ġf",
        "riend"
      ],
      [
        "Ġfor",
        "ward"
      ],
      [
        "Ġbel",
        "ie"
      ],
      [
        "in",
        "ce"
      ],
      [
        "Ġgo",
        "ld"
      ],
      [
        "idd",
        "le"
      ],
      [
        "Ġre",
        "ad"
      ],
      [
        "Ġd",
        "iff"
      ],
      [
        "f",
        "orm"
      ],
      [
        "e",
        "ared"
      ],
      [
        "ĠS",
        "lyther"
      ],
      [
        "Ġp",
        "ast"
      ],
      [
        "Ġre",
        "st"
      ],
      [
        "Ġt",
        "re"
      ],
      [
        "ĠP",
        "er"
      ],
      [
        "ĠH",
        "is"
      ],
      [
        "pp",
        "ing"
      ],
      [
        "Ġr",
        "ather"
      ],
      [
        "ang",
        "er"
      ],
      [
        "ĠM",
        "oody"
      ],
      [
        "we",
        "en"
      ],
      [
        "Ġto",
        "p"
      ],
      [
        "Ġth",
        "ose"
      ],
      [
        "ab",
        "ly"
      ],
      [
        "Ġg",
        "one"
      ],
      [
        "ĠP",
        "et"
      ],
      [
        "Ġret",
        "urn"
      ],
      [
        "Ġs",
        "na"
      ],
      [
        "Ġthe",
        "se"
      ],
      [
        "en",
        "se"
      ],
      [
        "Ġbet",
        "ween"
      ],
      [
        "Ġw",
        "on"
      ],
      [
        "Ġstand",
        "ing"
      ],
      [
        "Ġsudden",
        "ly"
      ],
      [
        "Ġsc",
        "ar"
      ],
      [
        "g",
        "ed"
      ],
      [
        "Ġo",
        "b"
      ],
      [
        "Ġin",
        "st"
      ],
      [
        "ain",
        "ed"
      ],
      [
        "Ġwhis",
        "pered"
      ],
      [
        "ud",
        "ley"
      ],
      [
        "Ġbeg",
        "an"
      ],
      [
        "Ġunt",
        "il"
      ],
      [
        "Ġf",
        "ull"
      ],
      [
        "m",
        "ost"
      ],
      [
        "dd",
        "ed"
      ],
      [
        "Ġg",
        "ive"
      ],
      [
        "Ġman",
        "y"
      ],
      [
        "Ġop",
        "ened"
      ],
      [
        "Ġb",
        "ro"
      ],
      [
        "Ġc",
        "ar"
      ],
      [
        "an",
        "ge"
      ],
      [
        "Ġy",
        "et"
      ],
      [
        "ĠA",
        "r"
      ],
      [
        "w",
        "l"
      ],
      [
        "Ġre",
        "c"
      ],
      [
        "Ġsl",
        "ightly"
      ],
      [
        "Ġsit",
        "ting"
      ],
      [
        "Ġt",
        "ried"
      ],
      [
        "Ġw",
        "ond"
      ],
      [
        "Ġc",
        "old"
      ],
      [
        "en",
        "s"
      ],
      [
        "Ġl",
        "ist"
      ],
      [
        "ĠThe",
        "n"
      ],
      [
        "it",
        "her"
      ],
      [
        "idd",
        "itch"
      ],
      [
        "m",
        "on"
      ],
      [
        "Ġc",
        "ou"
      ],
      [
        "Ġst",
        "o"
      ],
      [
        "Ġgl",
        "ass"
      ],
      [
        "Ġquick",
        "ly"
      ],
      [
        "o",
        "ke"
      ],
      [
        "ĠF",
        "udge"
      ],
      [
        "Ġthing",
        "s"
      ],
      [
        "he",
        "ad"
      ],
      [
        "Ġsa",
        "me"
      ],
      [
        "c",
        "hes"
      ],
      [
        "Ġh",
        "or"
      ],
      [
        "Ġd",
        "ro"
      ],
      [
        "Ġd",
        "ist"
      ],
      [
        "Ġg",
        "re"
      ],
      [
        "ul",
        "t"
      ],
      [
        "Ġmin",
        "ut"
      ],
      [
        "H",
        "ow"
      ],
      [
        "Ġclo",
        "se"
      ],
      [
        "gh",
        "orn"
      ],
      [
        "Ġoff",
        "ice"
      ],
      [
        "Ġtal",
        "king"
      ],
      [
        "Ġra",
        "ised"
      ],
      [
        "Ġcor",
        "rid"
      ],
      [
        "Ġst",
        "art"
      ],
      [
        "Ġst",
        "arted"
      ],
      [
        "ĠQu",
        "idditch"
      ],
      [
        "lu",
        "ghorn"
      ],
      [
        "p",
        "h"
      ],
      [
        "Ġre",
        "ached"
      ],
      [
        "Ġcast",
        "le"
      ],
      [
        "Ġb",
        "ad"
      ],
      [
        "ĠG",
        "r"
      ],
      [
        "am",
        "es"
      ],
      [
        "d",
        "ay"
      ],
      [
        "ĠUn",
        "cle"
      ],
      [
        "ir",
        "l"
      ],
      [
        "ĠL",
        "ord"
      ],
      [
        "ĠH",
        "all"
      ],
      [
        "ent",
        "ion"
      ],
      [
        "Ġde",
        "ep"
      ],
      [
        "ck",
        "et"
      ],
      [
        "o",
        "sed"
      ],
      [
        "Ġwould",
        "n"
      ],
      [
        "Ġa",
        "d"
      ],
      [
        "ĠBl",
        "ack"
      ],
      [
        "get",
        "her"
      ],
      [
        "Ġunder",
        "st"
      ],
      [
        "Ġa",
        "ble"
      ],
      [
        "Ġsl",
        "ow"
      ],
      [
        "ak",
        "en"
      ],
      [
        "ig",
        "g"
      ],
      [
        "Ġc",
        "o"
      ],
      [
        "Ġde",
        "ad"
      ],
      [
        "Ġh",
        "igh"
      ],
      [
        "ter",
        "ing"
      ],
      [
        "Ġal",
        "ways"
      ],
      [
        "Ġdr",
        "ag"
      ],
      [
        "Ġex",
        "p"
      ],
      [
        "Ġshout",
        "ed"
      ],
      [
        "Ġp",
        "ain"
      ],
      [
        "Ġal",
        "most"
      ],
      [
        "Ġto",
        "gether"
      ],
      [
        "Ġn",
        "ame"
      ],
      [
        "Ġst",
        "ra"
      ],
      [
        "Ġ",
        "ide"
      ],
      [
        "ĠD",
        "udley"
      ],
      [
        "er",
        "v"
      ],
      [
        "i",
        "v"
      ],
      [
        "Ġf",
        "ather"
      ],
      [
        "Ġl",
        "ater"
      ],
      [
        "l",
        "ves"
      ],
      [
        "y",
        "ou"
      ],
      [
        "ĠS",
        "lughorn"
      ],
      [
        "Ġany",
        "one"
      ],
      [
        "Ġcom",
        "ing"
      ],
      [
        "Ġf",
        "ing"
      ],
      [
        "Ġwor",
        "k"
      ],
      [
        "r",
        "ac"
      ],
      [
        "u",
        "red"
      ],
      [
        "Ġus",
        "u"
      ],
      [
        "Ġcall",
        "ed"
      ],
      [
        "Ġh",
        "our"
      ],
      [
        "Ġm",
        "em"
      ],
      [
        "Ġin",
        "d"
      ],
      [
        "Ġus",
        "e"
      ],
      [
        "m",
        "ed"
      ],
      [
        "Ġb",
        "es"
      ],
      [
        "at",
        "ers"
      ],
      [
        "ate",
        "ly"
      ],
      [
        "v",
        "is"
      ],
      [
        "Ġpo",
        "ss"
      ],
      [
        "Ġs",
        "le"
      ],
      [
        "Ġst",
        "ared"
      ],
      [
        "d",
        "er"
      ],
      [
        "Ġb",
        "room"
      ],
      [
        "N",
        "ot"
      ],
      [
        "Ġg",
        "irl"
      ],
      [
        "Ġsc",
        "ream"
      ],
      [
        "s",
        "w"
      ],
      [
        "Ġf",
        "ar"
      ],
      [
        "Ġp",
        "ers"
      ],
      [
        "Ġhow",
        "ever"
      ],
      [
        "Ġf",
        "our"
      ],
      [
        "Ġde",
        "c"
      ],
      [
        "Ġcont",
        "in"
      ],
      [
        "Ġfeel",
        "ing"
      ],
      [
        "e",
        "re"
      ],
      [
        "ac",
        "ed"
      ],
      [
        "Ġf",
        "oot"
      ],
      [
        "Ġc",
        "row"
      ],
      [
        "Ġm",
        "ar"
      ],
      [
        "Ġg",
        "u"
      ],
      [
        "c",
        "us"
      ],
      [
        "c",
        "i"
      ],
      [
        "Ġo",
        "wl"
      ],
      [
        "Ġy",
        "eh"
      ],
      [
        "un",
        "k"
      ],
      [
        "Ġp",
        "ar"
      ],
      [
        "Ġwat",
        "ching"
      ],
      [
        "Ġs",
        "ight"
      ],
      [
        "Ġcrow",
        "d"
      ],
      [
        "Ġquiet",
        "ly"
      ],
      [
        "Ġwho",
        "le"
      ],
      [
        "Ġv",
        "is"
      ],
      [
        "Ġstud",
        "ents"
      ],
      [
        "ĠPer",
        "cy"
      ],
      [
        "er",
        "y"
      ],
      [
        "ra",
        "w"
      ],
      [
        "ra",
        "bb"
      ],
      [
        "r",
        "on"
      ],
      [
        "Ġs",
        "ign"
      ],
      [
        "it",
        "ed"
      ],
      [
        "Ġle",
        "g"
      ],
      [
        "ou",
        "ght"
      ],
      [
        "Ġd",
        "et"
      ],
      [
        "Ġha",
        "ll"
      ],
      [
        "Ġbes",
        "ide"
      ],
      [
        "ir",
        "d"
      ],
      [
        "ep",
        "s"
      ],
      [
        "Ġl",
        "ot"
      ],
      [
        "Ġem",
        "pt"
      ],
      [
        "ĠDo",
        "bby"
      ],
      [
        "u",
        "ed"
      ],
      [
        "ure",
        "s"
      ],
      [
        "or",
        "ry"
      ],
      [
        "Ġl",
        "ow"
      ],
      [
        "Ġas",
        "k"
      ],
      [
        "ĠW",
        "hat"
      ],
      [
        "Ġf",
        "ur"
      ],
      [
        "ic",
        "t"
      ],
      [
        "ĠS",
        "e"
      ],
      [
        "Ġlet",
        "ter"
      ],
      [
        "Ġstra",
        "ight"
      ],
      [
        "Ġa",
        "w"
      ],
      [
        "Ġm",
        "other"
      ],
      [
        "Ġre",
        "d"
      ],
      [
        "Ġout",
        "side"
      ],
      [
        "un",
        "a"
      ],
      [
        "i",
        "led"
      ],
      [
        "re",
        "st"
      ],
      [
        "Ġhe",
        "art"
      ],
      [
        "ĠA",
        "n"
      ],
      [
        "D",
        "umbledore"
      ],
      [
        "it",
        "h"
      ],
      [
        "Ġst",
        "op"
      ],
      [
        "Ġevery",
        "thing"
      ],
      [
        "Ġc",
        "orn"
      ],
      [
        "Ġc",
        "aught"
      ],
      [
        "Ġwe",
        "e"
      ],
      [
        "ĠE",
        "aters"
      ],
      [
        "Ġevery",
        "one"
      ],
      [
        "ic",
        "ked"
      ],
      [
        "Ġmo",
        "ve"
      ],
      [
        "Ġpass",
        "ed"
      ],
      [
        "en",
        "e"
      ],
      [
        "Ġan",
        "sw"
      ],
      [
        "ĠSlyther",
        "in"
      ],
      [
        "Ġc",
        "at"
      ],
      [
        "Ġide",
        "a"
      ],
      [
        "im",
        "es"
      ],
      [
        "Ġsupp",
        "osed"
      ],
      [
        "rou",
        "ch"
      ],
      [
        "Ġwhe",
        "ther"
      ],
      [
        "Ġke",
        "pt"
      ],
      [
        "Ġlif",
        "e"
      ],
      [
        "Ġs",
        "ir"
      ],
      [
        "Ġbelie",
        "ve"
      ],
      [
        "Ġslow",
        "ly"
      ],
      [
        "p",
        "ly"
      ],
      [
        "Ġsto",
        "pped"
      ],
      [
        "P",
        "rofessor"
      ],
      [
        "Ġ",
        "ri"
      ],
      [
        "Ġb",
        "est"
      ],
      [
        "Ġis",
        "n"
      ],
      [
        "Ġde",
        "f"
      ],
      [
        "Ġsay",
        "ing"
      ],
      [
        "Ġword",
        "s"
      ],
      [
        "I",
        "f"
      ],
      [
        "Ġho",
        "pe"
      ],
      [
        "Ġa",
        "ct"
      ],
      [
        "Ġh",
        "it"
      ],
      [
        "Ġmut",
        "tered"
      ],
      [
        "Ġb",
        "ur"
      ],
      [
        "Ġget",
        "ting"
      ],
      [
        "Ġd",
        "ement"
      ],
      [
        "ack",
        "ed"
      ],
      [
        "Ġp",
        "ot"
      ],
      [
        "ĠMugg",
        "le"
      ],
      [
        "w",
        "here"
      ],
      [
        "Ġwizard",
        "s"
      ],
      [
        "c",
        "c"
      ],
      [
        "Ġs",
        "ince"
      ],
      [
        "Ġha",
        "ven"
      ],
      [
        "Ġ",
        "("
      ],
      [
        "Ġh",
        "ome"
      ],
      [
        "Ġsh",
        "ort"
      ],
      [
        "ĠA",
        "s"
      ],
      [
        "iz",
        "e"
      ],
      [
        "Ġbreat",
        "h"
      ],
      [
        "Ġt",
        "aken"
      ],
      [
        "ri",
        "f"
      ],
      [
        "c",
        "ing"
      ],
      [
        "Ġb",
        "reak"
      ],
      [
        "ĠI",
        "f"
      ],
      [
        "r",
        "um"
      ],
      [
        "Ġpl",
        "ay"
      ],
      [
        "Ġlau",
        "gh"
      ],
      [
        "s",
        "o"
      ],
      [
        "ed",
        "ric"
      ],
      [
        "Ġsome",
        "one"
      ],
      [
        "j",
        "ect"
      ],
      [
        "Ġs",
        "ort"
      ],
      [
        "Ġst",
        "ay"
      ],
      [
        "ag",
        "ed"
      ],
      [
        "D",
        "on"
      ],
      [
        "l",
        "ight"
      ],
      [
        "âĢľ",
        "âĢ"
      ],
      [
        "ĠL",
        "una"
      ],
      [
        "Ġ",
        "Y"
      ],
      [
        "Ġf",
        "all"
      ],
      [
        "Ġst",
        "one"
      ],
      [
        "Ġhold",
        "ing"
      ],
      [
        "Ġgre",
        "en"
      ],
      [
        "re",
        "acher"
      ],
      [
        "ri",
        "ble"
      ],
      [
        "Ġle",
        "a"
      ],
      [
        "Ġmo",
        "ved"
      ],
      [
        "g",
        "ing"
      ],
      [
        "ĠS",
        "c"
      ],
      [
        "Ġex",
        "t"
      ],
      [
        "Ġqu",
        "est"
      ],
      [
        "orn",
        "ing"
      ],
      [
        "Ġclo",
        "ak"
      ],
      [
        "Ġd",
        "i"
      ],
      [
        "ĠC",
        "rouch"
      ],
      [
        "urs",
        "ley"
      ],
      [
        "p",
        "he"
      ],
      [
        "re",
        "l"
      ],
      [
        "at",
        "i"
      ],
      [
        "Ġy",
        "es"
      ],
      [
        "ĠD",
        "ursley"
      ],
      [
        "Ġdis",
        "app"
      ],
      [
        "Ġempt",
        "y"
      ],
      [
        "ce",
        "pt"
      ],
      [
        "ĠF",
        "l"
      ],
      [
        "Ġle",
        "ave"
      ],
      [
        "Ġno",
        "se"
      ],
      [
        "Ġal",
        "one"
      ],
      [
        "Ġcorrid",
        "or"
      ],
      [
        "Ġunderst",
        "and"
      ],
      [
        "il",
        "ity"
      ],
      [
        "Ġcom",
        "p"
      ],
      [
        "Ġsil",
        "ence"
      ],
      [
        "Ġloud",
        "ly"
      ],
      [
        "Ġb",
        "us"
      ],
      [
        "i",
        "er"
      ],
      [
        "Ġhad",
        "n"
      ],
      [
        "Ġex",
        "am"
      ],
      [
        "Ġtal",
        "k"
      ],
      [
        "Ġminut",
        "es"
      ],
      [
        "ow",
        "s"
      ],
      [
        "Ġwe",
        "aring"
      ],
      [
        "Ġapp",
        "eared"
      ],
      [
        "Ġpoin",
        "t"
      ],
      [
        "Ġm",
        "aking"
      ],
      [
        "Ġte",
        "acher"
      ],
      [
        "m",
        "an"
      ],
      [
        "Ġt",
        "aking"
      ],
      [
        "id",
        "ing"
      ],
      [
        "id",
        "ed"
      ],
      [
        "Ġshould",
        "er"
      ],
      [
        "Ġpoin",
        "ted"
      ],
      [
        "Ġar",
        "ri"
      ],
      [
        "Ġsur",
        "pr"
      ],
      [
        "hap",
        "s"
      ],
      [
        "Ġb",
        "ag"
      ],
      [
        "us",
        "hed"
      ],
      [
        "ra",
        "ve"
      ],
      [
        "te",
        "nd"
      ],
      [
        "Ġh",
        "at"
      ],
      [
        "um",
        "m"
      ],
      [
        "ĠC",
        "lo"
      ],
      [
        "Ġspe",
        "ll"
      ],
      [
        "ĠH",
        "ow"
      ],
      [
        "Ġm",
        "orning"
      ],
      [
        "an",
        "ks"
      ],
      [
        "ĠA",
        "l"
      ],
      [
        "Ġarm",
        "s"
      ],
      [
        "Ġfoll",
        "owed"
      ],
      [
        "a",
        "le"
      ],
      [
        "er",
        "tain"
      ],
      [
        "Ġre",
        "l"
      ],
      [
        "un",
        "ia"
      ],
      [
        "Ġremem",
        "ber"
      ],
      [
        "W",
        "hy"
      ],
      [
        "n",
        "ow"
      ],
      [
        "Ġd",
        "ire"
      ],
      [
        "ous",
        "ly"
      ],
      [
        "in",
        "y"
      ],
      [
        "Ġf",
        "le"
      ],
      [
        "Ġp",
        "ower"
      ],
      [
        "Ġst",
        "uff"
      ],
      [
        "ic",
        "ed"
      ],
      [
        "Ġwat",
        "ched"
      ],
      [
        "f",
        "ect"
      ],
      [
        "Ġme",
        "et"
      ],
      [
        "Ġwat",
        "er"
      ],
      [
        "Ġpoin",
        "ting"
      ],
      [
        "k",
        "en"
      ],
      [
        "re",
        "ad"
      ],
      [
        "an",
        "ced"
      ],
      [
        "Ġother",
        "s"
      ],
      [
        "Ġsil",
        "ver"
      ],
      [
        "Ġb",
        "u"
      ],
      [
        "ĠMad",
        "am"
      ],
      [
        "s",
        "p"
      ],
      [
        "Ġc",
        "e"
      ],
      [
        "Ġmat",
        "ter"
      ],
      [
        "D",
        "o"
      ],
      [
        "k",
        "ay"
      ],
      [
        "Ġf",
        "ly"
      ],
      [
        "Ġse",
        "ver"
      ],
      [
        "Ġs",
        "er"
      ],
      [
        "Ġk",
        "ind"
      ],
      [
        "ĠA",
        "unt"
      ],
      [
        "ĠC",
        "edric"
      ],
      [
        "act",
        "ly"
      ],
      [
        "ress",
        "ion"
      ],
      [
        "r",
        "or"
      ],
      [
        "Ġb",
        "right"
      ],
      [
        "il",
        "ch"
      ],
      [
        "Ġte",
        "am"
      ],
      [
        "Ġdes",
        "k"
      ],
      [
        "or",
        "c"
      ],
      [
        "Ġm",
        "on"
      ],
      [
        "Ġin",
        "ter"
      ],
      [
        "Ġex",
        "c"
      ],
      [
        "Ġsp",
        "ot"
      ],
      [
        "Ġcom",
        "ple"
      ],
      [
        "Ġcom",
        "mon"
      ],
      [
        "Ġac",
        "c"
      ],
      [
        "ĠPet",
        "unia"
      ],
      [
        "Ġcorn",
        "er"
      ],
      [
        "ĠClo",
        "ak"
      ],
      [
        "b",
        "o"
      ],
      [
        "ll",
        "ed"
      ],
      [
        "Ġclo",
        "sed"
      ],
      [
        "Ġsever",
        "al"
      ],
      [
        "Ġch",
        "air"
      ],
      [
        "H",
        "agrid"
      ],
      [
        "Ġhur",
        "ried"
      ],
      [
        "f",
        "ort"
      ],
      [
        "Ġthink",
        "ing"
      ],
      [
        "ac",
        "es"
      ],
      [
        "Ġwh",
        "ite"
      ],
      [
        "Ġre",
        "f"
      ],
      [
        "ant",
        "ly"
      ],
      [
        "Ġent",
        "r"
      ],
      [
        "Ġp",
        "at"
      ],
      [
        "ur",
        "ing"
      ],
      [
        "Ġk",
        "it"
      ],
      [
        "Ġf",
        "ast"
      ],
      [
        "im",
        "b"
      ],
      [
        "oy",
        "le"
      ],
      [
        "Ġsu",
        "ch"
      ],
      [
        "i",
        "red"
      ],
      [
        "as",
        "hed"
      ],
      [
        "Ġm",
        "is"
      ],
      [
        "ĠMin",
        "ister"
      ],
      [
        "Th",
        "is"
      ],
      [
        "M",
        "r"
      ],
      [
        "Ġr",
        "u"
      ],
      [
        "ĠB",
        "ill"
      ],
      [
        "Ġha",
        "ving"
      ],
      [
        "Ġb",
        "ody"
      ],
      [
        "se",
        "lves"
      ],
      [
        "Ġsh",
        "aking"
      ],
      [
        "lo",
        "ck"
      ],
      [
        "Ġdoes",
        "n"
      ],
      [
        "s",
        "it"
      ],
      [
        "Ġm",
        "et"
      ],
      [
        "ver",
        "s"
      ],
      [
        "Ġse",
        "at"
      ],
      [
        "ĠA",
        "ll"
      ],
      [
        "Ġpers",
        "on"
      ],
      [
        "Ġl",
        "ay"
      ],
      [
        "as",
        "ed"
      ],
      [
        "Ġfam",
        "ily"
      ],
      [
        "Ġin",
        "s"
      ],
      [
        "Ġatt",
        "em"
      ],
      [
        "Ġusu",
        "al"
      ],
      [
        "Ġs",
        "ent"
      ],
      [
        "Ġth",
        "ick"
      ],
      [
        "Ġspe",
        "ak"
      ],
      [
        "ib",
        "ility"
      ],
      [
        "Ġhe",
        "av"
      ],
      [
        "ĠM",
        "y"
      ],
      [
        "Ġgi",
        "ven"
      ],
      [
        "Ġt",
        "en"
      ],
      [
        "Ġne",
        "ar"
      ],
      [
        "unn",
        "ing"
      ],
      [
        "n",
        "ts"
      ],
      [
        "re",
        "y"
      ],
      [
        "Ġyell",
        "ed"
      ],
      [
        "Ġdire",
        "ct"
      ],
      [
        "Ġs",
        "orry"
      ],
      [
        "ch",
        "ment"
      ],
      [
        "Ġpr",
        "ot"
      ],
      [
        "li",
        "ke"
      ],
      [
        "Ġhe",
        "ld"
      ],
      [
        "Ġd",
        "anger"
      ],
      [
        "Ġne",
        "ck"
      ],
      [
        "ra",
        "it"
      ],
      [
        "Ġpo",
        "cket"
      ],
      [
        "Ġcon",
        "f"
      ],
      [
        "Ġus",
        "ed"
      ],
      [
        "idd",
        "en"
      ],
      [
        "c",
        "hen"
      ],
      [
        "Ġ",
        "?âĢĿ"
      ],
      [
        "Ġt",
        "rou"
      ],
      [
        "Ġm",
        "ur"
      ],
      [
        "Ġm",
        "ist"
      ],
      [
        "es",
        "c"
      ],
      [
        "Ġg",
        "az"
      ],
      [
        "ore",
        "d"
      ],
      [
        "Ġv",
        "an"
      ],
      [
        "Ġbl",
        "ood"
      ],
      [
        "Ġbook",
        "s"
      ],
      [
        "Ġpar",
        "chment"
      ],
      [
        "a",
        "ven"
      ],
      [
        "Ġwr",
        "ong"
      ],
      [
        "ĠR",
        "iddle"
      ],
      [
        "Ġsu",
        "b"
      ],
      [
        "Ġwat",
        "ch"
      ],
      [
        "Ġkit",
        "chen"
      ],
      [
        "i",
        "pped"
      ],
      [
        "s",
        "ing"
      ],
      [
        "Ġf",
        "ight"
      ],
      [
        "as",
        "h"
      ],
      [
        "au",
        "ld"
      ],
      [
        "p",
        "s"
      ],
      [
        "v",
        "ent"
      ],
      [
        "Ġ",
        "ed"
      ],
      [
        "Ġentr",
        "ance"
      ],
      [
        "h",
        "art"
      ],
      [
        "z",
        "e"
      ],
      [
        "Ġm",
        "ay"
      ],
      [
        "ic",
        "ul"
      ],
      [
        "ĠF",
        "ilch"
      ],
      [
        "Ġun",
        "c"
      ],
      [
        "Ġsw",
        "e"
      ],
      [
        "ry",
        "ing"
      ],
      [
        "Ġsa",
        "f"
      ],
      [
        "awn",
        "ey"
      ],
      [
        "rel",
        "awney"
      ],
      [
        "b",
        "ut"
      ],
      [
        "e",
        "ad"
      ],
      [
        "Ġp",
        "ort"
      ],
      [
        "ĠS",
        "n"
      ],
      [
        "ĠW",
        "hen"
      ],
      [
        "Ġex",
        "pl"
      ],
      [
        "Ġtell",
        "ing"
      ],
      [
        "ock",
        "hart"
      ],
      [
        "Ġcontin",
        "ued"
      ],
      [
        "n",
        "o"
      ],
      [
        "ĠT",
        "relawney"
      ],
      [
        "Ġa",
        "dded"
      ],
      [
        "Ġmo",
        "ving"
      ],
      [
        "Ġlo",
        "st"
      ],
      [
        "ru",
        "gg"
      ],
      [
        "Ġfing",
        "ers"
      ],
      [
        "Ġbur",
        "st"
      ],
      [
        "Ġs",
        "im"
      ],
      [
        "Ġf",
        "act"
      ],
      [
        "or",
        "k"
      ],
      [
        "Ġo",
        "dd"
      ],
      [
        "le",
        "ur"
      ],
      [
        "ac",
        "ing"
      ],
      [
        "ĠC",
        "ho"
      ],
      [
        "Ġe",
        "ither"
      ],
      [
        "te",
        "rest"
      ],
      [
        "a",
        "bb"
      ],
      [
        "t",
        "ail"
      ],
      [
        "c",
        "ase"
      ],
      [
        "Ġre",
        "p"
      ],
      [
        "Ġsh",
        "ut"
      ],
      [
        "Ġdement",
        "ors"
      ],
      [
        "A",
        "s"
      ],
      [
        "in",
        "ing"
      ],
      [
        "Ġd",
        "ou"
      ],
      [
        "Ġn",
        "umb"
      ],
      [
        "Ġfor",
        "g"
      ],
      [
        "am",
        "ing"
      ],
      [
        "Ġcomple",
        "te"
      ],
      [
        "on",
        "ks"
      ],
      [
        "ook",
        "ing"
      ],
      [
        "Ġsm",
        "ile"
      ],
      [
        "ove",
        "red"
      ],
      [
        "und",
        "red"
      ],
      [
        "Ġansw",
        "er"
      ],
      [
        "le",
        "t"
      ],
      [
        "ĠHe",
        "ad"
      ],
      [
        "Ġex",
        "actly"
      ],
      [
        "ĠK",
        "reacher"
      ],
      [
        "Ġd",
        "ied"
      ],
      [
        "Ġp",
        "are"
      ],
      [
        "ru",
        "x"
      ],
      [
        "orc",
        "rux"
      ],
      [
        "K",
        "now"
      ],
      [
        "Ġf",
        "ree"
      ],
      [
        "Ġexpe",
        "ct"
      ],
      [
        "b",
        "y"
      ],
      [
        "ĠH",
        "orcrux"
      ],
      [
        "rac",
        "o"
      ],
      [
        "Ġf",
        "ive"
      ],
      [
        "Ġin",
        "c"
      ],
      [
        "Ġin",
        "terest"
      ],
      [
        "and",
        "ed"
      ],
      [
        "Ġde",
        "ar"
      ],
      [
        "B",
        "e"
      ],
      [
        "Ġt",
        "ear"
      ],
      [
        "Ġd",
        "ream"
      ],
      [
        "ri",
        "ve"
      ],
      [
        "Ġr",
        "an"
      ],
      [
        "ĠB",
        "ag"
      ],
      [
        "Ġso",
        "on"
      ],
      [
        "Ġdiff",
        "ere"
      ],
      [
        "t",
        "om"
      ],
      [
        "ĠB",
        "e"
      ],
      [
        "u",
        "ally"
      ],
      [
        "Ġst",
        "re"
      ],
      [
        "Ġday",
        "s"
      ],
      [
        "A",
        "n"
      ],
      [
        "Ġb",
        "ene"
      ],
      [
        "Ġthem",
        "selves"
      ],
      [
        "ĠG",
        "reat"
      ],
      [
        "rabb",
        "e"
      ],
      [
        "b",
        "r"
      ],
      [
        "Ġt",
        "iny"
      ],
      [
        "ou",
        "n"
      ],
      [
        "Ġh",
        "undred"
      ],
      [
        "Ġc",
        "up"
      ],
      [
        "ĠB",
        "ell"
      ],
      [
        "Ġpre",
        "s"
      ],
      [
        "ĠG",
        "oyle"
      ],
      [
        "Ġde",
        "ath"
      ],
      [
        "Ġsna",
        "ke"
      ],
      [
        "c",
        "ent"
      ],
      [
        "p",
        "ing"
      ],
      [
        "in",
        "t"
      ],
      [
        "Ġyou",
        "ng"
      ],
      [
        "ic",
        "ally"
      ],
      [
        "ĠL",
        "ockhart"
      ],
      [
        "Ġwait",
        "ing"
      ],
      [
        "Ġreturn",
        "ed"
      ],
      [
        "Ġsle",
        "ep"
      ],
      [
        "Ġst",
        "air"
      ],
      [
        "Ġsh",
        "ook"
      ],
      [
        "Ġkn",
        "ock"
      ],
      [
        "Ġsp",
        "oke"
      ],
      [
        "ie",
        "ld"
      ],
      [
        "Ġpl",
        "an"
      ],
      [
        "ang",
        "ed"
      ],
      [
        "ĠK",
        "rum"
      ],
      [
        "Ġport",
        "rait"
      ],
      [
        "ing",
        "ing"
      ],
      [
        "Ġwit",
        "ch"
      ],
      [
        "ĠF",
        "ire"
      ],
      [
        "Ġsp",
        "r"
      ],
      [
        "Ġtr",
        "ain"
      ],
      [
        "Ġturn",
        "ing"
      ],
      [
        "Ġdro",
        "pped"
      ],
      [
        "A",
        "ll"
      ],
      [
        "Ġbe",
        "ll"
      ],
      [
        "Ġnot",
        "iced"
      ],
      [
        "Ġne",
        "arly"
      ],
      [
        "Ġab",
        "ove"
      ],
      [
        "nt",
        "ly"
      ],
      [
        "Ġpare",
        "nts"
      ],
      [
        "Ġsh",
        "ar"
      ],
      [
        "ĠO",
        "r"
      ],
      [
        "a",
        "ff"
      ],
      [
        "Ġt",
        "ou"
      ],
      [
        "Ġgo",
        "bl"
      ],
      [
        "Ġle",
        "ast"
      ],
      [
        "ĠTh",
        "is"
      ],
      [
        "Ġsh",
        "all"
      ],
      [
        "Ġag",
        "o"
      ],
      [
        "Ġno",
        "ise"
      ],
      [
        "Ġal",
        "so"
      ],
      [
        "ive",
        "ly"
      ],
      [
        "ĠDursley",
        "s"
      ],
      [
        "Ġw",
        "ide"
      ],
      [
        "Ġr",
        "un"
      ],
      [
        "ĠT",
        "onks"
      ],
      [
        "inn",
        "ing"
      ],
      [
        "st",
        "airs"
      ],
      [
        "ĠP",
        "r"
      ],
      [
        "Ġt",
        "imes"
      ],
      [
        "Ġl",
        "ying"
      ],
      [
        "Ġdark",
        "ness"
      ],
      [
        "Ġgold",
        "en"
      ],
      [
        "Ġbene",
        "ath"
      ],
      [
        "Ġg",
        "as"
      ],
      [
        "Ġst",
        "airs"
      ],
      [
        "Ġst",
        "eps"
      ],
      [
        "um",
        "ped"
      ],
      [
        "ĠF",
        "leur"
      ],
      [
        "a",
        "x"
      ],
      [
        "e",
        "ak"
      ],
      [
        "Ġp",
        "ur"
      ],
      [
        "Ġcl",
        "ut"
      ],
      [
        "ĠCh",
        "arm"
      ],
      [
        "Ġfore",
        "st"
      ],
      [
        "Ġt",
        "ri"
      ],
      [
        "Ġb",
        "urn"
      ],
      [
        "Ġex",
        "cept"
      ],
      [
        "E",
        "r"
      ],
      [
        "M",
        "y"
      ],
      [
        "m",
        "as"
      ],
      [
        "w",
        "o"
      ],
      [
        "Ġ",
        "round"
      ],
      [
        "in",
        "ation"
      ],
      [
        "Ġent",
        "ered"
      ],
      [
        "N",
        "ow"
      ],
      [
        "Ġs",
        "us"
      ],
      [
        "Ġf",
        "a"
      ],
      [
        "et",
        "s"
      ],
      [
        "ro",
        "ll"
      ],
      [
        "up",
        "id"
      ],
      [
        "Ġapp",
        "ro"
      ],
      [
        "Ġche",
        "ck"
      ],
      [
        "Ġhur",
        "t"
      ],
      [
        "is",
        "ing"
      ],
      [
        "Ġc",
        "arry"
      ],
      [
        "Ġe",
        "ars"
      ],
      [
        "ut",
        "h"
      ],
      [
        "Ġre",
        "g"
      ],
      [
        "ck",
        "on"
      ],
      [
        "are",
        "ly"
      ],
      [
        "Ġdoor",
        "s"
      ],
      [
        "as",
        "on"
      ],
      [
        "ĠIn",
        "vis"
      ],
      [
        "Ġfin",
        "ished"
      ],
      [
        "âĢľâĢ",
        "Ķ"
      ],
      [
        "Ġfle",
        "w"
      ],
      [
        "ĠBag",
        "man"
      ],
      [
        "w",
        "ig"
      ],
      [
        "Ġw",
        "om"
      ],
      [
        "re",
        "n"
      ],
      [
        "ĠD",
        "raco"
      ],
      [
        "Ġso",
        "ft"
      ],
      [
        "art",
        "ment"
      ],
      [
        "ap",
        "t"
      ],
      [
        "Ġche",
        "st"
      ],
      [
        "Ġlea",
        "ving"
      ],
      [
        "Ġce",
        "iling"
      ],
      [
        "ĠInvis",
        "ibility"
      ],
      [
        "c",
        "es"
      ],
      [
        "r",
        "ist"
      ],
      [
        "ou",
        "nt"
      ],
      [
        "Ġn",
        "erv"
      ],
      [
        "Ġe",
        "v"
      ],
      [
        "ro",
        "d"
      ],
      [
        "ent",
        "y"
      ],
      [
        "st",
        "er"
      ],
      [
        "Ġwho",
        "se"
      ],
      [
        "ab",
        "in"
      ],
      [
        "Ġground",
        "s"
      ],
      [
        "Ġfriend",
        "s"
      ],
      [
        "a",
        "ld"
      ],
      [
        "Ġc",
        "ase"
      ],
      [
        "Ġe",
        "ar"
      ],
      [
        "am",
        "ed"
      ],
      [
        "Ġsh",
        "ock"
      ],
      [
        "Ġne",
        "are"
      ],
      [
        "ĠC",
        "rabbe"
      ],
      [
        "Ġwr",
        "it"
      ],
      [
        "Ġple",
        "ase"
      ],
      [
        "Ġquest",
        "ion"
      ],
      [
        "Ġt",
        "on"
      ],
      [
        "Ġo",
        "pp"
      ],
      [
        "ĠF",
        "or"
      ],
      [
        "Ġsp",
        "l"
      ],
      [
        "ĠO",
        "n"
      ],
      [
        "Ġtrou",
        "ble"
      ],
      [
        "rist",
        "mas"
      ],
      [
        "ed",
        "wig"
      ],
      [
        "Ġc",
        "oll"
      ],
      [
        "Ġth",
        "rew"
      ],
      [
        "ĠP",
        "ro"
      ],
      [
        "Ġreal",
        "ized"
      ],
      [
        "Ġd",
        "raw"
      ],
      [
        "Ġm",
        "id"
      ],
      [
        "ress",
        "ed"
      ],
      [
        "Ġstair",
        "case"
      ],
      [
        "an",
        "ed"
      ],
      [
        "Ġst",
        "upid"
      ],
      [
        "Ġre",
        "pe"
      ],
      [
        "Ġman",
        "aged"
      ],
      [
        "Ġpr",
        "act"
      ],
      [
        "Ġarri",
        "ved"
      ],
      [
        "C",
        "ome"
      ],
      [
        "v",
        "o"
      ],
      [
        "Ġc",
        "ross"
      ],
      [
        "ĠN",
        "o"
      ],
      [
        "Ġcle",
        "ar"
      ],
      [
        "S",
        "t"
      ],
      [
        "Ġs",
        "ix"
      ],
      [
        "ri",
        "ly"
      ],
      [
        "ak",
        "es"
      ],
      [
        "Ġleg",
        "s"
      ],
      [
        "e",
        "ed"
      ],
      [
        "Ġ",
        "esc"
      ],
      [
        "at",
        "ri"
      ],
      [
        "ĠCh",
        "ristmas"
      ],
      [
        "Ġgi",
        "ant"
      ],
      [
        "Ġa",
        "p"
      ],
      [
        "Ġch",
        "ance"
      ],
      [
        "atri",
        "x"
      ],
      [
        "st",
        "ick"
      ],
      [
        "ĠDe",
        "an"
      ],
      [
        "rif",
        "ied"
      ],
      [
        "Ġt",
        "ent"
      ],
      [
        "Ġin",
        "t"
      ],
      [
        "Ġen",
        "orm"
      ],
      [
        "Ġmagic",
        "al"
      ],
      [
        "bo",
        "ard"
      ],
      [
        "C",
        "hap"
      ],
      [
        "G",
        "ood"
      ],
      [
        "Ġm",
        "ad"
      ],
      [
        "ag",
        "es"
      ],
      [
        "Ġlook",
        "s"
      ],
      [
        "Ġr",
        "unning"
      ],
      [
        "Ġimp",
        "ort"
      ],
      [
        "Ġpot",
        "ion"
      ],
      [
        "Chap",
        "ter"
      ],
      [
        "E",
        "R"
      ],
      [
        "S",
        "nape"
      ],
      [
        "u",
        "c"
      ],
      [
        "ap",
        "er"
      ],
      [
        "Ġgl",
        "anced"
      ],
      [
        "orm",
        "tail"
      ],
      [
        "Ġbec",
        "ame"
      ],
      [
        "o",
        "ff"
      ],
      [
        "is",
        "hing"
      ],
      [
        "Ġe",
        "as"
      ],
      [
        "ie",
        "f"
      ],
      [
        "Ġcl",
        "imb"
      ],
      [
        "Ġwall",
        "s"
      ],
      [
        "us",
        "h"
      ],
      [
        "ill",
        "ed"
      ],
      [
        "Ġno",
        "body"
      ],
      [
        "Ġatt",
        "ack"
      ],
      [
        "Ġvan",
        "ished"
      ],
      [
        "O",
        "U"
      ],
      [
        "g",
        "er"
      ],
      [
        "Ġc",
        "reat"
      ],
      [
        "Ġe",
        "ff"
      ],
      [
        "ĠN",
        "ow"
      ],
      [
        "Ġlong",
        "er"
      ],
      [
        "Ġeven",
        "ing"
      ],
      [
        "Ġwindow",
        "s"
      ],
      [
        "Ġglass",
        "es"
      ],
      [
        "Ġexp",
        "ression"
      ],
      [
        "m",
        "ly"
      ],
      [
        "u",
        "g"
      ],
      [
        "Ġw",
        "arn"
      ],
      [
        "Ġp",
        "ict"
      ],
      [
        "us",
        "ed"
      ],
      [
        "ri",
        "ll"
      ],
      [
        "ĠW",
        "izard"
      ],
      [
        "Ġsay",
        "s"
      ],
      [
        "Ġem",
        "er"
      ],
      [
        "t",
        "he"
      ],
      [
        "ing",
        "ly"
      ],
      [
        "ol",
        "t"
      ],
      [
        "Ġmat",
        "ch"
      ],
      [
        "Ġwom",
        "an"
      ],
      [
        "Ġ",
        "er"
      ],
      [
        "Ġc",
        "ertain"
      ],
      [
        "as",
        "k"
      ],
      [
        "Ġwith",
        "in"
      ],
      [
        "Ġwor",
        "ld"
      ],
      [
        "Ġtr",
        "unk"
      ],
      [
        "Ġpre",
        "ss"
      ],
      [
        "Ġforg",
        "ot"
      ],
      [
        "W",
        "hen"
      ],
      [
        "W",
        "here"
      ],
      [
        "w",
        "ork"
      ],
      [
        "Ġs",
        "on"
      ],
      [
        "Ġo",
        "cc"
      ],
      [
        "Ġc",
        "ent"
      ],
      [
        "Ġkn",
        "own"
      ],
      [
        "Ġper",
        "haps"
      ],
      [
        "Ġdrag",
        "on"
      ],
      [
        "Ġenorm",
        "ous"
      ],
      [
        "Ġp",
        "ie"
      ],
      [
        "Ġin",
        "form"
      ],
      [
        "ĠR",
        "e"
      ],
      [
        "Ġse",
        "ized"
      ],
      [
        "ĠT",
        "hat"
      ],
      [
        "ie",
        "w"
      ],
      [
        "Ġsw",
        "ord"
      ],
      [
        "in",
        "ted"
      ],
      [
        "Ġh",
        "op"
      ],
      [
        "Ġf",
        "if"
      ],
      [
        "id",
        "ent"
      ],
      [
        "Ġme",
        "ant"
      ],
      [
        "Ġsaf",
        "e"
      ],
      [
        "Ġth",
        "r"
      ],
      [
        "Ġwal",
        "king"
      ],
      [
        "Ġnumb",
        "er"
      ],
      [
        "b",
        "ably"
      ],
      [
        "l",
        "in"
      ],
      [
        "r",
        "up"
      ],
      [
        "s",
        "er"
      ],
      [
        "Ġre",
        "ady"
      ],
      [
        "l",
        "ooking"
      ],
      [
        "ĠH",
        "edwig"
      ],
      [
        "Ġl",
        "uck"
      ],
      [
        "Ġch",
        "o"
      ],
      [
        "og",
        "n"
      ],
      [
        "ect",
        "ion"
      ],
      [
        "Ġpull",
        "ing"
      ],
      [
        "ĠPro",
        "phe"
      ],
      [
        "k",
        "es"
      ],
      [
        "Ġs",
        "un"
      ],
      [
        "Ġb",
        "ar"
      ],
      [
        "Ġher",
        "self"
      ],
      [
        "Ġle",
        "ad"
      ],
      [
        "Ġknow",
        "s"
      ],
      [
        "Ġfin",
        "ally"
      ],
      [
        "I",
        "n"
      ],
      [
        "Ġth",
        "in"
      ],
      [
        "al",
        "s"
      ],
      [
        "Ġsh",
        "ad"
      ],
      [
        "Ġang",
        "ry"
      ],
      [
        "ĠH",
        "ouse"
      ],
      [
        "st",
        "r"
      ],
      [
        "Ġ",
        "ve"
      ],
      [
        "Ġ",
        "ign"
      ],
      [
        "Ġs",
        "umm"
      ],
      [
        "Ġc",
        "ir"
      ],
      [
        "Ġha",
        "ng"
      ],
      [
        "Ġas",
        "s"
      ],
      [
        "pe",
        "ct"
      ],
      [
        "ink",
        "ing"
      ],
      [
        "ation",
        "s"
      ],
      [
        "Ġbel",
        "ow"
      ],
      [
        "Ġang",
        "rily"
      ],
      [
        "Ġw",
        "ood"
      ],
      [
        "Ġe",
        "lf"
      ],
      [
        "ĠS",
        "o"
      ],
      [
        "am",
        "us"
      ],
      [
        "Ġhapp",
        "y"
      ],
      [
        "Ġton",
        "ight"
      ],
      [
        "b",
        "us"
      ],
      [
        "re",
        "ly"
      ],
      [
        "ic",
        "es"
      ],
      [
        "ain",
        "ing"
      ],
      [
        "Ġremem",
        "b"
      ],
      [
        "Ġbro",
        "ke"
      ],
      [
        "Ġbro",
        "ken"
      ],
      [
        "E",
        "x"
      ],
      [
        "Ġo",
        "kay"
      ],
      [
        "rou",
        "ght"
      ],
      [
        "ĠA",
        "t"
      ],
      [
        "Ġwand",
        "s"
      ],
      [
        "Ġsm",
        "iling"
      ],
      [
        "Ġkill",
        "ed"
      ],
      [
        "Ġlist",
        "ening"
      ],
      [
        "ĠBell",
        "atrix"
      ],
      [
        "nd",
        "ing"
      ],
      [
        "Ġf",
        "ig"
      ],
      [
        "an",
        "ing"
      ],
      [
        "Ġhead",
        "s"
      ],
      [
        "Ġtr",
        "ue"
      ],
      [
        "unn",
        "y"
      ],
      [
        "ĠAr",
        "ts"
      ],
      [
        "Ġrec",
        "ogn"
      ],
      [
        "Ġwee",
        "k"
      ],
      [
        "Ġfly",
        "ing"
      ],
      [
        "k",
        "ab"
      ],
      [
        "r",
        "im"
      ],
      [
        "z",
        "kab"
      ],
      [
        "Ġin",
        "v"
      ],
      [
        "Ġcle",
        "arly"
      ],
      [
        "Ġjo",
        "b"
      ],
      [
        "Ġinst",
        "ead"
      ],
      [
        "Ġcomplete",
        "ly"
      ],
      [
        "zkab",
        "an"
      ],
      [
        "o",
        "om"
      ],
      [
        "re",
        "ll"
      ],
      [
        "Ġb",
        "at"
      ],
      [
        "Ġc",
        "ut"
      ],
      [
        "Ġth",
        "ro"
      ],
      [
        "Ġp",
        "ale"
      ],
      [
        "ch",
        "o"
      ],
      [
        "are",
        "ntly"
      ],
      [
        "Ġfl",
        "at"
      ],
      [
        "Ġsecond",
        "s"
      ],
      [
        "Ġvis",
        "it"
      ],
      [
        "D",
        "id"
      ],
      [
        "ĠW",
        "ormtail"
      ],
      [
        "ink",
        "y"
      ],
      [
        "ick",
        "ing"
      ],
      [
        "Ġsupp",
        "ose"
      ],
      [
        "Ġless",
        "on"
      ],
      [
        "cl",
        "aw"
      ],
      [
        "aven",
        "claw"
      ],
      [
        "L",
        "ook"
      ],
      [
        "g",
        "ain"
      ],
      [
        "t",
        "ly"
      ],
      [
        "u",
        "b"
      ],
      [
        "Ġe",
        "gg"
      ],
      [
        "al",
        "ed"
      ],
      [
        "ĠA",
        "zkaban"
      ],
      [
        "Ġno",
        "dded"
      ],
      [
        "Ġany",
        "way"
      ],
      [
        "Ġmem",
        "ory"
      ],
      [
        "m",
        "it"
      ],
      [
        "is",
        "k"
      ],
      [
        "is",
        "on"
      ],
      [
        "Ġre",
        "ason"
      ],
      [
        "Ġback",
        "ward"
      ],
      [
        "inn",
        "er"
      ],
      [
        "Ġbr",
        "other"
      ],
      [
        "Ġtre",
        "es"
      ],
      [
        "ĠSn",
        "itch"
      ],
      [
        "ĠProphe",
        "t"
      ],
      [
        "c",
        "ause"
      ],
      [
        "n",
        "ot"
      ],
      [
        "Ġ",
        "z"
      ],
      [
        "ou",
        "l"
      ],
      [
        "Ġb",
        "arely"
      ],
      [
        "Ġth",
        "row"
      ],
      [
        "Ġe",
        "cho"
      ],
      [
        "ĠE",
        "very"
      ],
      [
        "Ġdis",
        "c"
      ],
      [
        "Ġmon",
        "th"
      ],
      [
        "Ġrepe",
        "ated"
      ],
      [
        "Ġm",
        "iss"
      ],
      [
        "Ġm",
        "ention"
      ],
      [
        "Ġl",
        "ake"
      ],
      [
        "Ġst",
        "ret"
      ],
      [
        "Ġsh",
        "ow"
      ],
      [
        "Ġim",
        "ag"
      ],
      [
        "ĠJ",
        "ames"
      ],
      [
        "ĠMagic",
        "al"
      ],
      [
        "Ġ",
        "ought"
      ],
      [
        "ar",
        "row"
      ],
      [
        "Ġb",
        "all"
      ],
      [
        "Ġsk",
        "y"
      ],
      [
        "m",
        "aster"
      ],
      [
        "Ġ",
        "ill"
      ],
      [
        "Ġto",
        "r"
      ],
      [
        "Ġwh",
        "om"
      ],
      [
        "ĠS",
        "h"
      ],
      [
        "ĠR",
        "avenclaw"
      ],
      [
        "ĠW",
        "ell"
      ],
      [
        "g",
        "hed"
      ],
      [
        "i",
        "ke"
      ],
      [
        "id",
        "er"
      ],
      [
        "Ġl",
        "ed"
      ],
      [
        "Ġre",
        "ckon"
      ],
      [
        "ĠE",
        "ater"
      ],
      [
        "Ġh",
        "idden"
      ],
      [
        "Ġg",
        "le"
      ],
      [
        "Ġst",
        "ory"
      ],
      [
        "Ġfor",
        "ced"
      ],
      [
        "Ġsh",
        "ot"
      ],
      [
        "ain",
        "s"
      ],
      [
        "Ġle",
        "arn"
      ],
      [
        "Ġsc",
        "r"
      ],
      [
        "Ġstr",
        "ange"
      ],
      [
        "ĠSe",
        "amus"
      ],
      [
        "Ġtear",
        "s"
      ],
      [
        "Ġa",
        "head"
      ],
      [
        "Ġc",
        "al"
      ],
      [
        "un",
        "ch"
      ],
      [
        "Ġbo",
        "x"
      ],
      [
        "Ġhour",
        "s"
      ],
      [
        "auld",
        "ron"
      ],
      [
        "Ġdou",
        "b"
      ],
      [
        "w",
        "h"
      ],
      [
        "y",
        "e"
      ],
      [
        "in",
        "ess"
      ],
      [
        "or",
        "row"
      ],
      [
        "ĠW",
        "ood"
      ],
      [
        "Ġcon",
        "s"
      ],
      [
        "Ġhapp",
        "en"
      ],
      [
        "Ġgi",
        "ving"
      ],
      [
        "ĠMugg",
        "les"
      ],
      [
        "Ġhor",
        "rible"
      ],
      [
        "Ġb",
        "ig"
      ],
      [
        "ĠH",
        "er"
      ],
      [
        "or",
        "ted"
      ],
      [
        "Ġd",
        "orm"
      ],
      [
        "Ġm",
        "iddle"
      ],
      [
        "Ġp",
        "air"
      ],
      [
        "im",
        "m"
      ],
      [
        "Ġr",
        "at"
      ],
      [
        "Ġqu",
        "ill"
      ],
      [
        "Ġimport",
        "ant"
      ],
      [
        "r",
        "ook"
      ],
      [
        "Ġw",
        "ing"
      ],
      [
        "Ġc",
        "abin"
      ],
      [
        "Ġm",
        "ir"
      ],
      [
        "Ġfe",
        "ar"
      ],
      [
        "Ġbl",
        "ank"
      ],
      [
        "Ġste",
        "pped"
      ],
      [
        "Ġsna",
        "pped"
      ],
      [
        "Ġdiffere",
        "nt"
      ],
      [
        "Ġ",
        "ir"
      ],
      [
        "Ġb",
        "ow"
      ],
      [
        "Ġf",
        "re"
      ],
      [
        "at",
        "es"
      ],
      [
        "is",
        "ted"
      ],
      [
        "it",
        "ion"
      ],
      [
        "Ġan",
        "x"
      ],
      [
        "ĠE",
        "r"
      ],
      [
        "sh",
        "anks"
      ],
      [
        "rook",
        "shanks"
      ],
      [
        "ar",
        "off"
      ],
      [
        "Ġth",
        "ird"
      ],
      [
        "an",
        "e"
      ],
      [
        "ark",
        "aroff"
      ],
      [
        "J",
        "ust"
      ],
      [
        "O",
        "n"
      ],
      [
        "Ġc",
        "op"
      ],
      [
        "Ġg",
        "ri"
      ],
      [
        "an",
        "cing"
      ],
      [
        "om",
        "f"
      ],
      [
        "Ġe",
        "ag"
      ],
      [
        "ap",
        "ed"
      ],
      [
        "less",
        "ly"
      ],
      [
        "ee",
        "ves"
      ],
      [
        "Ġdorm",
        "it"
      ],
      [
        "i",
        "al"
      ],
      [
        "Ġs",
        "ing"
      ],
      [
        "Ġh",
        "um"
      ],
      [
        "Ġb",
        "rought"
      ],
      [
        "it",
        "a"
      ],
      [
        "Ġl",
        "ate"
      ],
      [
        "Ġst",
        "rugg"
      ],
      [
        "ĠP",
        "ar"
      ],
      [
        "Ġbl",
        "ue"
      ],
      [
        "Ġtr",
        "uth"
      ],
      [
        "Ġpoin",
        "ts"
      ],
      [
        "at",
        "ur"
      ],
      [
        "Ġp",
        "ushed"
      ],
      [
        "ver",
        "ing"
      ],
      [
        "uff",
        "le"
      ],
      [
        "Ġdes",
        "er"
      ],
      [
        "Ġposs",
        "ible"
      ],
      [
        "a",
        "pe"
      ],
      [
        "Ġf",
        "right"
      ],
      [
        "ĠP",
        "omf"
      ],
      [
        "Ġpro",
        "bably"
      ],
      [
        "ĠPomf",
        "rey"
      ],
      [
        "O",
        "f"
      ],
      [
        "t",
        "a"
      ],
      [
        "Ġst",
        "om"
      ],
      [
        "Ġtr",
        "ans"
      ],
      [
        "Ġgr",
        "ay"
      ],
      [
        "Ġsil",
        "ent"
      ],
      [
        "Ġdes",
        "per"
      ],
      [
        "ĠOr",
        "der"
      ],
      [
        "Ġcarry",
        "ing"
      ],
      [
        "Ġsumm",
        "er"
      ],
      [
        "i",
        "pp"
      ],
      [
        "m",
        "ore"
      ],
      [
        "Ġd",
        "uring"
      ],
      [
        "Ġro",
        "se"
      ],
      [
        "Ġyour",
        "self"
      ],
      [
        "bb",
        "ing"
      ],
      [
        "Ġhard",
        "ly"
      ],
      [
        "Ġsound",
        "ed"
      ],
      [
        "ix",
        "ed"
      ],
      [
        "Ġexc",
        "ited"
      ],
      [
        "Ġdanger",
        "ous"
      ],
      [
        "A",
        "t"
      ],
      [
        "I",
        "N"
      ],
      [
        "L",
        "et"
      ],
      [
        "r",
        "it"
      ],
      [
        "Ġh",
        "ast"
      ],
      [
        "Ġf",
        "ine"
      ],
      [
        "Ġf",
        "aces"
      ],
      [
        "ic",
        "ult"
      ],
      [
        "ĠM",
        "ar"
      ],
      [
        "Ġsh",
        "rie"
      ],
      [
        "Ġsu",
        "gg"
      ],
      [
        "Ġch",
        "amp"
      ],
      [
        "te",
        "en"
      ],
      [
        "Ġbot",
        "tle"
      ],
      [
        "Ġlau",
        "ghed"
      ],
      [
        "Ġwond",
        "er"
      ],
      [
        "ĠAl",
        "bus"
      ],
      [
        "Ġa",
        "dd"
      ],
      [
        "nd",
        "ed"
      ],
      [
        "Ġf",
        "ro"
      ],
      [
        "ĠS",
        "ever"
      ],
      [
        "ter",
        "s"
      ],
      [
        "ul",
        "ar"
      ],
      [
        "Ġpre",
        "tend"
      ],
      [
        "Ġapp",
        "ear"
      ],
      [
        "Ġob",
        "ject"
      ],
      [
        "A",
        "h"
      ],
      [
        "g",
        "y"
      ],
      [
        "Ġc",
        "ried"
      ],
      [
        "Ġm",
        "aster"
      ],
      [
        "Ġg",
        "lo"
      ],
      [
        "ĠA",
        "gain"
      ],
      [
        "Ġro",
        "ared"
      ],
      [
        "Ġexpe",
        "cted"
      ],
      [
        "Ġob",
        "v"
      ],
      [
        "Ġed",
        "ge"
      ],
      [
        "s",
        "me"
      ],
      [
        "ght",
        "er"
      ],
      [
        "ĠO",
        "ne"
      ],
      [
        "th",
        "ur"
      ],
      [
        "Ġnew",
        "s"
      ],
      [
        "Ġlau",
        "ghter"
      ],
      [
        "Ġdiff",
        "icult"
      ],
      [
        "Ġcou",
        "ple"
      ],
      [
        "Ġgobl",
        "in"
      ],
      [
        "Ġp",
        "icked"
      ],
      [
        "ĠP",
        "at"
      ],
      [
        "Ġj",
        "umped"
      ],
      [
        "ĠC",
        "up"
      ],
      [
        "Ġwor",
        "se"
      ],
      [
        "Ġple",
        "ased"
      ],
      [
        "sme",
        "ade"
      ],
      [
        "Ġd",
        "rew"
      ],
      [
        "The",
        "n"
      ],
      [
        "pe",
        "ll"
      ],
      [
        "ge",
        "our"
      ],
      [
        "Ġare",
        "n"
      ],
      [
        "Ġclo",
        "ser"
      ],
      [
        "ĠDe",
        "f"
      ],
      [
        "Ġpart",
        "icul"
      ],
      [
        "med",
        "i"
      ],
      [
        "rim",
        "geour"
      ],
      [
        "uffle",
        "p"
      ],
      [
        "A",
        "re"
      ],
      [
        "F",
        "or"
      ],
      [
        "Ġh",
        "ung"
      ],
      [
        "Ġc",
        "overed"
      ],
      [
        "Ġp",
        "un"
      ],
      [
        "Ġfor",
        "m"
      ],
      [
        "am",
        "ent"
      ],
      [
        "ĠC",
        "rookshanks"
      ],
      [
        "Ġgirl",
        "s"
      ],
      [
        "Ġheav",
        "y"
      ],
      [
        "b",
        "olt"
      ],
      [
        "Ġt",
        "em"
      ],
      [
        "Ġw",
        "ild"
      ],
      [
        "it",
        "al"
      ],
      [
        "ĠH",
        "ufflep"
      ],
      [
        "or",
        "ing"
      ],
      [
        "Ġy",
        "eah"
      ],
      [
        "ac",
        "hing"
      ],
      [
        "ĠHog",
        "smeade"
      ],
      [
        "Ġstre",
        "et"
      ],
      [
        "a",
        "pped"
      ],
      [
        "u",
        "ge"
      ],
      [
        "Ġt",
        "ree"
      ],
      [
        "Ġs",
        "ister"
      ],
      [
        "Ġf",
        "unny"
      ],
      [
        "Ġc",
        "ol"
      ],
      [
        "Ġn",
        "orm"
      ],
      [
        "us",
        "hing"
      ],
      [
        "ro",
        "l"
      ],
      [
        "Ġstom",
        "ach"
      ],
      [
        "f",
        "ast"
      ],
      [
        "re",
        "me"
      ],
      [
        "Ġb",
        "as"
      ],
      [
        "or",
        "ies"
      ],
      [
        "et",
        "er"
      ],
      [
        "Ġnot",
        "e"
      ],
      [
        "ĠA",
        "pp"
      ],
      [
        "if",
        "e"
      ],
      [
        "ort",
        "h"
      ],
      [
        "ĠE",
        "x"
      ],
      [
        "ho",
        "st"
      ],
      [
        "Ġind",
        "eed"
      ],
      [
        "Ġsub",
        "ject"
      ],
      [
        "uc",
        "ius"
      ],
      [
        "ĠHufflep",
        "uff"
      ],
      [
        "Ġt",
        "ight"
      ],
      [
        "Ġf",
        "ield"
      ],
      [
        "Ġd",
        "inner"
      ],
      [
        "ĠD",
        "igg"
      ],
      [
        "Ġpo",
        "sit"
      ],
      [
        "Ġor",
        "d"
      ],
      [
        "Ġwond",
        "ered"
      ],
      [
        "Ġsim",
        "ply"
      ],
      [
        "Ġap",
        "art"
      ],
      [
        "Ġg",
        "rou"
      ],
      [
        "Ġn",
        "or"
      ],
      [
        "Ġme",
        "rely"
      ],
      [
        "Ġgr",
        "ow"
      ],
      [
        "Ġim",
        "medi"
      ],
      [
        "Ġte",
        "a"
      ],
      [
        "Ġper",
        "fect"
      ],
      [
        "av",
        "or"
      ],
      [
        "Ġthro",
        "at"
      ],
      [
        "I",
        "s"
      ],
      [
        "Ġp",
        "h"
      ],
      [
        "Ġg",
        "host"
      ],
      [
        "ay",
        "be"
      ],
      [
        "Ġfr",
        "own"
      ],
      [
        "our",
        "n"
      ],
      [
        "ĠT",
        "r"
      ],
      [
        "Ġwant",
        "s"
      ],
      [
        "Ġlaugh",
        "ing"
      ],
      [
        "a",
        "ut"
      ],
      [
        "Ġm",
        "ark"
      ],
      [
        "ot",
        "h"
      ],
      [
        "et",
        "h"
      ],
      [
        "am",
        "ber"
      ],
      [
        "ge",
        "on"
      ],
      [
        "ck",
        "ed"
      ],
      [
        "Ġal",
        "ive"
      ],
      [
        "Ġsl",
        "id"
      ],
      [
        "Ġmy",
        "self"
      ],
      [
        "Ġlo",
        "ve"
      ],
      [
        "bl",
        "ood"
      ],
      [
        "Ġcare",
        "fully"
      ],
      [
        "Ġscream",
        "ed"
      ],
      [
        "Ġgas",
        "ped"
      ],
      [
        "i",
        "ar"
      ],
      [
        "w",
        "ick"
      ],
      [
        "Ġa",
        "vo"
      ],
      [
        "Ġm",
        "ess"
      ],
      [
        "om",
        "ing"
      ],
      [
        "Ġas",
        "ide"
      ],
      [
        "ri",
        "ph"
      ],
      [
        "ep",
        "t"
      ],
      [
        "Ġhead",
        "master"
      ],
      [
        "ĠK",
        "arkaroff"
      ],
      [
        "Ġwal",
        "k"
      ],
      [
        "Ġjo",
        "ined"
      ],
      [
        "Ġact",
        "ually"
      ],
      [
        "riph",
        "ook"
      ],
      [
        "b",
        "s"
      ],
      [
        "e",
        "ep"
      ],
      [
        "Ġt",
        "ra"
      ],
      [
        "Ġb",
        "ath"
      ],
      [
        "Ġf",
        "er"
      ],
      [
        "Ġd",
        "ad"
      ],
      [
        "Ġd",
        "are"
      ],
      [
        "Ġn",
        "arrow"
      ],
      [
        "ĠW",
        "hy"
      ],
      [
        "Ġle",
        "apt"
      ],
      [
        "Ġch",
        "ild"
      ],
      [
        "ave",
        "nder"
      ],
      [
        "Ġho",
        "le"
      ],
      [
        "Ġtre",
        "mb"
      ],
      [
        "Ġstart",
        "ing"
      ],
      [
        "Ġgu",
        "ard"
      ],
      [
        "a",
        "ily"
      ],
      [
        "f",
        "ace"
      ],
      [
        "it",
        "wick"
      ],
      [
        "ĠN",
        "ot"
      ],
      [
        "Ġwor",
        "ry"
      ],
      [
        "ment",
        "s"
      ],
      [
        "Ġapp",
        "arently"
      ],
      [
        "Ġrem",
        "ained"
      ],
      [
        "ung",
        "us"
      ],
      [
        "Ġfam",
        "il"
      ],
      [
        "Ġbroom",
        "stick"
      ],
      [
        "Ġattem",
        "p"
      ],
      [
        "S",
        "h"
      ],
      [
        "a",
        "id"
      ],
      [
        "Ġt",
        "ip"
      ],
      [
        "Ġd",
        "em"
      ],
      [
        "Ġn",
        "ice"
      ],
      [
        "ĠS",
        "ke"
      ],
      [
        "am",
        "b"
      ],
      [
        "ĠP",
        "eeves"
      ],
      [
        "ble",
        "t"
      ],
      [
        "Ġab",
        "s"
      ],
      [
        "Ġsome",
        "body"
      ],
      [
        "Ġpr",
        "om"
      ],
      [
        "Ġneed",
        "ed"
      ],
      [
        "ĠGr",
        "anger"
      ],
      [
        "Ġcat",
        "ch"
      ],
      [
        "Ġbreak",
        "fast"
      ],
      [
        "Ġrememb",
        "ered"
      ],
      [
        "n",
        "ing"
      ],
      [
        "Ġb",
        "ent"
      ],
      [
        "Ġan",
        "n"
      ],
      [
        "Ġsh",
        "op"
      ],
      [
        "and",
        "ing"
      ],
      [
        "Ġwere",
        "n"
      ],
      [
        "aus",
        "ed"
      ],
      [
        "Ġter",
        "rible"
      ],
      [
        "Ġteacher",
        "s"
      ],
      [
        "ĠAgain",
        "st"
      ],
      [
        "B",
        "l"
      ],
      [
        "R",
        "ight"
      ],
      [
        "y",
        "ond"
      ],
      [
        "z",
        "en"
      ],
      [
        "Ġt",
        "ightly"
      ],
      [
        "on",
        "es"
      ],
      [
        "ot",
        "e"
      ],
      [
        "Ġbe",
        "yond"
      ],
      [
        "ay",
        "s"
      ],
      [
        "Ġdo",
        "g"
      ],
      [
        "Ġsm",
        "iled"
      ],
      [
        "Ġkne",
        "es"
      ],
      [
        "Ġbec",
        "ome"
      ],
      [
        "Ġdr",
        "ink"
      ],
      [
        "und",
        "ungus"
      ],
      [
        "Ġad",
        "v"
      ],
      [
        "Ġext",
        "reme"
      ],
      [
        "ĠFl",
        "itwick"
      ],
      [
        "Ġdirect",
        "ion"
      ],
      [
        "rod",
        "e"
      ],
      [
        "Ġclimb",
        "ed"
      ],
      [
        "A",
        "R"
      ],
      [
        "c",
        "ol"
      ],
      [
        "g",
        "es"
      ],
      [
        "j",
        "oy"
      ],
      [
        "Ġh",
        "uge"
      ],
      [
        "im",
        "p"
      ],
      [
        "Ġall",
        "owed"
      ],
      [
        "Ġv",
        "iew"
      ],
      [
        "Ġsome",
        "where"
      ],
      [
        "ĠPot",
        "ions"
      ],
      [
        "Ġstr",
        "ong"
      ],
      [
        "Ġsurpr",
        "ise"
      ],
      [
        "Ġopp",
        "os"
      ],
      [
        "Ġt",
        "all"
      ],
      [
        "Ġw",
        "ish"
      ],
      [
        "Ġc",
        "re"
      ],
      [
        "Ġsurpr",
        "ised"
      ],
      [
        "Ġpict",
        "ure"
      ],
      [
        "Ġa",
        "f"
      ],
      [
        "Ġto",
        "day"
      ],
      [
        "Ġd",
        "est"
      ],
      [
        "an",
        "y"
      ],
      [
        "Ġn",
        "one"
      ],
      [
        "ĠD",
        "aily"
      ],
      [
        "Ġfor",
        "get"
      ],
      [
        "am",
        "med"
      ],
      [
        "Ġse",
        "ar"
      ],
      [
        "Ġpo",
        "st"
      ],
      [
        "Ġwor",
        "king"
      ],
      [
        "Ġsl",
        "ipped"
      ],
      [
        "Ġbot",
        "tom"
      ],
      [
        "ĠSc",
        "rimgeour"
      ],
      [
        "abb",
        "ers"
      ],
      [
        "Ġshar",
        "ply"
      ],
      [
        "Ġclut",
        "ching"
      ],
      [
        "Ġinform",
        "ation"
      ],
      [
        "H",
        "is"
      ],
      [
        "l",
        "er"
      ],
      [
        "v",
        "ati"
      ],
      [
        "ar",
        "l"
      ],
      [
        "as",
        "hing"
      ],
      [
        "Ġp",
        "ink"
      ],
      [
        "Ġit",
        "self"
      ],
      [
        "Ġu",
        "na"
      ],
      [
        "ĠL",
        "ucius"
      ],
      [
        "Ġany",
        "more"
      ],
      [
        "el",
        "ing"
      ],
      [
        "Ġwor",
        "ried"
      ],
      [
        "Ġtw",
        "enty"
      ],
      [
        "Ġte",
        "eth"
      ],
      [
        "Ġpro",
        "per"
      ],
      [
        "Ġless",
        "ons"
      ],
      [
        "ĠSe",
        "c"
      ],
      [
        "Ġeag",
        "er"
      ],
      [
        "ĠDigg",
        "ory"
      ],
      [
        "Ġp",
        "aper"
      ],
      [
        "Ġst",
        "aff"
      ],
      [
        "ut",
        "e"
      ],
      [
        "ag",
        "g"
      ],
      [
        "ag",
        "ue"
      ],
      [
        "ite",
        "ly"
      ],
      [
        "Ġhas",
        "n"
      ],
      [
        "Ġcr",
        "ack"
      ],
      [
        "be",
        "ak"
      ],
      [
        "Ġboy",
        "s"
      ],
      [
        "Ġclass",
        "room"
      ],
      [
        "Ġfore",
        "head"
      ],
      [
        "Ġdec",
        "ided"
      ],
      [
        "ĠSke",
        "eter"
      ],
      [
        "Ġ",
        "âĢĿ"
      ],
      [
        "Ġt",
        "ail"
      ],
      [
        "Ġs",
        "ense"
      ],
      [
        "Ġh",
        "ot"
      ],
      [
        "ic",
        "al"
      ],
      [
        "ur",
        "se"
      ],
      [
        "Ġup",
        "stairs"
      ],
      [
        "ra",
        "id"
      ],
      [
        "ear",
        "ly"
      ],
      [
        "Ġhapp",
        "ily"
      ],
      [
        "Ġsn",
        "ow"
      ],
      [
        "uck",
        "beak"
      ],
      [
        "Ġsur",
        "round"
      ],
      [
        "sp",
        "ital"
      ],
      [
        "ĠDef",
        "ense"
      ],
      [
        "k",
        "in"
      ],
      [
        "z",
        "ing"
      ],
      [
        "Ġh",
        "ol"
      ],
      [
        "Ġd",
        "ust"
      ],
      [
        "ĠR",
        "ita"
      ],
      [
        "Ġli",
        "ving"
      ],
      [
        "Ġho",
        "spital"
      ],
      [
        "Ġatt",
        "ention"
      ],
      [
        "Ġext",
        "ra"
      ],
      [
        "Ġattem",
        "pt"
      ],
      [
        "Ġforgot",
        "ten"
      ],
      [
        "Ġoppos",
        "ite"
      ],
      [
        "E",
        "ye"
      ],
      [
        "in",
        "x"
      ],
      [
        "Ġb",
        "ang"
      ],
      [
        "Ġf",
        "ain"
      ],
      [
        "as",
        "ure"
      ],
      [
        "Ġd",
        "un"
      ],
      [
        "Ġso",
        "l"
      ],
      [
        "Ġpo",
        "l"
      ],
      [
        "Ġcon",
        "vers"
      ],
      [
        "Ġsee",
        "ing"
      ],
      [
        "O",
        "R"
      ],
      [
        "V",
        "ery"
      ],
      [
        "e",
        "lf"
      ],
      [
        "h",
        "a"
      ],
      [
        "Ġf",
        "illed"
      ],
      [
        "Ġp",
        "an"
      ],
      [
        "Ġwe",
        "ak"
      ],
      [
        "ud",
        "e"
      ],
      [
        "ĠL",
        "avender"
      ],
      [
        "row",
        "s"
      ],
      [
        "Ġspe",
        "aking"
      ],
      [
        "ĠJ",
        "ust"
      ],
      [
        "Ġfoll",
        "owing"
      ],
      [
        "Ġcou",
        "nt"
      ],
      [
        "Ġfing",
        "er"
      ],
      [
        "Ġdet",
        "erm"
      ],
      [
        "Ġgaz",
        "ing"
      ],
      [
        "Ġpres",
        "ent"
      ],
      [
        "Ġaf",
        "raid"
      ],
      [
        "M",
[...]
