{
  "version": "1.0",
  "truncation": null,
  "padding": null,
  "added_tokens": [
    {
      "id": 0,
      "content": "[UNK]",
      "single_word": false,
      "lstrip": false,
      "rstrip": false,
      "normalized": false,
      "special": true
    },
    {
      "id": 1,
      "content": "[PAD]",
      "single_word": false,
      "lstrip": false,
      "rstrip": false,
      "normalized": false,
      "special": true
    },
    {
      "id": 2,
      "content": "[CLS]",
      "single_word": false,
      "lstrip": false,
      "rstrip": false,
      "normalized": false,
      "special": true
    },
    {
      "id": 3,
      "content": "[SEP]",
      "single_word": false,
      "lstrip": false,
      "rstrip": false,
      "normalized": false,
      "special": true
    },
    {
      "id": 4,
      "content": "[MASK]",
      "single_word": false,
      "lstrip": false,
      "rstrip": false,
      "normalized": false,
      "special": true
    }
  ],
  "normalizer": null,
  "pre_tokenizer": {
    "type": "ByteLevel",
    "add_prefix_space": false,
    "trim_offsets": true,
    "use_regex": true
  },
  "post_processor": null,
  "decoder": {
    "type": "ByteLevel",
    "add_prefix_space": true,
    "trim_offsets": true,
    "use_regex": true
  },
  "model": {
    "type": "BPE",
    "dropout": null,
    "unk_token": "[UNK]",
    "continuing_subword_prefix": null,
    "end_of_word_suffix": null,
    "fuse_unk": false,
    "byte_fallback": false,
    "ignore_merges": false,
    "vocab": {
      "[UNK]": 0,
      "[PAD]": 1,
      "[CLS]": 2,
      "[SEP]": 3,
      "[MASK]": 4,
      "!": 5,
      "'": 6,
      "(": 7,
      ")": 8,
      "*": 9,
      ",": 10,
      "-": 11,
      ".": 12,
      "0": 13,
      "1": 14,
      "2": 15,
      "3": 16,
      "4": 17,
      "5": 18,
      "6": 19,
      "7": 20,
      "8": 21,
      "9": 22,
      ":": 23,
      ";": 24,
      "?": 25,
      "A": 26,
      "B": 27,
      "C": 28,
      "D": 29,
      "E": 30,
      "F": 31,
      "G": 32,
      "H": 33,
      "I": 34,
      "J": 35,
      "K": 36,
      "L": 37,
      "M": 38,
      "N": 39,
      "O": 40,
      "P": 41,
      "Q": 42,
      "R": 43,
      "S": 44,
      "T": 45,
      "U": 46,
      "V": 47,
      "W": 48,
      "X": 49,
      "Y": 50,
      "Z": 51,
      "a": 52,
      "b": 53,
      "c": 54,
      "d": 55,
      "e": 56,
      "f": 57,
      "g": 58,
      "h": 59,
      "i": 60,
      "j": 61,
      "k": 62,
      "l": 63,
      "m": 64,
      "n": 65,
      "o": 66,
      "p": 67,
      "q": 68,
      "r": 69,
      "s": 70,
      "t": 71,
      "u": 72,
      "v": 73,
      "w": 74,
      "x": 75,
      "y": 76,
      "z": 77,
      "¦": 78,
      "©": 79,
      "¬": 80,
      "¹": 81,
      "Â": 82,
      "Ã": 83,
      "â": 84,
      "ĉ": 85,
      "Ċ": 86,
      "Č": 87,
      "Ġ": 88,
      "Ģ": 89,
      "ĵ": 90,
      "Ķ": 91,
      "ĺ": 92,
      "Ļ": 93,
      "ľ": 94,
      "Ŀ": 95,
      "Ł": 96,
      "Ġt": 97,
      "âĢ": 98,
      "he": 99,
      "Ġa": 100,
      "in": 101,
      "Ġs": 102,
      "Ġw": 103,
      "Ġthe": 104,
      "re": 105,
      "ou": 106,
      "Ġh": 107,
      "ed": 108,
      "on": 109,
      "ing": 110,
      "er": 111,
      "ar": 112,
      "nd": 113,
      "Ġb": 114,
      "âĢľ": 115,
      "âĢĿ": 116,
      "Ġf": 117,
      "Ġo": 118,
      "âĢĻ": 119,
      "at": 120,
      "is": 121,
      "Ġto": 122,
      "it": 123,
      "Ġc": 124,
      "ĠH": 125,
      "as": 126,
      "or": 127,
      "ll": 128,
      "id": 129,
      "Ġhe": 130,
      "Ġd": 131,
      "en": 132,
      "Ġm": 133,
      "Ġl": 134,
      "Ġand": 135,
      "Ġth": 136,
      "Ġof": 137,
      "ry": 138,
      "Ġp": 139,
      "es": 140,
      "Ġha": 141,
      "Ġin": 142,
      "Ġg": 143,
      "an": 144,
      "Ġn": 145,
      "le": 146,
      "arry": 147,
      "ow": 148,
      "Ġsa": 149,
      "ly": 150,
      "ĠâĢ": 151,
      "ot": 152,
      "Ġy": 153,
      "om": 154,
      "Ġwas": 155,
      "Ġbe": 156,
      "gh": 157,
      "ĠHarry": 158,
      "Ġsaid": 159,
      "ac": 160,
      "Ġe": 161,
      "ld": 162,
      "Ġhis": 163,
      "Ġyou": 164,
      "im": 165,
      "ĠâĢľ": 166,
      "us": 167,
      "ve": 168,
      "Ġst": 169,
      "oo": 170,
      "Ġit": 171,
      "Ġon": 172,
      "ĠI": 173,
      "ic": 174,
      "et": 175,
      ",âĢĿ": 176,
      "ver": 177,
      "ion": 178,
      "ro": 179,
      "Ġwh": 180,
      "ir": 181,
      "Ġhad": 182,
      "Ġthat": 183,
      "ut": 184,
      "ght": 185,
      "Ġwe": 186,
      "out": 187,
      "ĠâĢĶ": 188,
      "ent": 189,
      "ad": 190,
      "Ġat": 191,
      "Ġu": 192,
      "Ġas": 193,
      "ĠM": 194,
      "Ġre": 195,
      "ur": 196,
      "al": 197,
      "ore": 198,
      "Ġhim": 199,
      "se": 200,
      "ĠS": 201,
      "?âĢĿ": 202,
      "ag": 203,
      "st": 204,
      "ĠâĢ¦": 205,
      "ĠD": 206,
      "The": 207,
      "ri": 208,
      "Ġwit": 209,
      "ke": 210,
      "ch": 211,
      "ay": 212,
      "ĠR": 213,
      "ook": 214,
      "ould": 215,
      "Ġwith": 216,
      "red": 217,
      "Ġan": 218,
      "Ġfor": 219,
      "am": 220,
      "Ġse": 221,
      "ter": 222,
      "her": 223,
      "um": 224,
      "pp": 225,
      "all": 226,
      "Ġnot": 227,
      "ĠP": 228,
      "ill": 229,
      "ack": 230,
      "rou": 231,
      "ard": 232,
      ".âĢĿ": 233,
      "Ġsh": 234,
      "led": 235,
      "Ġk": 236,
      "ĠRon": 237,
      "erm": 238,
      "!âĢĿ": 239,
      "pe": 240,
      "Ġher": 241,
      "ain": 242,
      "em": 243,
      "Ġlook": 244,
      "ione": 245,
      "Ġup": 246,
      "ermione": 247,
      "Ġfr": 248,
      "Ġdo": 249,
      "ight": 250,
      "Ġthey": 251,
      "ess": 252,
      "ĠW": 253,
      "Ġout": 254,
      "ce": 255,
      "ĠHermione": 256,
      "un": 257,
      "ĠA": 258,
      "and": 259,
      "ind": 260,
      "ge": 261,
      "Ġwere": 262,
      "Ġme": 263,
      "ĠHe": 264,
      "Ġkn": 265,
      "Ġne": 266,
      "Ġthem": 267,
      "ted": 268,
      "to": 269,
      "il": 270,
      "Ġr": 271,
      "Ġfe": 272,
      "ĠG": 273,
      "Ġall": 274,
      "Ġbut": 275,
      "ak": 276,
      "if": 277,
      "Ġhave": 278,
      "Ġfrom": 279,
      "Ġshe": 280,
      "ĠThe": 281,
      "Ġj": 282,
      "umb": 283,
      "hing": 284,
      "ĠC": 285,
      "ust": 286,
      "Ġgo": 287,
      "ck": 288,
      "ĠB": 289,
      "ome": 290,
      "very": 291,
      "ood": 292,
      "ĠF": 293,
      "ell": 294,
      "Ġso": 295,
      "ast": 296,
      "hed": 297,
      "one": 298,
      "Ġwhe": 299,
      "ble": 300,
      "lo": 301,
      "Ġback": 302,
      "qu": 303,
      "umbled": 304,
      "ort": 305,
      "Ġinto": 306,
      "Ġli": 307,
      "ide": 308,
      "own": 309,
      "Ġdid": 310,
      "umbledore": 311,
      "Ġwho": 312,
      "Ġv": 313,
      "Ġwhat": 314,
      "art": 315,
      "Ġcould": 316,
      "ud": 317,
      "round": 318,
      "ant": 319,
      "rid": 320,
      "Ġbeen": 321,
      "ĠL": 322,
      "Ġthou": 323,
      "Ġis": 324,
      "Ġab": 325,
      "Ġex": 326,
      "Harry": 327,
      "Ġle": 328,
      "ink": 329,
      "our": 330,
      "ĠDumbledore": 331,
      "Ġag": 332,
      "Ġno": 333,
      "ist": 334,
      "lf": 335,
      "ra": 336,
      "Ġro": 337,
      "ice": 338,
      "ous": 339,
      "ct": 340,
      "Ġal": 341,
      "ĠâĢĶâĢĿ": 342,
      "Ġde": 343,
      "ong": 344,
      "ff": 345,
      "ul": 346,
      "You": 347,
      "ace": 348,
      "Ġthis": 349,
      "ĠT": 350,
      "oy": 351,
      "Ġover": 352,
      "ss": 353,
      "Ġwould": 354,
      "ers": 355,
      "ley": 356,
      "ked": 357,
      "Ġthere": 358,
      "Ġsu": 359,
      "ig": 360,
      "hat": 361,
      "Ġknow": 362,
      "na": 363,
      "Ġpo": 364,
      "Ġtheir": 365,
      "ep": 366,
      "old": 367,
      "Ġdown": 368,
      "Ġabout": 369,
      "Ġoff": 370,
      "Ġany": 371,
      "iz": 372,
      "Ġagain": 373,
      "ven": 374,
      "Ġch": 375,
      "el": 376,
      "Ġone": 377,
      "ther": 378,
      "Ġlike": 379,
      "Ġlooked": 380,
      "way": 381,
      "urn": 382,
      "Ġsp": 383,
      "Ġqu": 384,
      "Ġnow": 385,
      "He": 386,
      "ting": 387,
      "Ġcon": 388,
      "ick": 389,
      "ĠâĢ¦âĢĿ": 390,
      "Ġaround": 391,
      "Ġyour": 392,
      "Ġus": 393,
      "ass": 394,
      "Ġun": 395,
      "ie": 396,
      "op": 397,
      "ime": 398,
      "Ġhand": 399,
      "Ġey": 400,
      "ally": 401,
      "ĠN": 402,
      "are": 403,
      "ull": 404,
      "ĠWe": 405,
      "Ġby": 406,
      "ap": 407,
      "Ġwor": 408,
      "Ġthink": 409,
      "fess": 410,
      "Ġjust": 411,
      "Ġgot": 412,
      "Ġthen": 413,
      "rofess": 414,
      "ered": 415,
      "rofessor": 416,
      "ark": 417,
      "agrid": 418,
      "Ġcan": 419,
      "Ġsc": 420,
      "ake": 421,
      "Ġtoo": 422,
      "right": 423,
      "Ġare": 424,
      "est": 425,
      "Ġbl": 426,
      "Ġsee": 427,
      "ward": 428,
      "Ġif": 429,
      "Ġget": 430,
      "reat": 431,
      "Ġpl": 432,
      "Ġwhen": 433,
      "Ġcl": 434,
      "up": 435,
      "Ġvery": 436,
      "Ġsl": 437,
      "ĠV": 438,
      "ĠMr": 439,
      "ear": 440,
      "Ġmore": 441,
      "Ġwand": 442,
      "Ġmy": 443,
      "bb": 444,
      "Ġor": 445,
      "Ġhead": 446,
      "nape": 447,
      "ame": 448,
      "Ġmo": 449,
      "og": 450,
      "ĠHagrid": 451,
      "ive": 452,
      "Ġcom": 453,
      "Ġthough": 454,
      "self": 455,
      "ate": 456,
      "ĠProfessor": 457,
      "Ġtw": 458,
      "asley": 459,
      "ang": 460,
      "Ġtime": 461,
      "Ġsm": 462,
      "Ġstill": 463,
      "ĠWeasley": 464,
      "Ġdoor": 465,
      "ound": 466,
      "Ġhow": 467,
      "pped": 468,
      "rough": 469,
      "ved": 470,
      "Ġvo": 471,
      "ĠSnape": 472,
      "ond": 473,
      "Ġeyes": 474,
      "ation": 475,
      "Ġtr": 476,
      "ared": 477,
      "orn": 478,
      "Ġlooking": 479,
      "Ġthan": 480,
      "ĠO": 481,
      "ving": 482,
      "Ġdon": 483,
      "Ġturn": 484,
      "air": 485,
      "ius": 486,
      "Ġthrough": 487,
      "Ġface": 488,
      "Ġgl": 489,
      "Ġsome": 490,
      "fore": 491,
      "ich": 492,
      "ĠE": 493,
      "ite": 494,
      "Ġright": 495,
      "nder": 496,
      "ure": 497,
      "Ġar": 498,
      "ath": 499,
      "ily": 500,
      "Ġgr": 501,
      "au": 502,
      "Ġgoing": 503,
      "alf": 504,
      "Ġvoice": 505,
      "Ġseem": 506,
      "Ġother": 507,
      "It": 508,
      "pt": 509,
      "inn": 510,
      "gg": 511,
      "ious": 512,
      "ave": 513,
      "tle": 514,
      "ened": 515,
      "Ġwhich": 516,
      "ire": 517,
      "Ġfl": 518,
      "Ġsw": 519,
      "ree": 520,
      "Ġsay": 521,
      "Ġthought": 522,
      "Ġbefore": 523,
      "ling": 524,
      "ĠIt": 525,
      "aus": 526,
      "other": 527,
      "ol": 528,
      "alfoy": 529,
      "Ġevery": 530,
      "fter": 531,
      "But": 532,
      "omet": 533,
      "Ġman": 534,
      "ĠPot": 535,
      "able": 536,
      "Ġwill": 537,
      "Ġdidn": 538,
      "Ġhere": 539,
      "Ġen": 540,
      "Ġroom": 541,
      "wn": 542,
      "idd": 543,
      "Ġclo": 544,
      "ched": 545,
      "orm": 546,
      "aking": 547,
      "ab": 548,
      "ade": 549,
      "Ġop": 550,
      "ft": 551,
      "What": 552,
      "od": 553,
      "side": 554,
      "Ġlong": 555,
      "th": 556,
      "Ġpre": 557,
      "Ġim": 558,
      "ile": 559,
      "emort": 560,
      "Ġonly": 561,
      "oldemort": 562,
      "ĠU": 563,
      "Ġwat": 564,
      "ĠMalfoy": 565,
      "aring": 566,
      "king": 567,
      "Ġte": 568,
      "Ġsomet": 569,
      "ho": 570,
      "Ġsaw": 571,
      "ts": 572,
      "And": 573,
      "Ġdis": 574,
      "Ġunder": 575,
      "Ġwhere": 576,
      "Ġkne": 577,
      "Ġhapp": 578,
      "Ġtell": 579,
      "Ġbeh": 580,
      "ĠK": 581,
      "age": 582,
      "row": 583,
      "Ġway": 584,
      "Ġpe": 585,
      "Ġwant": 586,
      "Ġafter": 587,
      "ried": 588,
      "ather": 589,
      "ĠVoldemort": 590,
      "izard": 591,
      "sed": 592,
      "ment": 593,
      "Ġbec": 594,
      "ves": 595,
      "Ġmu": 596,
      "Ġseemed": 597,
      "Ġsomething": 598,
      "Ġapp": 599,
      "Ġke": 600,
      "Ġlo": 601,
      "Ġhimself": 602,
      "irius": 603,
      "thing": 604,
      "Ġaway": 605,
      "Ġfir": 606,
      "Ġlet": 607,
      "Ġbet": 608,
      "Ġbehind": 609,
      "Ġlit": 610,
      "te": 611,
      "Ġeven": 612,
      "ause": 613,
      "ĠPotter": 614,
      "Ġasked": 615,
      "ect": 616,
      "Ġrem": 617,
      "mb": 618,
      "Ġspe": 619,
      "Ġturned": 620,
      "ever": 621,
      "Ġtold": 622,
      "Ġnever": 623,
      "ated": 624,
      "Ġbr": 625,
      "Ġtoward": 626,
      "Ġlast": 627,
      "lt": 628,
      "ks": 629,
      "Ġpoin": 630,
      "Ġcome": 631,
      "Ġac": 632,
      "act": 633,
      "ĠHog": 634,
      "Ġmom": 635,
      "agic": 636,
      "Ġthing": 637,
      "ance": 638,
      "Ġmuch": 639,
      "Ġmoment": 640,
      "Ġpro": 641,
      "ine": 642,
      "Ġtry": 643,
      "Ġyear": 644,
      "ĠSirius": 645,
      "oll": 646,
      "ool": 647,
      "ĠDe": 648,
      "ach": 649,
      "Ġknew": 650,
      "uff": 651,
      "dd": 652,
      "ord": 653,
      "ue": 654,
      "ering": 655,
      "Ġshould": 656,
      "ress": 657,
      "ople": 658,
      "ied": 659,
      "ching": 660,
      "Ġonce": 661,
      "ĠYou": 662,
      "Ġlittle": 663,
      "Well": 664,
      "Ġfirst": 665,
      "arts": 666,
      "We": 667,
      "Ġsil": 668,
      "ru": 669,
      "ful": 670,
      "Ġsec": 671,
      "Ġheard": 672,
      "Ġleft": 673,
      "Ġtwo": 674,
      "Ġmade": 675,
      "Ġpr": 676,
      "Ġhas": 677,
      "ody": 678,
      "ped": 679,
      "ont": 680,
      "No": 681,
      "Ġbot": 682,
      "ĠMin": 683,
      "Ġwa": 684,
      "ish": 685,
      "ĠThey": 686,
      "ase": 687,
      "Ġfelt": 688,
      "Ġgood": 689,
      "warts": 690,
      "owed": 691,
      "Ġdes": 692,
      "Ġpeople": 693,
      "les": 694,
      "Ġcont": 695,
      "ĠHogwarts": 696,
      "Ġits": 697,
      "Ġho": 698,
      "ady": 699,
      "nt": 700,
      "They": 701,
      "Ġpull": 702,
      "ple": 703,
      "Ġdark": 704,
      "room": 705,
      "Ġreally": 706,
      "Ġwizard": 707,
      "ies": 708,
      "Ġmight": 709,
      "Ġwell": 710,
      "ross": 711,
      "Ġatt": 712,
      "ev": 713,
      "less": 714,
      "udd": 715,
      "ĠFred": 716,
      "Ġflo": 717,
      "Ġarm": 718,
      "Ġsn": 719,
      "ory": 720,
      "ions": 721,
      "Ġtal": 722,
      "Ġwal": 723,
      "itch": 724,
      "ber": 725,
      "ille": 726,
      "hen": 727,
      "upin": 728,
      "Ġneed": 729,
      "ock": 730,
      "per": 731,
      "Ġdr": 732,
      "Ġfeel": 733,
      "ough": 734,
      "xt": 735,
      "ors": 736,
      "Ġfront": 737,
      "Ġam": 738,
      "ity": 739,
      "ĠMc": 740,
      "inny": 741,
      "rie": 742,
      "Ġwind": 743,
      "Ġsure": 744,
      "Qu": 745,
      "ĠMrs": 746,
      "ah": 747,
      "Ġever": 748,
      "Ġmust": 749,
      "ouse": 750,
      "ise": 751,
      "orge": 752,
      "Ġopen": 753,
      "Ġent": 754,
      "ose": 755,
      "Oh": 756,
      "eorge": 757,
      "oud": 758,
      "Ġche": 759,
      "eville": 760,
      "Ġmean": 761,
      "arge": 762,
      "ung": 763,
      "Ġimp": 764,
      "Ġcame": 765,
      "Ġold": 766,
      "me": 767,
      "Ġfeet": 768,
      "ĠGeorge": 769,
      "arm": 770,
      "ĠCh": 771,
      "ced": 772,
      "uck": 773,
      "ign": 774,
      "cy": 775,
      "Ġbecause": 776,
      "Ġpass": 777,
      "ream": 778,
      "Ġbel": 779,
      "Ġput": 780,
      "here": 781,
      "pl": 782,
      "Ġhur": 783,
      "Gon": 784,
      "agall": 785,
      "Gonagall": 786,
      "ons": 787,
      "Ġcr": 788,
      "ence": 789,
      "ĠLupin": 790,
      "ĠMcGonagall": 791,
      "ĠShe": 792,
      "rew": 793,
      "unn": 794,
      "Ġend": 795,
      "Ġfind": 796,
      "Ġown": 797,
      "Ġter": 798,
      "eah": 799,
      "Ġtook": 800,
      "Ġcle": 801,
      "ourse": 802,
      "be": 803,
      "Ġbed": 804,
      "Ġbit": 805,
      "anted": 806,
      "Ġanything": 807,
      "Ġsur": 808,
      "Ġgreat": 809,
      "Ġsupp": 810,
      "ĠQu": 811,
      "Ġday": 812,
      "Ġhard": 813,
      "There": 814,
      "Ġfew": 815,
      "Ġmake": 816,
      "Ġstand": 817,
      "Ġtable": 818,
      "Ġtrying": 819,
      "Ġhel": 820,
      "chool": 821,
      "ĠGinny": 822,
      "ished": 823,
      "Ġtake": 824,
      "ĠNeville": 825,
      "ents": 826,
      "ater": 827,
      "ised": 828,
      "ryff": 829,
      "ugg": 830,
      "ryffind": 831,
      "Ġwr": 832,
      "ank": 833,
      "ĠAnd": 834,
      "Ġanother": 835,
      "Ġwent": 836,
      "Ġlight": 837,
      "Ġgi": 838,
      "hes": 839,
      "ern": 840,
      "iff": 841,
      "Ġsecond": 842,
      "She": 843,
      "ridge": 844,
      "Ġhands": 845,
      "Ġnext": 846,
      "ĠGryffind": 847,
      "Ġword": 848,
      "Ġfloor": 849,
      "ost": 850,
      "Ġinside": 851,
      "Ġnight": 852,
      "Ġschool": 853,
      "ove": 854,
      "Ġside": 855,
      "arly": 856,
      "Ġcur": 857,
      "Ġwhile": 858,
      "oot": 859,
      "Ġem": 860,
      "iously": 861,
      "Ġboy": 862,
      "Ġkeep": 863,
      "cle": 864,
      "we": 865,
      "Ġlarge": 866,
      "Ġnew": 867,
      "Ġsound": 868,
      "iet": 869,
      "ee": 870,
      "body": 871,
      "Ġfound": 872,
      "Ġra": 873,
      "tered": 874,
      "Ġlau": 875,
      "Ġthree": 876,
      "ully": 877,
      "Ġcall": 878,
      "mbridge": 879,
      "Ġupon": 880,
      "Ġwindow": 881,
      "ĠIn": 882,
      "Ġwhis": 883,
      "ized": 884,
      "Ġblack": 885,
      "Yes": 886,
      "acher": 887,
      "Ġloud": 888,
      "ĠBl": 889,
      "get": 890,
      "sh": 891,
      "az": 892,
      "Ġsit": 893,
      "Ġel": 894,
      "Ġper": 895,
      "Ġcourse": 896,
      "Ġret": 897,
      "Ġset": 898,
      "Ġhair": 899,
      "app": 900,
      "ary": 901,
      "istry": 902,
      "Ġgave": 903,
      "Ġseen": 904,
      "bl": 905,
      "Ġground": 906,
      "ip": 907,
      "ne": 908,
      "Ġnothing": 909,
      "ement": 910,
      "ĠUmbridge": 911,
      "Ġstood": 912,
      "ild": 913,
      "Ġstr": 914,
      "ix": 915,
      "ty": 916,
      "ail": 917,
      "Ġhear": 918,
      "Ġhelp": 919,
      "ĠMinistry": 920,
      "ĠDeath": 921,
      "Ron": 922,
      "Th": 923,
      "ating": 924,
      "udden": 925,
      "Ġsk": 926,
      "ĠGryffindor": 927,
      "Ġonto": 928,
      "Ġreal": 929,
      "Ġjo": 930,
      "aw": 931,
      "Ġwhy": 932,
      "Ġfin": 933,
      "hy": 934,
      "Ġair": 935,
      "Ġhalf": 936,
      "Ġpulled": 937,
      "igh": 938,
      "Ġsudden": 939,
      "iss": 940,
      "airs": 941,
      "ightly": 942,
      "Ġbook": 943,
      "ower": 944,
      "ĠThere": 945,
      "ĠBut": 946,
      "ĠJ": 947,
      "Yeah": 948,
      "Ġwall": 949,
      "ness": 950,
      "Ġshout": 951,
      "Ġlif": 952,
      "av": 953,
      "Ġour": 954,
      "Ġmat": 955,
      "oody": 956,
      "Ġcast": 957,
      "Ġsat": 958,
      "Ġacross": 959,
      "ached": 960,
      "Ġwanted": 961,
      "ĠâĢĻ": 962,
      "ĠTh": 963,
      "Ġbeg": 964,
      "Ġsqu": 965,
      "bby": 966,
      "Ġstud": 967,
      "Ġfell": 968,
      "ans": 969,
      "Ġquick": 970,
      "ible": 971,
      "Ġplace": 972,
      "Ġhouse": 973,
      "Ġbeing": 974,
      "Ġwait": 975,
      "unt": 976,
      "ways": 977,
      "Ġfire": 978,
      "ump": 979,
      "ĠSt": 980,
      "ings": 981,
      "Ġeach": 982,
      "ently": 983,
      "Ġmost": 984,
      "ng": 985,
      "ars": 986,
      "Ġfoll": 987,
      "Ġwithout": 988,
      "Ġwasn": 989,
      "udge": 990,
      "Ġboth": 991,
      "Ġcor": 992,
      "Ġdoes": 993,
      "That": 994,
      "arted": 995,
      "Ġquite": 996,
      "Ġclass": 997,
      "Hermione": 998,
      "Ġdone": 999,
      "ĠDark": 1000,
      "Ġquiet": 1001,
      "Ġyears": 1002,
      "ib": 1003,
      "Ġsmall": 1004,
      "Ġhappened": 1005,
      "ening": 1006,
      "Ġmind": 1007,
      "Ġang": 1008,
      "Ġagainst": 1009,
      "Ġalong": 1010,
      "fully": 1011,
      "os": 1012,
      "So": 1013,
      "Ġcare": 1014,
      "outh": 1015,
      "Ġbetter": 1016,
      "ister": 1017,
      "ĠDo": 1018,
      "Ġcouldn": 1019,
      "cted": 1020,
      "aster": 1021,
      "riend": 1022,
      "ins": 1023
    },
    "merges": [
      [
        "Ġ",
        "t"
      ],
      [
        "â",
        "Ģ"
      ],
      [
        "h",
        "e"
      ],
      [
        "Ġ",
        "a"
      ],
      [
        "i",
        "n"
      ],
      [
        "Ġ",
        "s"
      ],
      [
        "Ġ",
        "w"
      ],
      [
        "Ġt",
        "he"
      ],
      [
        "r",
        "e"
      ],
      [
        "o",
        "u"
      ],
      [
        "Ġ",
        "h"
      ],
      [
        "e",
        "d"
      ],
      [
        "o",
        "n"
      ],
      [
        "in",
        "g"
      ],
      [
        "e",
        "r"
      ],
      [
        "a",
        "r"
      ],
      [
        "n",
        "d"
      ],
      [
        "Ġ",
        "b"
      ],
      [
        "âĢ",
        "ľ"
      ],
      [
        "âĢ",
        "Ŀ"
      ],
      [
        "Ġ",
        "f"
      ],
      [
        "Ġ",
        "o"
      ],
      [
        "âĢ",
        "Ļ"
      ],
      [
        "a",
        "t"
      ],
      [
        "i",
        "s"
      ],
      [
        "Ġt",
        "o"
      ],
      [
        "i",
        "t"
      ],
      [
        "Ġ",
        "c"
      ],
      [
        "Ġ",
        "H"
      ],
      [
        "a",
        "s"
      ],
      [
        "o",
        "r"
      ],
      [
        "l",
        "l"
      ],
      [
        "i",
        "d"
      ],
      [
        "Ġ",
        "he"
      ],
      [
        "Ġ",
        "d"
      ],
      [
        "e",
        "n"
      ],
      [
        "Ġ",
        "m"
      ],
      [
        "Ġ",
        "l"
      ],
      [
        "Ġa",
        "nd"
      ],
      [
        "Ġt",
        "h"
      ],
      [
        "Ġo",
        "f"
      ],
      [
        "r",
        "y"
      ],
      [
        "Ġ",
        "p"
      ],
      [
        "e",
        "s"
      ],
      [
        "Ġh",
        "a"
      ],
      [
        "Ġ",
        "in"
      ],
      [
        "Ġ",
        "g"
      ],
      [
        "a",
        "n"
      ],
      [
        "Ġ",
        "n"
      ],
      [
        "l",
        "e"
      ],
      [
        "ar",
        "ry"
      ],
      [
        "o",
        "w"
      ],
      [
        "Ġs",
        "a"
      ],
      [
        "l",
        "y"
      ],
      [
        "Ġ",
        "âĢ"
      ],
      [
        "o",
        "t"
      ],
      [
        "Ġ",
        "y"
      ],
      [
        "o",
        "m"
      ],
      [
        "Ġw",
        "as"
      ],
      [
        "Ġb",
        "e"
      ],
      [
        "g",
        "h"
      ],
      [
        "ĠH",
        "arry"
      ],
      [
        "Ġsa",
        "id"
      ],
      [
        "a",
        "c"
      ],
      [
        "Ġ",
        "e"
      ],
      [
        "l",
        "d"
      ],
      [
        "Ġh",
        "is"
      ],
      [
        "Ġy",
        "ou"
      ],
      [
        "i",
        "m"
      ],
      [
        "Ġ",
        "âĢľ"
      ],
      [
        "u",
        "s"
      ],
      [
        "v",
        "e"
      ],
      [
        "Ġs",
        "t"
      ],
      [
        "o",
        "o"
      ],
      [
        "Ġ",
        "it"
      ],
      [
        "Ġ",
        "on"
      ],
      [
        "Ġ",
        "I"
      ],
      [
        "i",
        "c"
      ],
      [
        "e",
        "t"
      ],
      [
        ",",
        "âĢĿ"
      ],
      [
        "v",
        "er"
      ],
      [
        "i",
        "on"
      ],
      [
        "r",
        "o"
      ],
      [
        "Ġw",
        "h"
      ],
      [
        "i",
        "r"
      ],
      [
        "Ġha",
        "d"
      ],
      [
        "Ġth",
        "at"
      ],
      [
        "u",
        "t"
      ],
      [
        "gh",
        "t"
      ],
      [
        "Ġw",
        "e"
      ],
      [
        "ou",
        "t"
      ],
      [
        "ĠâĢ",
        "Ķ"
      ],
      [
        "en",
        "t"
      ],
      [
        "a",
        "d"
      ],
      [
        "Ġa",
        "t"
      ],
      [
        "Ġ",
        "u"
      ],
      [
        "Ġa",
        "s"
      ],
      [
        "Ġ",
        "M"
      ],
      [
        "Ġ",
        "re"
      ],
      [
        "u",
        "r"
      ],
      [
        "a",
        "l"
      ],
      [
        "o",
        "re"
      ],
      [
        "Ġh",
        "im"
      ],
      [
        "s",
        "e"
      ],
      [
        "Ġ",
        "S"
      ],
      [
        "?",
        "âĢĿ"
      ],
      [
        "a",
        "g"
      ],
      [
        "s",
        "t"
      ],
      [
        "ĠâĢ",
        "¦"
      ],
      [
        "Ġ",
        "D"
      ],
      [
        "T",
        "he"
      ],
      [
        "r",
        "i"
      ],
      [
        "Ġw",
        "it"
      ],
      [
        "k",
        "e"
      ],
      [
        "c",
        "h"
      ],
      [
        "a",
        "y"
      ],
      [
        "Ġ",
        "R"
      ],
      [
        "oo",
        "k"
      ],
      [
        "ou",
        "ld"
      ],
      [
        "Ġwit",
        "h"
      ],
      [
        "re",
        "d"
      ],
      [
        "Ġa",
        "n"
      ],
      [
        "Ġf",
        "or"
      ],
      [
        "a",
        "m"
      ],
      [
        "Ġs",
        "e"
      ],
      [
        "t",
        "er"
      ],
      [
        "he",
        "r"
      ],
      [
        "u",
        "m"
      ],
      [
        "p",
        "p"
      ],
      [
        "a",
        "ll"
      ],
      [
        "Ġn",
        "ot"
      ],
      [
        "Ġ",
        "P"
      ],
      [
        "i",
        "ll"
      ],
      [
        "ac",
        "k"
      ],
      [
        "r",
        "ou"
      ],
      [
        "ar",
        "d"
      ],
      [
        ".",
        "âĢĿ"
      ],
      [
        "Ġs",
        "h"
      ],
      [
        "l",
        "ed"
      ],
      [
        "Ġ",
        "k"
      ],
      [
        "ĠR",
        "on"
      ],
      [
        "er",
        "m"
      ],
      [
        "!",
        "âĢĿ"
      ],
      [
        "p",
        "e"
      ],
      [
        "Ġhe",
        "r"
      ],
      [
        "a",
        "in"
      ],
      [
        "e",
        "m"
      ],
      [
        "Ġl",
        "ook"
      ],
      [
        "ion",
        "e"
      ],
      [
        "Ġu",
        "p"
      ],
      [
        "erm",
        "ione"
      ],
      [
        "Ġf",
        "r"
      ],
      [
        "Ġd",
        "o"
      ],
      [
        "i",
        "ght"
      ],
      [
        "Ġthe",
        "y"
      ],
      [
        "es",
        "s"
      ],
      [
        "Ġ",
        "W"
      ],
      [
        "Ġ",
        "out"
      ],
      [
        "c",
        "e"
      ],
      [
        "ĠH",
        "ermione"
      ],
      [
        "u",
        "n"
      ],
      [
        "Ġ",
        "A"
      ],
      [
        "a",
        "nd"
      ],
      [
        "in",
        "d"
      ],
      [
        "g",
        "e"
      ],
      [
        "Ġwe",
        "re"
      ],
      [
        "Ġm",
        "e"
      ],
      [
        "ĠH",
        "e"
      ],
      [
        "Ġk",
        "n"
      ],
      [
        "Ġn",
        "e"
      ],
      [
        "Ġthe",
        "m"
      ],
      [
        "t",
        "ed"
      ],
      [
        "t",
        "o"
      ],
      [
        "i",
        "l"
      ],
      [
        "Ġ",
        "r"
      ],
      [
        "Ġf",
        "e"
      ],
      [
        "Ġ",
        "G"
      ],
      [
        "Ġa",
        "ll"
      ],
      [
        "Ġb",
        "ut"
      ],
      [
        "a",
        "k"
      ],
      [
        "i",
        "f"
      ],
      [
        "Ġha",
        "ve"
      ],
      [
        "Ġfr",
        "om"
      ],
      [
        "Ġs",
        "he"
      ],
      [
        "Ġ",
        "The"
      ],
      [
        "Ġ",
        "j"
      ],
      [
        "um",
        "b"
      ],
      [
        "h",
        "ing"
      ],
      [
        "Ġ",
        "C"
      ],
      [
        "us",
        "t"
      ],
      [
        "Ġg",
        "o"
      ],
      [
        "c",
        "k"
      ],
      [
        "Ġ",
        "B"
      ],
      [
        "om",
        "e"
      ],
      [
        "ver",
        "y"
      ],
      [
        "oo",
        "d"
      ],
      [
        "Ġ",
        "F"
      ],
      [
        "e",
        "ll"
      ],
      [
        "Ġs",
        "o"
      ],
      [
        "as",
        "t"
      ],
      [
        "he",
        "d"
      ],
      [
        "on",
        "e"
      ],
      [
        "Ġw",
        "he"
      ],
      [
        "b",
        "le"
      ],
      [
        "l",
        "o"
      ],
      [
        "Ġb",
        "ack"
      ],
      [
        "q",
        "u"
      ],
      [
        "umb",
        "led"
      ],
      [
        "or",
        "t"
      ],
      [
        "Ġin",
        "to"
      ],
      [
        "Ġl",
        "i"
      ],
      [
        "id",
        "e"
      ],
      [
        "ow",
        "n"
      ],
      [
        "Ġd",
        "id"
      ],
      [
        "umbled",
        "ore"
      ],
      [
        "Ġwh",
        "o"
      ],
      [
        "Ġ",
        "v"
      ],
      [
        "Ġwh",
        "at"
      ],
      [
        "ar",
        "t"
      ],
      [
        "Ġc",
        "ould"
      ],
      [
        "u",
        "d"
      ],
      [
        "rou",
        "nd"
      ],
      [
        "an",
        "t"
      ],
      [
        "r",
        "id"
      ],
      [
        "Ġbe",
        "en"
      ],
      [
        "Ġ",
        "L"
      ],
      [
        "Ġth",
        "ou"
      ],
      [
        "Ġ",
        "is"
      ],
      [
        "Ġa",
        "b"
      ],
      [
        "Ġe",
        "x"
      ],
      [
        "H",
        "arry"
      ],
      [
        "Ġl",
        "e"
      ],
      [
        "in",
        "k"
      ],
      [
        "ou",
        "r"
      ],
      [
        "ĠD",
        "umbledore"
      ],
      [
        "Ġa",
        "g"
      ],
      [
        "Ġn",
        "o"
      ],
      [
        "is",
        "t"
      ],
      [
        "l",
        "f"
      ],
      [
        "r",
        "a"
      ],
      [
        "Ġ",
        "ro"
      ],
      [
        "ic",
        "e"
      ],
      [
        "ou",
        "s"
      ],
      [
        "c",
        "t"
      ],
      [
        "Ġa",
        "l"
      ],
      [
        "ĠâĢĶ",
        "âĢĿ"
      ],
      [
        "Ġd",
        "e"
      ],
      [
        "on",
        "g"
      ],
      [
        "f",
        "f"
      ],
      [
        "u",
        "l"
      ],
      [
        "Y",
        "ou"
      ],
      [
        "ac",
        "e"
      ],
      [
        "Ġth",
        "is"
      ],
      [
        "Ġ",
        "T"
      ],
      [
        "o",
        "y"
      ],
      [
        "Ġo",
        "ver"
      ],
      [
        "s",
        "s"
      ],
      [
        "Ġw",
        "ould"
      ],
      [
        "er",
        "s"
      ],
      [
        "le",
        "y"
      ],
      [
        "k",
        "ed"
      ],
      [
        "Ġthe",
        "re"
      ],
      [
        "Ġs",
        "u"
      ],
      [
        "i",
        "g"
      ],
      [
        "h",
        "at"
      ],
      [
        "Ġkn",
        "ow"
      ],
      [
        "n",
        "a"
      ],
      [
        "Ġp",
        "o"
      ],
      [
        "Ġthe",
        "ir"
      ],
      [
        "e",
        "p"
      ],
      [
        "o",
        "ld"
      ],
      [
        "Ġd",
        "own"
      ],
      [
        "Ġab",
        "out"
      ],
      [
        "Ġof",
        "f"
      ],
      [
        "Ġan",
        "y"
      ],
      [
        "i",
        "z"
      ],
      [
        "Ġag",
        "ain"
      ],
      [
        "v",
        "en"
      ],
      [
        "Ġc",
        "h"
      ],
      [
        "e",
        "l"
      ],
      [
        "Ġon",
        "e"
      ],
      [
        "t",
        "her"
      ],
      [
        "Ġli",
        "ke"
      ],
      [
        "Ġlook",
        "ed"
      ],
      [
        "w",
        "ay"
      ],
      [
        "ur",
        "n"
      ],
      [
        "Ġs",
        "p"
      ],
      [
        "Ġ",
        "qu"
      ],
      [
        "Ġn",
        "ow"
      ],
      [
        "H",
        "e"
      ],
      [
        "t",
        "ing"
      ],
      [
        "Ġc",
        "on"
      ],
      [
        "ic",
        "k"
      ],
      [
        "ĠâĢ¦",
        "âĢĿ"
      ],
      [
        "Ġa",
        "round"
      ],
      [
        "Ġyou",
        "r"
      ],
      [
        "Ġ",
        "us"
      ],
      [
        "as",
        "s"
      ],
      [
        "Ġu",
        "n"
      ],
      [
        "i",
        "e"
      ],
      [
        "o",
        "p"
      ],
      [
        "im",
        "e"
      ],
      [
        "Ġha",
        "nd"
      ],
      [
        "Ġe",
        "y"
      ],
      [
        "all",
        "y"
      ],
      [
        "Ġ",
        "N"
      ],
      [
        "a",
        "re"
      ],
      [
        "u",
        "ll"
      ],
      [
        "ĠW",
        "e"
      ],
      [
        "Ġb",
        "y"
      ],
      [
        "a",
        "p"
      ],
      [
        "Ġw",
        "or"
      ],
      [
        "Ġth",
        "ink"
      ],
      [
        "f",
        "ess"
      ],
      [
        "Ġj",
        "ust"
      ],
      [
        "Ġg",
        "ot"
      ],
      [
        "Ġthe",
        "n"
      ],
      [
        "ro",
        "fess"
      ],
      [
        "e",
        "red"
      ],
      [
        "rofess",
        "or"
      ],
      [
        "ar",
        "k"
      ],
      [
        "ag",
        "rid"
      ],
      [
        "Ġc",
        "an"
      ],
      [
        "Ġs",
        "c"
      ],
      [
        "a",
        "ke"
      ],
      [
        "Ġto",
        "o"
      ],
      [
        "ri",
        "ght"
      ],
      [
        "Ġa",
        "re"
      ],
      [
        "es",
        "t"
      ],
      [
        "Ġb",
        "l"
      ],
      [
        "Ġse",
        "e"
      ],
      [
        "w",
        "ard"
      ],
      [
        "Ġ",
        "if"
      ],
      [
        "Ġg",
        "et"
      ],
      [
        "re",
        "at"
      ],
      [
        "Ġp",
        "l"
      ],
      [
        "Ġwhe",
        "n"
      ],
      [
        "Ġc",
        "l"
      ],
      [
        "u",
        "p"
      ],
      [
        "Ġ",
        "very"
      ],
      [
        "Ġs",
        "l"
      ],
      [
        "Ġ",
        "V"
      ],
      [
        "ĠM",
        "r"
      ],
      [
        "e",
        "ar"
      ],
      [
        "Ġm",
        "ore"
      ],
      [
        "Ġw",
        "and"
      ],
      [
        "Ġm",
        "y"
      ],
      [
        "b",
        "b"
      ],
      [
        "Ġo",
        "r"
      ],
      [
        "Ġhe",
        "ad"
      ],
      [
        "na",
        "pe"
      ],
      [
        "am",
        "e"
      ],
      [
        "Ġm",
        "o"
      ],
      [
        "o",
        "g"
      ],
      [
        "ĠH",
        "agrid"
      ],
      [
        "i",
        "ve"
      ],
      [
        "Ġc",
        "om"
      ],
      [
        "Ġthou",
        "gh"
      ],
      [
        "se",
        "lf"
      ],
      [
        "at",
        "e"
      ],
      [
        "ĠP",
        "rofessor"
      ],
      [
        "Ġt",
        "w"
      ],
      [
        "as",
        "ley"
      ],
      [
        "an",
        "g"
      ],
      [
        "Ġt",
        "ime"
      ],
      [
        "Ġs",
        "m"
      ],
      [
        "Ġst",
        "ill"
      ],
      [
        "ĠWe",
        "asley"
      ],
      [
        "Ġdo",
        "or"
      ],
      [
        "ou",
        "nd"
      ],
      [
        "Ġh",
        "ow"
      ],
      [
        "pp",
        "ed"
      ],
      [
        "rou",
        "gh"
      ],
      [
        "v",
        "ed"
      ],
      [
        "Ġv",
        "o"
      ],
      [
        "ĠS",
        "nape"
      ],
      [
        "on",
        "d"
      ],
      [
        "Ġey",
        "es"
      ],
      [
        "at",
        "ion"
      ],
      [
        "Ġt",
        "r"
      ],
      [
        "a",
        "red"
      ],
      [
        "or",
        "n"
      ],
      [
        "Ġlook",
        "ing"
      ],
      [
        "Ġth",
        "an"
      ],
      [
        "Ġ",
        "O"
      ],
      [
        "v",
        "ing"
      ],
      [
        "Ġd",
        "on"
      ],
      [
        "Ġt",
        "urn"
      ],
      [
        "a",
        "ir"
      ],
      [
        "i",
        "us"
      ],
      [
        "Ġth",
        "rough"
      ],
      [
        "Ġf",
        "ace"
      ],
      [
        "Ġg",
        "l"
      ],
      [
        "Ġs",
        "ome"
      ],
      [
        "f",
        "ore"
      ],
      [
        "ic",
        "h"
      ],
      [
        "Ġ",
        "E"
      ],
      [
        "it",
        "e"
      ],
      [
        "Ġ",
        "right"
      ],
      [
        "nd",
        "er"
      ],
      [
        "u",
        "re"
      ],
      [
        "Ġa",
        "r"
      ],
      [
        "at",
        "h"
      ],
      [
        "i",
        "ly"
      ],
      [
        "Ġg",
        "r"
      ],
      [
        "a",
        "u"
      ],
      [
        "Ġgo",
        "ing"
      ],
      [
        "al",
        "f"
      ],
      [
        "Ġvo",
        "ice"
      ],
      [
        "Ġse",
        "em"
      ],
      [
        "Ġo",
        "ther"
      ],
      [
        "I",
        "t"
      ],
      [
        "p",
        "t"
      ],
      [
        "in",
        "n"
      ],
      [
        "g",
        "g"
      ],
      [
        "i",
        "ous"
      ],
      [
        "a",
        "ve"
      ],
      [
        "t",
        "le"
      ],
      [
        "en",
        "ed"
      ],
      [
        "Ġwh",
        "ich"
      ],
      [
        "i",
        "re"
      ],
      [
        "Ġf",
        "l"
      ],
      [
        "Ġs",
        "w"
      ],
      [
        "re",
        "e"
      ],
      [
        "Ġsa",
        "y"
      ],
      [
        "Ġthou",
        "ght"
      ],
      [
        "Ġbe",
        "fore"
      ],
      [
        "l",
        "ing"
      ],
      [
        "ĠI",
        "t"
      ],
      [
        "a",
        "us"
      ],
      [
        "ot",
        "her"
      ],
      [
        "o",
        "l"
      ],
      [
        "alf",
        "oy"
      ],
      [
        "Ġe",
        "very"
      ],
      [
        "f",
        "ter"
      ],
      [
        "B",
        "ut"
      ],
      [
        "om",
        "et"
      ],
      [
        "Ġm",
        "an"
      ],
      [
        "ĠP",
        "ot"
      ],
      [
        "a",
        "ble"
      ],
      [
        "Ġw",
        "ill"
      ],
      [
        "Ġdid",
        "n"
      ],
      [
        "Ġhe",
        "re"
      ],
      [
        "Ġ",
        "en"
      ],
      [
        "Ġro",
        "om"
      ],
      [
        "w",
        "n"
      ],
      [
        "id",
        "d"
      ],
      [
        "Ġc",
        "lo"
      ],
      [
        "c",
        "hed"
      ],
      [
        "or",
        "m"
      ],
      [
        "ak",
        "ing"
      ],
      [
        "a",
        "b"
      ],
      [
        "ad",
        "e"
      ],
      [
        "Ġo",
        "p"
      ],
      [
        "f",
        "t"
      ],
      [
        "W",
        "hat"
      ],
      [
        "o",
        "d"
      ],
      [
        "s",
        "ide"
      ],
      [
        "Ġl",
        "ong"
      ],
      [
        "t",
        "h"
      ],
      [
        "Ġp",
        "re"
      ],
      [
        "Ġ",
        "im"
      ],
      [
        "i",
        "le"
      ],
      [
        "em",
        "ort"
      ],
      [
        "Ġon",
        "ly"
      ],
      [
        "old",
        "emort"
      ],
      [
        "Ġ",
        "U"
      ],
      [
        "Ġw",
        "at"
      ],
      [
        "ĠM",
        "alfoy"
      ],
      [
        "ar",
        "ing"
      ],
      [
        "k",
        "ing"
      ],
      [
        "Ġt",
        "e"
      ],
      [
        "Ġs",
        "omet"
      ],
      [
        "h",
        "o"
      ],
      [
        "Ġsa",
        "w"
      ],
      [
        "t",
        "s"
      ],
      [
        "A",
        "nd"
      ],
      [
        "Ġd",
        "is"
      ],
      [
        "Ġu",
        "nder"
      ],
      [
        "Ġwhe",
        "re"
      ],
      [
        "Ġkn",
        "e"
      ],
      [
        "Ġha",
        "pp"
      ],
      [
        "Ġt",
        "ell"
      ],
      [
        "Ġbe",
        "h"
      ],
      [
        "Ġ",
        "K"
      ],
      [
        "ag",
        "e"
      ],
      [
        "r",
        "ow"
      ],
      [
        "Ġw",
        "ay"
      ],
      [
        "Ġp",
        "e"
      ],
      [
        "Ġw",
        "ant"
      ],
      [
        "Ġa",
        "fter"
      ],
      [
        "ri",
        "ed"
      ],
      [
        "at",
        "her"
      ],
      [
        "ĠV",
        "oldemort"
      ],
      [
        "iz",
        "ard"
      ],
      [
        "s",
        "ed"
      ],
      [
        "m",
        "ent"
      ],
      [
        "Ġbe",
        "c"
      ],
      [
        "v",
        "es"
      ],
      [
        "Ġm",
        "u"
      ],
      [
        "Ġseem",
        "ed"
      ],
      [
        "Ġsomet",
        "hing"
      ],
      [
        "Ġa",
        "pp"
      ],
      [
        "Ġ",
        "ke"
      ],
      [
        "Ġl",
        "o"
      ],
      [
        "Ġhim",
        "self"
      ],
      [
        "ir",
        "ius"
      ],
      [
        "t",
        "hing"
      ],
      [
        "Ġa",
        "way"
      ],
      [
        "Ġf",
        "ir"
      ],
      [
        "Ġl",
        "et"
      ],
      [
        "Ġbe",
        "t"
      ],
      [
        "Ġbeh",
        "ind"
      ],
      [
        "Ġl",
        "it"
      ],
      [
        "t",
        "e"
      ],
      [
        "Ġe",
        "ven"
      ],
      [
        "aus",
        "e"
      ],
      [
        "ĠPot",
        "ter"
      ],
      [
        "Ġas",
        "ked"
      ],
      [
        "e",
        "ct"
      ],
      [
        "Ġre",
        "m"
      ],
      [
        "m",
        "b"
      ],
      [
        "Ġs",
        "pe"
      ],
      [
        "Ġturn",
        "ed"
      ],
      [
        "e",
        "ver"
      ],
      [
        "Ġto",
        "ld"
      ],
      [
        "Ġne",
        "ver"
      ],
      [
        "at",
        "ed"
      ],
      [
        "Ġb",
        "r"
      ],
      [
        "Ġto",
        "ward"
      ],
      [
        "Ġl",
        "ast"
      ],
      [
        "l",
        "t"
      ],
      [
        "k",
        "s"
      ],
      [
        "Ġpo",
        "in"
      ],
      [
        "Ġc",
        "ome"
      ],
      [
        "Ġa",
        "c"
      ],
      [
        "ac",
        "t"
      ],
      [
        "ĠH",
        "og"
      ],
      [
        "Ġm",
        "om"
      ],
      [
        "ag",
        "ic"
      ],
      [
        "Ġth",
        "ing"
      ],
      [
        "an",
        "ce"
      ],
      [
        "Ġmu",
        "ch"
      ],
      [
        "Ġmom",
        "ent"
      ],
      [
        "Ġp",
        "ro"
      ],
      [
        "in",
        "e"
      ],
      [
        "Ġt",
        "ry"
      ],
      [
        "Ġy",
        "ear"
      ],
      [
        "ĠS",
        "irius"
      ],
      [
        "o",
        "ll"
      ],
      [
        "oo",
        "l"
      ],
      [
        "ĠD",
        "e"
      ],
      [
        "ac",
        "h"
      ],
      [
        "Ġkne",
        "w"
      ],
      [
        "u",
        "ff"
      ],
      [
        "d",
        "d"
      ],
      [
        "or",
        "d"
      ],
      [
        "u",
        "e"
      ],
      [
        "er",
        "ing"
      ],
      [
        "Ġsh",
        "ould"
      ],
      [
        "re",
        "ss"
      ],
      [
        "op",
        "le"
      ],
      [
        "i",
        "ed"
      ],
      [
        "ch",
        "ing"
      ],
      [
        "Ġon",
        "ce"
      ],
      [
        "Ġ",
        "You"
      ],
      [
        "Ġlit",
        "tle"
      ],
      [
        "W",
        "ell"
      ],
      [
        "Ġfir",
        "st"
      ],
      [
        "art",
        "s"
      ],
      [
        "W",
        "e"
      ],
      [
        "Ġs",
        "il"
      ],
      [
        "r",
        "u"
      ],
      [
        "f",
        "ul"
      ],
      [
        "Ġse",
        "c"
      ],
      [
        "Ġhe",
        "ard"
      ],
      [
        "Ġle",
        "ft"
      ],
      [
        "Ġtw",
        "o"
      ],
      [
        "Ġm",
        "ade"
      ],
      [
        "Ġp",
        "r"
      ],
      [
        "Ġh",
        "as"
      ],
      [
        "od",
        "y"
      ],
      [
        "p",
        "ed"
      ],
      [
        "on",
        "t"
      ],
      [
        "N",
        "o"
      ],
      [
        "Ġb",
        "ot"
      ],
      [
        "ĠM",
        "in"
      ],
      [
        "Ġw",
        "a"
      ],
      [
        "is",
        "h"
      ],
      [
        "ĠThe",
        "y"
      ],
      [
        "as",
        "e"
      ],
      [
        "Ġfe",
        "lt"
      ],
      [
        "Ġg",
        "ood"
      ],
      [
        "w",
        "arts"
      ],
      [
        "ow",
        "ed"
      ],
      [
        "Ġd",
        "es"
      ],
      [
        "Ġpe",
        "ople"
      ],
      [
        "l",
        "es"
      ],
      [
        "Ġcon",
        "t"
      ],
      [
        "ĠHog",
        "warts"
      ],
      [
        "Ġit",
        "s"
      ],
      [
        "Ġh",
        "o"
      ],
      [
        "ad",
        "y"
      ],
      [
        "n",
        "t"
      ],
      [
        "The",
        "y"
      ],
      [
        "Ġp",
        "ull"
      ],
      [
        "p",
        "le"
      ],
      [
        "Ġd",
        "ark"
      ],
      [
        "ro",
        "om"
      ],
      [
        "Ġre",
        "ally"
      ],
      [
        "Ġw",
        "izard"
      ],
      [
        "i",
        "es"
      ],
      [
        "Ġm",
        "ight"
      ],
      [
        "Ġwe",
        "ll"
      ],
      [
        "ro",
        "ss"
      ],
      [
        "Ġat",
        "t"
      ],
      [
        "e",
        "v"
      ],
      [
        "l",
        "ess"
      ],
      [
        "ud",
        "d"
      ],
      [
        "ĠF",
        "red"
      ],
      [
        "Ġf",
        "lo"
      ],
      [
        "Ġar",
        "m"
      ],
      [
        "Ġs",
        "n"
      ],
      [
        "or",
        "y"
      ],
      [
        "ion",
        "s"
      ],
      [
        "Ġt",
        "al"
      ],
      [
        "Ġw",
        "al"
      ],
      [
        "it",
        "ch"
      ],
      [
        "b",
        "er"
      ],
      [
        "ill",
        "e"
      ],
      [
        "he",
        "n"
      ],
      [
        "up",
        "in"
      ],
      [
        "Ġne",
        "ed"
      ],
      [
        "o",
        "ck"
      ],
      [
        "p",
        "er"
      ],
      [
        "Ġd",
        "r"
      ],
      [
        "Ġfe",
        "el"
      ],
      [
        "ou",
        "gh"
      ],
      [
        "x",
        "t"
      ],
      [
        "or",
        "s"
      ],
      [
        "Ġfr",
        "ont"
      ],
      [
        "Ġa",
        "m"
      ],
      [
        "it",
        "y"
      ],
      [
        "ĠM",
        "c"
      ],
      [
        "inn",
        "y"
      ],
      [
        "ri",
        "e"
      ],
      [
        "Ġw",
        "ind"
      ],
      [
        "Ġsu",
        "re"
      ],
      [
        "Q",
        "u"
      ],
      [
        "ĠMr",
        "s"
      ],
      [
        "a",
        "h"
      ],
      [
        "Ġe",
        "ver"
      ],
      [
        "Ġm",
        "ust"
      ],
      [
        "ou",
        "se"
      ],
      [
        "is",
        "e"
      ],
      [
        "or",
        "ge"
      ],
      [
        "Ġop",
        "en"
      ],
      [
        "Ġ",
        "ent"
      ],
      [
        "o",
        "se"
      ],
      [
        "O",
        "h"
      ],
      [
        "e",
        "orge"
      ],
      [
        "ou",
        "d"
      ],
      [
        "Ġc",
        "he"
      ],
      [
        "ev",
        "ille"
      ],
      [
        "Ġme",
        "an"
      ],
      [
        "ar",
        "ge"
      ],
      [
        "un",
        "g"
      ],
      [
        "Ġim",
        "p"
      ],
      [
        "Ġc",
        "ame"
      ],
      [
        "Ġo",
        "ld"
      ],
      [
        "m",
        "e"
      ],
      [
        "Ġfe",
        "et"
      ],
      [
        "ĠG",
        "eorge"
      ],
      [
        "ar",
        "m"
      ],
      [
        "ĠC",
        "h"
      ],
      [
        "c",
        "ed"
      ],
      [
        "u",
        "ck"
      ],
      [
        "ig",
        "n"
      ],
      [
        "c",
        "y"
      ],
      [
        "Ġbec",
        "ause"
      ],
      [
        "Ġp",
        "ass"
      ],
      [
        "re",
        "am"
      ],
      [
        "Ġbe",
        "l"
      ],
      [
        "Ġp",
        "ut"
      ],
      [
        "he",
        "re"
      ],
      [
        "p",
        "l"
      ],
      [
        "Ġh",
        "ur"
      ],
      [
        "G",
        "on"
      ],
      [
        "ag",
        "all"
      ],
      [
        "Gon",
        "agall"
      ],
      [
        "on",
        "s"
      ],
      [
        "Ġc",
        "r"
      ],
      [
        "en",
        "ce"
      ],
      [
        "ĠL",
        "upin"
      ],
      [
        "ĠMc",
        "Gonagall"
      ],
      [
        "ĠS",
        "he"
      ],
      [
        "re",
        "w"
      ],
      [
        "un",
        "n"
      ],
      [
        "Ġe",
        "nd"
      ],
      [
        "Ġf",
        "ind"
      ],
      [
        "Ġo",
        "wn"
      ],
      [
        "Ġt",
        "er"
      ],
      [
        "e",
        "ah"
      ],
      [
        "Ġtoo",
        "k"
      ],
      [
        "Ġc",
        "le"
      ],
      [
        "our",
        "se"
      ],
      [
        "b",
        "e"
      ],
      [
        "Ġb",
        "ed"
      ],
      [
        "Ġb",
        "it"
      ],
      [
        "an",
        "ted"
      ],
      [
        "Ġany",
        "thing"
      ],
      [
        "Ġs",
        "ur"
      ],
      [
        "Ġg",
        "reat"
      ],
      [
        "Ġsu",
        "pp"
      ],
      [
        "Ġ",
        "Qu"
      ],
      [
        "Ġd",
        "ay"
      ],
      [
        "Ġh",
        "ard"
      ],
      [
        "The",
        "re"
      ],
      [
        "Ġfe",
        "w"
      ],
      [
        "Ġm",
        "ake"
      ],
      [
        "Ġst",
        "and"
      ],
      [
        "Ġt",
        "able"
      ],
      [
        "Ġtry",
        "ing"
      ],
      [
        "Ġhe",
        "l"
      ],
      [
        "ch",
        "ool"
      ],
      [
        "ĠG",
        "inny"
      ],
      [
        "is",
        "hed"
      ],
      [
        "Ġt",
        "ake"
      ],
      [
        "ĠN",
        "eville"
      ],
      [
        "ent",
        "s"
      ],
      [
        "at",
        "er"
      ],
      [
        "is",
        "ed"
      ],
      [
        "ry",
        "ff"
      ],
      [
        "u",
        "gg"
      ],
      [
        "ryff",
        "ind"
      ],
      [
        "Ġw",
        "r"
      ],
      [
        "an",
        "k"
      ],
      [
        "ĠA",
        "nd"
      ],
      [
        "Ġan",
        "other"
      ],
      [
        "Ġw",
        "ent"
      ],
      [
        "Ġl",
        "ight"
      ],
      [
        "Ġg",
        "i"
      ],
      [
        "he",
        "s"
      ],
      [
        "er",
        "n"
      ],
      [
        "if",
        "f"
      ],
      [
        "Ġsec",
        "ond"
      ],
      [
        "S",
        "he"
      ],
      [
        "rid",
        "ge"
      ],
      [
        "Ġhand",
        "s"
      ],
      [
        "Ġne",
        "xt"
      ],
      [
        "ĠG",
        "ryffind"
      ],
      [
        "Ġwor",
        "d"
      ],
      [
        "Ġflo",
        "or"
      ],
      [
        "o",
        "st"
      ],
      [
        "Ġin",
        "side"
      ],
      [
        "Ġn",
        "ight"
      ],
      [
        "Ġs",
        "chool"
      ],
      [
        "o",
        "ve"
      ],
      [
        "Ġs",
        "ide"
      ],
      [
        "ar",
        "ly"
      ],
      [
        "Ġc",
        "ur"
      ],
      [
        "Ġwh",
        "ile"
      ],
      [
        "o",
        "ot"
      ],
      [
        "Ġe",
        "m"
      ],
      [
        "ious",
        "ly"
      ],
      [
        "Ġb",
        "oy"
      ],
      [
        "Ġke",
        "ep"
      ],
      [
        "c",
        "le"
      ],
      [
        "w",
        "e"
      ],
      [
        "Ġl",
        "arge"
      ],
      [
        "Ġne",
        "w"
      ],
      [
        "Ġs",
        "ound"
      ],
      [
        "i",
        "et"
      ],
      [
        "e",
        "e"
      ],
      [
        "b",
        "ody"
      ],
      [
        "Ġf",
        "ound"
      ],
      [
        "Ġr",
        "a"
      ],
      [
        "t",
        "ered"
      ],
      [
        "Ġl",
        "au"
      ],
      [
        "Ġth",
        "ree"
      ],
      [
        "ull",
        "y"
      ],
      [
        "Ġc",
        "all"
      ],
      [
        "mb",
        "ridge"
      ],
      [
        "Ġup",
        "on"
      ],
      [
        "Ġwind",
        "ow"
      ],
      [
        "ĠI",
        "n"
      ],
      [
        "Ġwh",
        "is"
      ],
      [
        "iz",
        "ed"
      ],
      [
        "Ġbl",
        "ack"
      ],
      [
        "Y",
        "es"
      ],
      [
        "ac",
        "her"
      ],
      [
        "Ġl",
        "oud"
      ],
      [
        "ĠB",
        "l"
      ],
      [
        "g",
        "et"
      ],
      [
        "s",
        "h"
      ],
      [
        "a",
        "z"
      ],
      [
        "Ġs",
        "it"
      ],
      [
        "Ġe",
        "l"
      ],
      [
        "Ġp",
        "er"
      ],
      [
        "Ġc",
        "ourse"
      ],
      [
        "Ġre",
        "t"
      ],
      [
        "Ġs",
        "et"
      ],
      [
        "Ġha",
        "ir"
      ],
      [
        "a",
        "pp"
      ],
      [
        "ar",
        "y"
      ],
      [
        "ist",
        "ry"
      ],
      [
        "Ġg",
        "ave"
      ],
      [
        "Ġse",
        "en"
      ],
      [
        "b",
        "l"
      ],
      [
        "Ġg",
        "round"
      ],
      [
        "i",
        "p"
      ],
      [
        "n",
        "e"
      ],
      [
        "Ġnot",
        "hing"
      ],
      [
        "em",
        "ent"
      ],
      [
        "ĠU",
        "mbridge"
      ],
      [
        "Ġst",
        "ood"
      ],
      [
        "i",
        "ld"
      ],
      [
        "Ġst",
        "r"
      ],
      [
        "i",
        "x"
      ],
      [
        "t",
        "y"
      ],
      [
        "a",
        "il"
      ],
      [
        "Ġhe",
        "ar"
      ],
      [
        "Ġhel",
        "p"
      ],
      [
        "ĠMin",
        "istry"
      ],
      [
        "ĠDe",
        "ath"
      ],
      [
        "R",
        "on"
      ],
      [
        "T",
        "h"
      ],
      [
        "at",
        "ing"
      ],
      [
        "udd",
        "en"
      ],
      [
        "Ġs",
        "k"
      ],
      [
        "ĠGryffind",
        "or"
      ],
      [
        "Ġon",
        "to"
      ],
      [
        "Ġre",
        "al"
      ],
      [
        "Ġj",
        "o"
      ],
      [
        "a",
        "w"
      ],
      [
        "Ġwh",
        "y"
      ],
      [
        "Ġf",
        "in"
      ],
      [
        "h",
        "y"
      ],
      [
        "Ġa",
        "ir"
      ],
      [
        "Ġha",
        "lf"
      ],
      [
        "Ġpull",
        "ed"
      ],
      [
        "i",
        "gh"
      ],
      [
        "Ġs",
        "udden"
      ],
      [
        "is",
        "s"
      ],
      [
        "air",
        "s"
      ],
      [
        "ight",
        "ly"
      ],
      [
        "Ġb",
        "ook"
      ],
      [
        "ow",
        "er"
      ],
      [
        "ĠThe",
        "re"
      ],
      [
        "ĠB",
        "ut"
      ],
      [
        "Ġ",
        "J"
      ],
      [
        "Y",
        "eah"
      ],
      [
        "Ġw",
        "all"
      ],
      [
        "n",
        "ess"
      ],
      [
        "Ġsh",
        "out"
      ],
      [
        "Ġl",
        "if"
      ],
      [
        "a",
        "v"
      ],
      [
        "Ġ",
        "our"
      ],
      [
        "Ġm",
        "at"
      ],
      [
        "ood",
        "y"
      ],
      [
        "Ġc",
        "ast"
      ],
      [
        "Ġs",
        "at"
      ],
      [
        "Ġac",
        "ross"
      ],
      [
        "ac",
        "hed"
      ],
      [
        "Ġw",
        "anted"
      ],
      [
        "Ġ",
        "âĢĻ"
      ],
      [
        "ĠT",
        "h"
      ],
      [
        "Ġbe",
        "g"
      ],
      [
        "Ġs",
        "qu"
      ],
      [
        "bb",
        "y"
      ],
      [
        "Ġst",
        "ud"
      ],
      [
        "Ġfe",
        "ll"
      ],
      [
        "an",
        "s"
      ],
      [
        "Ġqu",
        "ick"
      ],
      [
        "i",
        "ble"
      ],
      [
        "Ġpl",
        "ace"
      ],
      [
        "Ġh",
        "ouse"
      ],
      [
        "Ġbe",
        "ing"
      ],
      [
        "Ġwa",
        "it"
      ],
      [
        "un",
        "t"
      ],
      [
        "way",
        "s"
      ],
      [
        "Ġf",
        "ire"
      ],
      [
        "um",
        "p"
      ],
      [
        "ĠS",
        "t"
      ],
      [
        "ing",
        "s"
      ],
      [
        "Ġe",
        "ach"
      ],
      [
        "ent",
        "ly"
      ],
      [
        "Ġmo",
        "st"
      ],
      [
        "n",
        "g"
      ],
      [
        "ar",
        "s"
      ],
      [
        "Ġf",
        "oll"
      ],
      [
        "Ġwith",
        "out"
      ],
      [
        "Ġwas",
        "n"
      ],
      [
        "ud",
        "ge"
      ],
      [
        "Ġbot",
        "h"
      ],
      [
        "Ġc",
        "or"
      ],
      [
        "Ġdo",
        "es"
      ],
      [
        "T",
        "hat"
      ],
      [
        "ar",
        "ted"
      ],
      [
        "Ġqu",
        "ite"
      ],
      [
        "Ġcl",
        "ass"
      ],
      [
        "H",
        "ermione"
      ],
      [
        "Ġd",
        "one"
      ],
      [
        "ĠD",
        "ark"
      ],
      [
        "Ġqu",
        "iet"
      ],
      [
        "Ġyear",
        "s"
      ],
      [
        "i",
        "b"
      ],
      [
        "Ġsm",
        "all"
      ],
      [
        "Ġhapp",
        "ened"
      ],
      [
        "en",
        "ing"
      ],
      [
        "Ġm",
        "ind"
      ],
      [
        "Ġan",
        "g"
      ],
      [
        "Ġagain",
        "st"
      ],
      [
        "Ġal",
        "ong"
      ],
      [
        "f",
        "ully"
      ],
      [
        "o",
        "s"
      ],
      [
        "S",
        "o"
      ],
      [
        "Ġc",
        "are"
      ],
      [
        "out",
        "h"
      ],
      [
        "Ġbet",
        "ter"
      ],
      [
        "is",
        "ter"
      ],
      [
        "ĠD",
        "o"
      ],
      [
        "Ġcould",
        "n"
      ],
      [
        "c",
        "ted"
      ],
      [
        "as",
        "ter"
      ],
      [
        "rie",
        "nd"
      ],
      [
        "in",
        "s"
      ]
    ]
  }
}