{
  "version": "1.0",
  "truncation": null,
  "padding": null,
  "added_tokens": [
    {
      "id": 0,
      "content": "[UNK]",
      "single_word": false,
      "lstrip": false,
      "rstrip": false,
      "normalized": false,
      "special": true
    },
    {
      "id": 1,
      "content": "[PAD]",
      "single_word": false,
      "lstrip": false,
      "rstrip": false,
      "normalized": false,
      "special": true
    },
    {
      "id": 2,
      "content": "[CLS]",
      "single_word": false,
      "lstrip": false,
      "rstrip": false,
      "normalized": false,
      "special": true
    },
    {
      "id": 3,
      "content": "[SEP]",
      "single_word": false,
      "lstrip": false,
      "rstrip": false,
      "normalized": false,
      "special": true
    },
    {
      "id": 4,
      "content": "[MASK]",
      "single_word": false,
      "lstrip": false,
      "rstrip": false,
      "normalized": false,
      "special": true
    }
  ],
  "normalizer": null,
  "pre_tokenizer": {
    "type": "ByteLevel",
    "add_prefix_space": false,
    "trim_offsets": true,
    "use_regex": true
  },
  "post_processor": null,
  "decoder": {
    "type": "ByteLevel",
    "add_prefix_space": true,
    "trim_offsets": true,
    "use_regex": true
  },
  "model": {
    "type": "BPE",
    "dropout": null,
    "unk_token": "[UNK]",
    "continuing_subword_prefix": null,
    "end_of_word_suffix": null,
    "fuse_unk": false,
    "byte_fallback": false,
    "ignore_merges": false,
    "vocab": {
      "[UNK]": 0,
      "[PAD]": 1,
      "[CLS]": 2,
      "[SEP]": 3,
      "[MASK]": 4,
      "!": 5,
      "\"": 6,
      "#": 7,
      "$": 8,
      "%": 9,
      "&": 10,
      "'": 11,
      "(": 12,
      ")": 13,
      "*": 14,
      "+": 15,
      ",": 16,
      "-": 17,
      ".": 18,
      "/": 19,
      "0": 20,
      "1": 21,
      "2": 22,
      "3": 23,
      "4": 24,
      "5": 25,
      "6": 26,
      "7": 27,
      "8": 28,
      "9": 29,
      ":": 30,
      ";": 31,
      "<": 32,
      "=": 33,
      ">": 34,
      "?": 35,
      "@": 36,
      "A": 37,
      "B": 38,
      "C": 39,
      "D": 40,
      "E": 41,
      "F": 42,
      "G": 43,
      "H": 44,
      "I": 45,
      "J": 46,
      "K": 47,
      "L": 48,
      "M": 49,
      "N": 50,
      "O": 51,
      "P": 52,
      "Q": 53,
      "R": 54,
      "S": 55,
      "T": 56,
      "U": 57,
      "V": 58,
      "W": 59,
      "X": 60,
      "Y": 61,
      "Z": 62,
      "[": 63,
      "\\": 64,
      "]": 65,
      "^": 66,
      "_": 67,
      "`": 68,
      "a": 69,
      "b": 70,
      "c": 71,
      "d": 72,
      "e": 73,
      "f": 74,
      "g": 75,
      "h": 76,
      "i": 77,
      "j": 78,
      "k": 79,
      "l": 80,
      "m": 81,
      "n": 82,
      "o": 83,
      "p": 84,
      "q": 85,
      "r": 86,
      "s": 87,
      "t": 88,
      "u": 89,
      "v": 90,
      "w": 91,
      "x": 92,
      "y": 93,
      "z": 94,
      "{": 95,
      "|": 96,
      "}": 97,
      "~": 98,
      "¡": 99,
      "¢": 100,
      "£": 101,
      "¤": 102,
      "¥": 103,
      "¦": 104,
      "§": 105,
      "¨": 106,
      "©": 107,
      "ª": 108,
      "«": 109,
      "¬": 110,
      "®": 111,
      "¯": 112,
      "°": 113,
      "±": 114,
      "²": 115,
      "³": 116,
      "´": 117,
      "µ": 118,
      "¶": 119,
      "·": 120,
      "¸": 121,
      "¹": 122,
      "º": 123,
      "»": 124,
      "¼": 125,
      "½": 126,
      "¾": 127,
      "¿": 128,
      "Â": 129,
      "Ã": 130,
      "Ä": 131,
      "Å": 132,
      "Æ": 133,
      "Ç": 134,
      "È": 135,
      "É": 136,
      "Ê": 137,
      "Ë": 138,
      "Ì": 139,
      "Í": 140,
      "Î": 141,
      "Ï": 142,
      "Ð": 143,
      "Ñ": 144,
      "Ò": 145,
      "Ó": 146,
      "Ô": 147,
      "Õ": 148,
      "Ö": 149,
      "×": 150,
      "Ø": 151,
      "Ù": 152,
      "Ú": 153,
      "Û": 154,
      "Ü": 155,
      "Ý": 156,
      "à": 157,
      "á": 158,
      "â": 159,
      "ã": 160,
      "ä": 161,
      "å": 162,
      "æ": 163,
      "ç": 164,
      "è": 165,
      "é": 166,
      "ê": 167,
      "ë": 168,
      "ì": 169,
      "í": 170,
      "ï": 171,
      "ð": 172,
      "Ċ": 173,
      "Ġ": 174,
      "Ģ": 175,
      "ģ": 176,
      "Ĥ": 177,
      "ĥ": 178,
      "Ħ": 179,
      "ħ": 180,
      "Ĩ": 181,
      "ĩ": 182,
      "Ī": 183,
      "ī": 184,
      "Ĭ": 185,
      "ĭ": 186,
      "Į": 187,
      "į": 188,
      "İ": 189,
      "ı": 190,
      "Ĳ": 191,
      "ĳ": 192,
      "Ĵ": 193,
      "ĵ": 194,
      "Ķ": 195,
      "ķ": 196,
      "ĸ": 197,
      "Ĺ": 198,
      "ĺ": 199,
      "Ļ": 200,
      "ļ": 201,
      "Ľ": 202,
      "ľ": 203,
      "Ŀ": 204,
      "ŀ": 205,
      "Ł": 206,
      "ł": 207,
      "Ń": 208,
      "Ġt": 209,
      "he": 210,
      "Ġa": 211,
      "in": 212,
      "Ġthe": 213,
      "er": 214,
      "on": 215,
      "Ġ,": 216,
      "re": 217,
      "Ġs": 218,
      "ed": 219,
      "Ġw": 220,
      "Ġo": 221,
      "nd": 222,
      "at": 223,
      "Ġ.": 224,
      "or": 225,
      "en": 226,
      "Ġc": 227,
      "it": 228,
      "Ġf": 229,
      "is": 230,
      "es": 231,
      "ar": 232,
      "Ġb": 233,
      "Ġof": 234,
      "an": 235,
      "Ġin": 236,
      "al": 237,
      "ing": 238,
      "Ġp": 239,
      "as": 240,
      "Ġand": 241,
      "Ġto": 242,
      "ic": 243,
      "ro": 244,
      "Ġm": 245,
      "Ġd": 246,
      "Ġh": 247,
      "ion": 248,
      "le": 249,
      "ou": 250,
      "ĠT": 251,
      "Ġre": 252,
      "il": 253,
      "ĠS": 254,
      "ent": 255,
      "Ġ\"": 256,
      "Ġ1": 257,
      "ĠA": 258,
      "Ġth": 259,
      "st": 260,
      "el": 261,
      "Ġl": 262,
      "Ġ@": 263,
      "ĠC": 264,
      "om": 265,
      "Ġe": 266,
      "Ġ=": 267,
      "am": 268,
      "Ġn": 269,
      "ad": 270,
      "ac": 271,
      "Ġwas": 272,
      "ĠM": 273,
      "ec": 274,
      "Ġon": 275,
      "ĠB": 276,
      "ly": 277,
      "ur": 278,
      "Ġ'": 279,
      "et": 280,
      "id": 281,
      "ol": 282,
      "Ġg": 283,
      "im": 284,
      "-@": 285,
      "Ġ@-@": 286,
      "Ġfor": 287,
      "ir": 288,
      "ig": 289,
      "iv": 290,
      "ot": 291,
      "ter": 292,
      "ut": 293,
      "ĠThe": 294,
      "ĠI": 295,
      "ĠH": 296,
      "Ġas": 297,
      "us": 298,
      "ow": 299,
      "ith": 300,
      "ay": 301,
      "Ġst": 302,
      "Ġ2": 303,
      "ĠP": 304,
      "Ġhe": 305,
      "ver": 306,
      "ation": 307,
      "Ġwith": 308,
      "Ġbe": 309,
      "Ġthat": 310,
      "ĠR": 311,
      "ce": 312,
      "un": 313,
      "ĠD": 314,
      "em": 315,
      "Ġwh": 316,
      "ch": 317,
      "Ġby": 318,
      "th": 319,
      "ĠW": 320,
      "Ġal": 321,
      "Ġ)": 322,
      "ĠF": 323,
      "Ġ(": 324,
      "ul": 325,
      "Ġis": 326,
      "Ġcon": 327,
      "ers": 328,
      "Ġat": 329,
      "ĠL": 330,
      "ĠG": 331,
      "ct": 332,
      "ra": 333,
      "ĠN": 334,
      "os": 335,
      "Ġan": 336,
      "Ġ19": 337,
      "Ġit": 338,
      "her": 339,
      "rom": 340,
      "and": 341,
      "um": 342,
      "est": 343,
      "00": 344,
      "ĠJ": 345,
      "Ġhis": 346,
      "ag": 347,
      "av": 348,
      "ain": 349,
      "ĠE": 350,
      "ri": 351,
      "od": 352,
      "Ġfrom": 353,
      "ist": 354,
      "Ġcom": 355,
      "Ġv": 356,
      "Ġpro": 357,
      "op": 358,
      "ill": 359,
      "ore": 360,
      "ĠO": 361,
      "if": 362,
      "ld": 363,
      "up": 364,
      "Ġr": 365,
      "ew": 366,
      "ere": 367,
      "res": 368,
      "igh": 369,
      "ies": 370,
      "Ġde": 371,
      "ber": 372,
      "art": 373,
      "ard": 374,
      "ort": 375,
      "Ġse": 376,
      "ich": 377,
      "Ġwere": 378,
      "ate": 379,
      "all": 380,
      "ak": 381,
      "ant": 382,
      "oc": 383,
      "ud": 384,
      "ap": 385,
      "Ġex": 386,
      "qu": 387,
      "ong": 388,
      "ab": 389,
      "Ġch": 390,
      "Ġor": 391,
      "gh": 392,
      "ear": 393,
      "ess": 394,
      "ated": 395,
      "ĠK": 396,
      "Ġpl": 397,
      "Ġsh": 398,
      "ity": 399,
      "ip": 400,
      "ive": 401,
      "ame": 402,
      "Ġâ": 403,
      "Ġhad": 404,
      "ect": 405,
      "ĠU": 406,
      "ack": 407,
      "ĠIn": 408,
      "ĠâĢ": 409,
      "Ġsu": 410,
      "ast": 411,
      "se": 412,
      "red": 413,
      "Ġk": 414,
      "ĠSt": 415,
      "ge": 416,
      "Ġwhich": 417,
      "our": 418,
      "ment": 419,
      "Ġle": 420,
      "und": 421,
      "Ġare": 422,
      "ov": 423,
      "ian": 424,
      "ial": 425,
      "Ġnot": 426,
      "ell": 427,
      "Ġsp": 428,
      "ost": 429,
      "Ġy": 430,
      "ight": 431,
      "ia": 432,
      "ord": 433,
      "ust": 434,
      "ary": 435,
      "ine": 436,
      "ther": 437,
      "pt": 438,
      "rit": 439,
      "Ġ3": 440,
      "oun": 441,
      "pp": 442,
      "ical": 443,
      "ave": 444,
      "Ġun": 445,
      "ĠCh": 446,
      "cc": 447,
      "Ġ200": 448,
      "Ġinc": 449,
      "fter": 450,
      "ould": 451,
      "Ġbut": 452,
      "irst": 453,
      "ish": 454,
      "te": 455,
      "ous": 456,
      "ĠV": 457,
      "ff": 458,
      "ions": 459,
      "so": 460,
      "Ġcomp": 461,
      "ide": 462,
      "Ġ20": 463,
      "Ġro": 464,
      "ure": 465,
      "Ġwhe": 466,
      "ub": 467,
      "Ġar": 468,
      "Ġcont": 469,
      "ie": 470,
      "Ġ;": 471,
      "og": 472,
      "ign": 473,
      "Ġfirst": 474,
      "Ġcl": 475,
      "wo": 476,
      "Ġher": 477,
      "ry": 478,
      "ue": 479,
      "Ġits": 480,
      "ass": 481,
      "Ġtheir": 482,
      "orm": 483,
      "ĠâĢĵ": 484,
      "ok": 485,
      "ork": 486,
      "Ġint": 487,
      "Ġres": 488,
      "Ġ:": 489,
      "ater": 490,
      "Ġalso": 491,
      "Ġab": 492,
      "ond": 493,
      "Ġad": 494,
      "ome": 495,
      "out": 496,
      "ran": 497,
      "ĠHe": 498,
      "mer": 499,
      "ire": 500,
      "hed": 501,
      "ru": 502,
      "Ġus": 503,
      "age": 504,
      "du": 505,
      "Ġ4": 506,
      "ime": 507,
      "The": 508,
      "low": 509,
      "Ġper": 510,
      "per": 511,
      "Ġwho": 512,
      "Ġ5": 513,
      "Ġone": 514,
      "Ġhave": 515,
      "Ġsc": 516,
      "pl": 517,
      "ally": 518,
      "own": 519,
      "ile": 520,
      "Ġrec": 521,
      "ted": 522,
      "Ġ18": 523,
      ".@": 524,
      "Ġ@.@": 525,
      "Ġtwo": 526,
      "ition": 527,
      "ugh": 528,
      "ĠTh": 529,
      "iz": 530,
      "ree": 531,
      "ence": 532,
      "ts": 533,
      "uring": 534,
      "port": 535,
      "Ġbeen": 536,
      "Ġpart": 537,
      "Ġbec": 538,
      "ice": 539,
      "Ġhas": 540,
      "Ġag": 541,
      "Ġapp": 542,
      "ough": 543,
      ",@": 544,
      "Ġ@,@": 545,
      "Ġ201": 546,
      "Ġj": 547,
      "Ġen": 548,
      "Ġdis": 549,
      "lud": 550,
      "ke": 551,
      "Ġover": 552,
      "Ġser": 553,
      "Ġthis": 554,
      "ory": 555,
      "ely": 556,
      "Ġyear": 557,
      "ations": 558,
      "ember": 559,
      "ren": 560,
      "ction": 561,
      "ound": 562,
      "ach": 563,
      "Ġoff": 564,
      "Ġafter": 565,
      "ric": 566,
      "Ġup": 567,
      "land": 568,
      "ĠAl": 569,
      "Ġplay": 570,
      "Ġdes": 571,
      "ace": 572,
      "ark": 573,
      "over": 574,
      "ance": 575,
      "Ġout": 576,
      "Ġthey": 577,
      "Ġman": 578,
      "ade": 579,
      "Ġte": 580,
      "ĠIt": 581,
      "act": 582,
      "Ġother": 583,
      "ib": 584,
      "man": 585,
      "ult": 586,
      "Ġim": 587,
      "ph": 588,
      "ress": 589,
      "Ġinclud": 590,
      "ced": 591,
      "ens": 592,
      "urn": 593,
      "ĠY": 594,
      "wn": 595,
      "Ġwould": 596,
      "ind": 597,
      "Ġtime": 598,
      "one": 599,
      "Ġpre": 600,
      "Ġinto": 601,
      "vel": 602,
      "ward": 603,
      "we": 604,
      "Ġwe": 605,
      "Ġhim": 606,
      "ite": 607,
      "oin": 608,
      "ates": 609,
      "ĠUn": 610,
      "Ġ6": 611,
      "Ġshe": 612,
      "les": 613,
      "Ġev": 614,
      "ilm": 615,
      "Ġatt": 616,
      "ased": 617,
      "Ġne": 618,
      "ited": 619,
      "able": 620,
      "end": 621,
      "ied": 622,
      "ase": 623,
      "amp": 624,
      "Ġcomm": 625,
      "ors": 626,
      "ne": 627,
      "Ġinter": 628,
      "are": 629,
      "rough": 630,
      "oy": 631,
      "ons": 632,
      "ount": 633,
      "ep": 634,
      "form": 635,
      "Ġall": 636,
      "ose": 637,
      "ood": 638,
      "ang": 639,
      "Ġmore": 640,
      "ces": 641,
      "Ġwork": 642,
      "Ġ7": 643,
      "ail": 644,
      "old": 645,
      "aw": 646,
      "ered": 647,
      "ings": 648,
      "ve": 649,
      "ild": 650,
      "Ġnew": 651,
      "Ġsec": 652,
      "Ġbet": 653,
      "inal": 654,
      "Ġfe": 655,
      "Ġfilm": 656,
      "ick": 657,
      "Ġwhen": 658,
      "vi": 659,
      "ents": 660,
      "way": 661,
      "att": 662,
      "ft": 663,
      "iss": 664,
      "aus": 665,
      "fer": 666,
      "gan": 667,
      "Ġ8": 668,
      "reat": 669,
      "rib": 670,
      "Ġcons": 671,
      "ĠAn": 672,
      "round": 673,
      "ake": 674,
      "Ġrem": 675,
      "ved": 676,
      "ĠMar": 677,
      "Ġtr": 678,
      "ĠSe": 679,
      "Ġdec": 680,
      "ason": 681,
      "ĠAr": 682,
      "ans": 683,
      "Ġduring": 684,
      "Ġund": 685,
      "orth": 686,
      "ubl": 687,
      "hip": 688,
      "Ġ9": 689,
      "Ġagain": 690,
      "Ġmost": 691,
      "Ġgame": 692,
      "oth": 693,
      "Ġthem": 694,
      "Ġonly": 695,
      "Ġpr": 696,
      "ath": 697,
      "ween": 698,
      "ix": 699,
      "Ġ199": 700,
      "Ġear": 701,
      "ollow": 702,
      "Ġthan": 703,
      "ob": 704,
      "rop": 705,
      "Ġsup": 706,
      "ss": 707,
      "ational": 708,
      "fore": 709,
      "Ġabout": 710,
      "Ġprodu": 711,
      "ug": 712,
      "Ġcent": 713,
      "tern": 714,
      "Ġret": 715,
      "Ġchar": 716,
      "Ġsong": 717,
      "Ġcan": 718,
      "ĠNew": 719,
      "outh": 720,
      "Ġbetween": 721,
      "Ġlater": 722,
      "Ġrele": 723,
      "Ġunder": 724,
      "ict": 725,
      "Ġkn": 726,
      "Ġthree": 727,
      "ton": 728,
      "ron": 729,
      "Ġcol": 730,
      "Ġact": 731,
      "Ġ00": 732,
      "hn": 733,
      "als": 734,
      "Ġqu": 735,
      "Ġthrough": 736,
      "orld": 737,
      "ook": 738,
      "Ġnum": 739,
      "Ġso": 740,
      "Ġme": 741,
      "Ġacc": 742,
      "Ġrel": 743,
      "Ġwhile": 744,
      "ĠEn": 745,
      "Ġra": 746,
      "Ġend": 747,
      "meric": 748,
      "In": 749,
      "lect": 750,
      "Ġfl": 751,
      "ever": 752,
      "ters": 753,
      "ĠAmeric": 754,
      "ock": 755,
      "Ġpos": 756,
      "ral": 757,
      "ĠLe": 758,
      "Ġsub": 759,
      "ning": 760,
      "ular": 761,
      "Ġass": 762,
      "ating": 763,
      "Ġver": 764,
      "Ġwhere": 765,
      "Ġday": 766,
      "ck": 767,
      "Ġreg": 768,
      "Ġsecond": 769,
      "ener": 770,
      "aid": 771,
      "Ġbu": 772,
      "Ġmade": 773,
      "ames": 774,
      "ision": 775,
      "ived": 776,
      "ĠRe": 777,
      "Ġpe": 778,
      "Ġrecord": 779,
      "ĠCom": 780,
      "Ġdef": 781,
      "bum": 782,
      "Ġfour": 783,
      "Ġgro": 784,
      "Ġfollow": 785,
      "Ġseason": 786,
      "son": 787,
      "Ġ000": 788,
      "Ġep": 789,
      "Ġform": 790,
      "Ġsome": 791,
      "Ġsuch": 792,
      "Ġam": 793,
      "ool": 794,
      "ished": 795,
      "Ġmov": 796,
      "Ġbefore": 797,
      "Ġtra": 798,
      "hes": 799,
      "Ġmus": 800,
      "Ġwrit": 801,
      "Ġthere": 802,
      "ics": 803,
      "io": 804,
      "Ġspec": 805,
      "iel": 806,
      "ike": 807,
      "Ġ10": 808,
      "ĠSp": 809,
      "Ġyears": 810,
      "Ġsy": 811,
      "ode": 812,
      "Ġteam": 813,
      "ual": 814,
      "ident": 815,
      "Ġ/": 816,
      "Ġlar": 817,
      "ĠOn": 818,
      "Ġalbum": 819,
      "Ġind": 820,
      "hen": 821,
      "ily": 822,
      "owever": 823,
      "ĠJo": 824,
      "Ġent": 825,
      "Ġused": 826,
      "Ġcall": 827,
      "ank": 828,
      "Ġsur": 829,
      "ific": 830,
      "ll": 831,
      "Ġac": 832,
      "ury": 833,
      "Ġhigh": 834,
      "Ġpubl": 835,
      "Ġbeing": 836,
      "orn": 837,
      "ĠThis": 838,
      "Ġepis": 839,
      "ĠSh": 840,
      "ained": 841,
      "Ġthen": 842,
      "ten": 843,
      "velop": 844,
      "aj": 845,
      "Ġdo": 846,
      "Ġloc": 847,
      "Ġexp": 848,
      "ife": 849,
      "ris": 850,
      "Ġagainst": 851,
      "Ġ17": 852,
      "Ġinv": 853,
      "Ġbl": 854,
      "Ġ0": 855,
      "Ġpres": 856,
      "Ġshow": 857,
      "other": 858,
      "Ġnumber": 859,
      "Ġcharac": 860,
      "ious": 861,
      "Ġsever": 862,
      "Ġadd": 863,
      "ale": 864,
      "Ġco": 865,
      "Ġset": 866,
      "ince": 867,
      "ject": 868,
      "ars": 869,
      "Ġbecame": 870,
      "Ġrece": 871,
      "ause": 872,
      "ek": 873,
      "Ġlead": 874,
      "Ġperform": 875,
      "ĠBrit": 876,
      "Ġno": 877,
      "Ġincluding": 878,
      "Ġsing": 879,
      "ather": 880,
      "ins": 881,
      "ines": 882,
      "ĠâĢĶ": 883,
      "Ġfound": 884,
      "ĠAt": 885,
      "air": 886,
      "rans": 887,
      "Ġwell": 888,
      "Ġmon": 889,
      "Ġrep": 890,
      "ĠUnited": 891,
      "Ġpol": 892,
      "ĠAs": 893,
      "Ġback": 894,
      "Ġboth": 895,
      "ier": 896,
      "Ġcap": 897,
      "Ġseries": 898,
      "Ġ15": 899,
      "Ġ12": 900,
      "ober": 901,
      "Ġ198": 902,
      "ram": 903,
      "ĠSc": 904,
      "ik": 905,
      "ower": 906,
      "Ġship": 907,
      "ement": 908,
      "its": 909,
      "ert": 910,
      "ired": 911,
      "ures": 912,
      "ley": 913,
      "ivers": 914,
      "pen": 915,
      "Ġmain": 916,
      "Ġmin": 917,
      "Ġ194": 918,
      "iet": 919,
      "der": 920,
      "overn": 921,
      "Ġdid": 922,
      "ven": 923,
      "Ġgo": 924,
      "led": 925,
      "Ġcre": 926,
      "elf": 927,
      "olog": 928,
      "Ġimp": 929,
      "Ġdevelop": 930,
      "Ġmet": 931,
      "az": 932,
      "ĠShe": 933,
      "ities": 934,
      "ane": 935,
      "ĠCon": 936,
      "Ġlong": 937,
      "iver": 938,
      "any": 939,
      "ised": 940,
      "erm": 941,
      "ĠEng": 942,
      "ting": 943,
      "uch": 944,
      "ared": 945,
      "ird": 946,
      "Ġem": 947,
      "Ġmill": 948,
      "ful": 949,
      "Ġair": 950,
      "Ġmat": 951,
      "Ġepisode": 952,
      "tend": 953,
      "irect": 954,
      "Ġsaid": 955,
      "Ġstud": 956,
      "Ġmany": 957,
      "ute": 958,
      "Ġbro": 959,
      "ash": 960,
      "ative": 961,
      "Ġdep": 962,
      "Ġcar": 963,
      "Ġcould": 964,
      "Ġorig": 965,
      "Ġ16": 966,
      "Ġwar": 967,
      "Ġcontin": 968,
      "ann": 969,
      "Ġseveral": 970,
      "ah": 971,
      "though": 972,
      "Ġdif": 973,
      "ield": 974,
      "ĠJohn": 975,
      "Ġinst": 976,
      "Ġpop": 977,
      "ouse": 978,
      "ĠAmerican": 979,
      "ise": 980,
      "emb": 981,
      "Ġknown": 982,
      "ty": 983,
      "ĠInd": 984,
      "ĠCl": 985,
      "Ġ197": 986,
      "ĠWh": 987,
      "ually": 988,
      "til": 989,
      "Ġconc": 990,
      "Ġ11": 991,
      "Ġ196": 992,
      "iam": 993,
      "view": 994,
      "ĠAust": 995,
      "erson": 996,
      "Ġob": 997,
      "ued": 998,
      "Ġsm": 999,
      "Ġreturn": 1000,
      "erman": 1001,
      "Ġbegan": 1002,
      "Ġany": 1003,
      "ĠWar": 1004,
      "Ġcomple": 1005,
      "Ġdesign": 1006,
      "Ġdesc": 1007,
      "Ġsign": 1008,
      "ople": 1009,
      "chool": 1010,
      "ross": 1011,
      "my": 1012,
      "ism": 1013,
      "oot": 1014,
      "Ġest": 1015,
      "ccess": 1016,
      "Ġtrans": 1017,
      "ern": 1018,
      "ĠZ": 1019,
      "Ġprov": 1020,
      "aking": 1021,
      "Ġfeat": 1022,
      "ided": 1023
    },
    "merges": [
      [
        "Ġ",
        "t"
      ],
      [
        "h",
        "e"
      ],
      [
        "Ġ",
        "a"
      ],
      [
        "i",
        "n"
      ],
      [
        "Ġt",
        "he"
      ],
      [
        "e",
        "r"
      ],
      [
        "o",
        "n"
      ],
      [
        "Ġ",
        ","
      ],
      [
        "r",
        "e"
      ],
      [
        "Ġ",
        "s"
      ],
      [
        "e",
        "d"
      ],
      [
        "Ġ",
        "w"
      ],
      [
        "Ġ",
        "o"
      ],
      [
        "n",
        "d"
      ],
      [
        "a",
        "t"
      ],
      [
        "Ġ",
        "."
      ],
      [
        "o",
        "r"
      ],
      [
        "e",
        "n"
      ],
      [
        "Ġ",
        "c"
      ],
      [
        "i",
        "t"
      ],
      [
        "Ġ",
        "f"
      ],
      [
        "i",
        "s"
      ],
      [
        "e",
        "s"
      ],
      [
        "a",
        "r"
      ],
      [
        "Ġ",
        "b"
      ],
      [
        "Ġo",
        "f"
      ],
      [
        "a",
        "n"
      ],
      [
        "Ġ",
        "in"
      ],
      [
        "a",
        "l"
      ],
      [
        "in",
        "g"
      ],
      [
        "Ġ",
        "p"
      ],
      [
        "a",
        "s"
      ],
      [
        "Ġa",
        "nd"
      ],
      [
        "Ġt",
        "o"
      ],
      [
        "i",
        "c"
      ],
      [
        "r",
        "o"
      ],
      [
        "Ġ",
        "m"
      ],
      [
        "Ġ",
        "d"
      ],
      [
        "Ġ",
        "h"
      ],
      [
        "i",
        "on"
      ],
      [
        "l",
        "e"
      ],
      [
        "o",
        "u"
      ],
      [
        "Ġ",
        "T"
      ],
      [
        "Ġ",
        "re"
      ],
      [
        "i",
        "l"
      ],
      [
        "Ġ",
        "S"
      ],
      [
        "en",
        "t"
      ],
      [
        "Ġ",
        "\""
      ],
      [
        "Ġ",
        "1"
      ],
      [
        "Ġ",
        "A"
      ],
      [
        "Ġt",
        "h"
      ],
      [
        "s",
        "t"
      ],
      [
        "e",
        "l"
      ],
      [
        "Ġ",
        "l"
      ],
      [
        "Ġ",
        "@"
      ],
      [
        "Ġ",
        "C"
      ],
      [
        "o",
        "m"
      ],
      [
        "Ġ",
        "e"
      ],
      [
        "Ġ",
        "="
      ],
      [
        "a",
        "m"
      ],
      [
        "Ġ",
        "n"
      ],
      [
        "a",
        "d"
      ],
      [
        "a",
        "c"
      ],
      [
        "Ġw",
        "as"
      ],
      [
        "Ġ",
        "M"
      ],
      [
        "e",
        "c"
      ],
      [
        "Ġ",
        "on"
      ],
      [
        "Ġ",
        "B"
      ],
      [
        "l",
        "y"
      ],
      [
        "u",
        "r"
      ],
      [
        "Ġ",
        "'"
      ],
      [
        "e",
        "t"
      ],
      [
        "i",
        "d"
      ],
      [
        "o",
        "l"
      ],
      [
        "Ġ",
        "g"
      ],
      [
        "i",
        "m"
      ],
      [
        "-",
        "@"
      ],
      [
        "Ġ@",
        "-@"
      ],
      [
        "Ġf",
        "or"
      ],
      [
        "i",
        "r"
      ],
      [
        "i",
        "g"
      ],
      [
        "i",
        "v"
      ],
      [
        "o",
        "t"
      ],
      [
        "t",
        "er"
      ],
      [
        "u",
        "t"
      ],
      [
        "ĠT",
        "he"
      ],
      [
        "Ġ",
        "I"
      ],
      [
        "Ġ",
        "H"
      ],
      [
        "Ġa",
        "s"
      ],
      [
        "u",
        "s"
      ],
      [
        "o",
        "w"
      ],
      [
        "it",
        "h"
      ],
      [
        "a",
        "y"
      ],
      [
        "Ġs",
        "t"
      ],
      [
        "Ġ",
        "2"
      ],
      [
        "Ġ",
        "P"
      ],
      [
        "Ġ",
        "he"
      ],
      [
        "v",
        "er"
      ],
      [
        "at",
        "ion"
      ],
      [
        "Ġw",
        "ith"
      ],
      [
        "Ġb",
        "e"
      ],
      [
        "Ġth",
        "at"
      ],
      [
        "Ġ",
        "R"
      ],
      [
        "c",
        "e"
      ],
      [
        "u",
        "n"
      ],
      [
        "Ġ",
        "D"
      ],
      [
        "e",
        "m"
      ],
      [
        "Ġw",
        "h"
      ],
      [
        "c",
        "h"
      ],
      [
        "Ġb",
        "y"
      ],
      [
        "t",
        "h"
      ],
      [
        "Ġ",
        "W"
      ],
      [
        "Ġa",
        "l"
      ],
      [
        "Ġ",
        ")"
      ],
      [
        "Ġ",
        "F"
      ],
      [
        "Ġ",
        "("
      ],
      [
        "u",
        "l"
      ],
      [
        "Ġ",
        "is"
      ],
      [
        "Ġc",
        "on"
      ],
      [
        "er",
        "s"
      ],
      [
        "Ġa",
        "t"
      ],
      [
        "Ġ",
        "L"
      ],
      [
        "Ġ",
        "G"
      ],
      [
        "c",
        "t"
      ],
      [
        "r",
        "a"
      ],
      [
        "Ġ",
        "N"
      ],
      [
        "o",
        "s"
      ],
      [
        "Ġa",
        "n"
      ],
      [
        "Ġ1",
        "9"
      ],
      [
        "Ġ",
        "it"
      ],
      [
        "he",
        "r"
      ],
      [
        "ro",
        "m"
      ],
      [
        "a",
        "nd"
      ],
      [
        "u",
        "m"
      ],
      [
        "es",
        "t"
      ],
      [
        "0",
        "0"
      ],
      [
        "Ġ",
        "J"
      ],
      [
        "Ġh",
        "is"
      ],
      [
        "a",
        "g"
      ],
      [
        "a",
        "v"
      ],
      [
        "a",
        "in"
      ],
      [
        "Ġ",
        "E"
      ],
      [
        "r",
        "i"
      ],
      [
        "o",
        "d"
      ],
      [
        "Ġf",
        "rom"
      ],
      [
        "is",
        "t"
      ],
      [
        "Ġc",
        "om"
      ],
      [
        "Ġ",
        "v"
      ],
      [
        "Ġp",
        "ro"
      ],
      [
        "o",
        "p"
      ],
      [
        "il",
        "l"
      ],
      [
        "o",
        "re"
      ],
      [
        "Ġ",
        "O"
      ],
      [
        "i",
        "f"
      ],
      [
        "l",
        "d"
      ],
      [
        "u",
        "p"
      ],
      [
        "Ġ",
        "r"
      ],
      [
        "e",
        "w"
      ],
      [
        "er",
        "e"
      ],
      [
        "re",
        "s"
      ],
      [
        "ig",
        "h"
      ],
      [
        "i",
        "es"
      ],
      [
        "Ġd",
        "e"
      ],
      [
        "b",
        "er"
      ],
      [
        "ar",
        "t"
      ],
      [
        "ar",
        "d"
      ],
      [
        "or",
        "t"
      ],
      [
        "Ġs",
        "e"
      ],
      [
        "ic",
        "h"
      ],
      [
        "Ġw",
        "ere"
      ],
      [
        "at",
        "e"
      ],
      [
        "al",
        "l"
      ],
      [
        "a",
        "k"
      ],
      [
        "an",
        "t"
      ],
      [
        "o",
        "c"
      ],
      [
        "u",
        "d"
      ],
      [
        "a",
        "p"
      ],
      [
        "Ġe",
        "x"
      ],
      [
        "q",
        "u"
      ],
      [
        "on",
        "g"
      ],
      [
        "a",
        "b"
      ],
      [
        "Ġc",
        "h"
      ],
      [
        "Ġo",
        "r"
      ],
      [
        "g",
        "h"
      ],
      [
        "e",
        "ar"
      ],
      [
        "es",
        "s"
      ],
      [
        "at",
        "ed"
      ],
      [
        "Ġ",
        "K"
      ],
      [
        "Ġp",
        "l"
      ],
      [
        "Ġs",
        "h"
      ],
      [
        "it",
        "y"
      ],
      [
        "i",
        "p"
      ],
      [
        "iv",
        "e"
      ],
      [
        "am",
        "e"
      ],
      [
        "Ġ",
        "â"
      ],
      [
        "Ġh",
        "ad"
      ],
      [
        "ec",
        "t"
      ],
      [
        "Ġ",
        "U"
      ],
      [
        "ac",
        "k"
      ],
      [
        "ĠI",
        "n"
      ],
      [
        "Ġâ",
        "Ģ"
      ],
      [
        "Ġs",
        "u"
      ],
      [
        "as",
        "t"
      ],
      [
        "s",
        "e"
      ],
      [
        "re",
        "d"
      ],
      [
        "Ġ",
        "k"
      ],
      [
        "ĠS",
        "t"
      ],
      [
        "g",
        "e"
      ],
      [
        "Ġwh",
        "ich"
      ],
      [
        "ou",
        "r"
      ],
      [
        "m",
        "ent"
      ],
      [
        "Ġ",
        "le"
      ],
      [
        "u",
        "nd"
      ],
      [
        "Ġa",
        "re"
      ],
      [
        "o",
        "v"
      ],
      [
        "i",
        "an"
      ],
      [
        "i",
        "al"
      ],
      [
        "Ġn",
        "ot"
      ],
      [
        "el",
        "l"
      ],
      [
        "Ġs",
        "p"
      ],
      [
        "o",
        "st"
      ],
      [
        "Ġ",
        "y"
      ],
      [
        "igh",
        "t"
      ],
      [
        "i",
        "a"
      ],
      [
        "or",
        "d"
      ],
      [
        "u",
        "st"
      ],
      [
        "ar",
        "y"
      ],
      [
        "in",
        "e"
      ],
      [
        "t",
        "her"
      ],
      [
        "p",
        "t"
      ],
      [
        "r",
        "it"
      ],
      [
        "Ġ",
        "3"
      ],
      [
        "ou",
        "n"
      ],
      [
        "p",
        "p"
      ],
      [
        "ic",
        "al"
      ],
      [
        "av",
        "e"
      ],
      [
        "Ġ",
        "un"
      ],
      [
        "ĠC",
        "h"
      ],
      [
        "c",
        "c"
      ],
      [
        "Ġ2",
        "00"
      ],
      [
        "Ġin",
        "c"
      ],
      [
        "f",
        "ter"
      ],
      [
        "ou",
        "ld"
      ],
      [
        "Ġb",
        "ut"
      ],
      [
        "ir",
        "st"
      ],
      [
        "is",
        "h"
      ],
      [
        "t",
        "e"
      ],
      [
        "ou",
        "s"
      ],
      [
        "Ġ",
        "V"
      ],
      [
        "f",
        "f"
      ],
      [
        "ion",
        "s"
      ],
      [
        "s",
        "o"
      ],
      [
        "Ġcom",
        "p"
      ],
      [
        "id",
        "e"
      ],
      [
        "Ġ2",
        "0"
      ],
      [
        "Ġ",
        "ro"
      ],
      [
        "u",
        "re"
      ],
      [
        "Ġw",
        "he"
      ],
      [
        "u",
        "b"
      ],
      [
        "Ġa",
        "r"
      ],
      [
        "Ġcon",
        "t"
      ],
      [
        "i",
        "e"
      ],
      [
        "Ġ",
        ";"
      ],
      [
        "o",
        "g"
      ],
      [
        "ig",
        "n"
      ],
      [
        "Ġf",
        "irst"
      ],
      [
        "Ġc",
        "l"
      ],
      [
        "w",
        "o"
      ],
      [
        "Ġhe",
        "r"
      ],
      [
        "r",
        "y"
      ],
      [
        "u",
        "e"
      ],
      [
        "Ġit",
        "s"
      ],
      [
        "as",
        "s"
      ],
      [
        "Ġthe",
        "ir"
      ],
      [
        "or",
        "m"
      ],
      [
        "ĠâĢ",
        "ĵ"
      ],
      [
        "o",
        "k"
      ],
      [
        "or",
        "k"
      ],
      [
        "Ġin",
        "t"
      ],
      [
        "Ġre",
        "s"
      ],
      [
        "Ġ",
        ":"
      ],
      [
        "at",
        "er"
      ],
      [
        "Ġal",
        "so"
      ],
      [
        "Ġa",
        "b"
      ],
      [
        "on",
        "d"
      ],
      [
        "Ġa",
        "d"
      ],
      [
        "om",
        "e"
      ],
      [
        "ou",
        "t"
      ],
      [
        "r",
        "an"
      ],
      [
        "ĠH",
        "e"
      ],
      [
        "m",
        "er"
      ],
      [
        "i",
        "re"
      ],
      [
        "he",
        "d"
      ],
      [
        "r",
        "u"
      ],
      [
        "Ġ",
        "us"
      ],
      [
        "ag",
        "e"
      ],
      [
        "d",
        "u"
      ],
      [
        "Ġ",
        "4"
      ],
      [
        "im",
        "e"
      ],
      [
        "T",
        "he"
      ],
      [
        "l",
        "ow"
      ],
      [
        "Ġp",
        "er"
      ],
      [
        "p",
        "er"
      ],
      [
        "Ġwh",
        "o"
      ],
      [
        "Ġ",
        "5"
      ],
      [
        "Ġon",
        "e"
      ],
      [
        "Ġh",
        "ave"
      ],
      [
        "Ġs",
        "c"
      ],
      [
        "p",
        "l"
      ],
      [
        "al",
        "ly"
      ],
      [
        "ow",
        "n"
      ],
      [
        "i",
        "le"
      ],
      [
        "Ġre",
        "c"
      ],
      [
        "t",
        "ed"
      ],
      [
        "Ġ1",
        "8"
      ],
      [
        ".",
        "@"
      ],
      [
        "Ġ@",
        ".@"
      ],
      [
        "Ġt",
        "wo"
      ],
      [
        "it",
        "ion"
      ],
      [
        "u",
        "gh"
      ],
      [
        "ĠT",
        "h"
      ],
      [
        "i",
        "z"
      ],
      [
        "re",
        "e"
      ],
      [
        "en",
        "ce"
      ],
      [
        "t",
        "s"
      ],
      [
        "ur",
        "ing"
      ],
      [
        "p",
        "ort"
      ],
      [
        "Ġbe",
        "en"
      ],
      [
        "Ġp",
        "art"
      ],
      [
        "Ġb",
        "ec"
      ],
      [
        "ic",
        "e"
      ],
      [
        "Ġh",
        "as"
      ],
      [
        "Ġa",
        "g"
      ],
      [
        "Ġa",
        "pp"
      ],
      [
        "ou",
        "gh"
      ],
      [
        ",",
        "@"
      ],
      [
        "Ġ@",
        ",@"
      ],
      [
        "Ġ20",
        "1"
      ],
      [
        "Ġ",
        "j"
      ],
      [
        "Ġ",
        "en"
      ],
      [
        "Ġd",
        "is"
      ],
      [
        "l",
        "ud"
      ],
      [
        "k",
        "e"
      ],
      [
        "Ġo",
        "ver"
      ],
      [
        "Ġs",
        "er"
      ],
      [
        "Ġth",
        "is"
      ],
      [
        "or",
        "y"
      ],
      [
        "el",
        "y"
      ],
      [
        "Ġy",
        "ear"
      ],
      [
        "ation",
        "s"
      ],
      [
        "em",
        "ber"
      ],
      [
        "re",
        "n"
      ],
      [
        "ct",
        "ion"
      ],
      [
        "ou",
        "nd"
      ],
      [
        "ac",
        "h"
      ],
      [
        "Ġof",
        "f"
      ],
      [
        "Ġa",
        "fter"
      ],
      [
        "r",
        "ic"
      ],
      [
        "Ġ",
        "up"
      ],
      [
        "l",
        "and"
      ],
      [
        "ĠA",
        "l"
      ],
      [
        "Ġpl",
        "ay"
      ],
      [
        "Ġd",
        "es"
      ],
      [
        "ac",
        "e"
      ],
      [
        "ar",
        "k"
      ],
      [
        "o",
        "ver"
      ],
      [
        "an",
        "ce"
      ],
      [
        "Ġo",
        "ut"
      ],
      [
        "Ġthe",
        "y"
      ],
      [
        "Ġm",
        "an"
      ],
      [
        "ad",
        "e"
      ],
      [
        "Ġt",
        "e"
      ],
      [
        "ĠI",
        "t"
      ],
      [
        "ac",
        "t"
      ],
      [
        "Ġo",
        "ther"
      ],
      [
        "i",
        "b"
      ],
      [
        "m",
        "an"
      ],
      [
        "ul",
        "t"
      ],
      [
        "Ġ",
        "im"
      ],
      [
        "p",
        "h"
      ],
      [
        "res",
        "s"
      ],
      [
        "Ġinc",
        "lud"
      ],
      [
        "c",
        "ed"
      ],
      [
        "en",
        "s"
      ],
      [
        "ur",
        "n"
      ],
      [
        "Ġ",
        "Y"
      ],
      [
        "w",
        "n"
      ],
      [
        "Ġw",
        "ould"
      ],
      [
        "in",
        "d"
      ],
      [
        "Ġt",
        "ime"
      ],
      [
        "on",
        "e"
      ],
      [
        "Ġp",
        "re"
      ],
      [
        "Ġint",
        "o"
      ],
      [
        "v",
        "el"
      ],
      [
        "w",
        "ard"
      ],
      [
        "w",
        "e"
      ],
      [
        "Ġw",
        "e"
      ],
      [
        "Ġh",
        "im"
      ],
      [
        "it",
        "e"
      ],
      [
        "o",
        "in"
      ],
      [
        "at",
        "es"
      ],
      [
        "ĠU",
        "n"
      ],
      [
        "Ġ",
        "6"
      ],
      [
        "Ġs",
        "he"
      ],
      [
        "l",
        "es"
      ],
      [
        "Ġe",
        "v"
      ],
      [
        "il",
        "m"
      ],
      [
        "Ġat",
        "t"
      ],
      [
        "as",
        "ed"
      ],
      [
        "Ġn",
        "e"
      ],
      [
        "it",
        "ed"
      ],
      [
        "ab",
        "le"
      ],
      [
        "e",
        "nd"
      ],
      [
        "i",
        "ed"
      ],
      [
        "as",
        "e"
      ],
      [
        "am",
        "p"
      ],
      [
        "Ġcom",
        "m"
      ],
      [
        "or",
        "s"
      ],
      [
        "n",
        "e"
      ],
      [
        "Ġin",
        "ter"
      ],
      [
        "a",
        "re"
      ],
      [
        "ro",
        "ugh"
      ],
      [
        "o",
        "y"
      ],
      [
        "on",
        "s"
      ],
      [
        "oun",
        "t"
      ],
      [
        "e",
        "p"
      ],
      [
        "f",
        "orm"
      ],
      [
        "Ġal",
        "l"
      ],
      [
        "os",
        "e"
      ],
      [
        "o",
        "od"
      ],
      [
        "an",
        "g"
      ],
      [
        "Ġm",
        "ore"
      ],
      [
        "c",
        "es"
      ],
      [
        "Ġw",
        "ork"
      ],
      [
        "Ġ",
        "7"
      ],
      [
        "a",
        "il"
      ],
      [
        "ol",
        "d"
      ],
      [
        "a",
        "w"
      ],
      [
        "er",
        "ed"
      ],
      [
        "ing",
        "s"
      ],
      [
        "v",
        "e"
      ],
      [
        "il",
        "d"
      ],
      [
        "Ġn",
        "ew"
      ],
      [
        "Ġs",
        "ec"
      ],
      [
        "Ġb",
        "et"
      ],
      [
        "in",
        "al"
      ],
      [
        "Ġf",
        "e"
      ],
      [
        "Ġf",
        "ilm"
      ],
      [
        "ic",
        "k"
      ],
      [
        "Ġwhe",
        "n"
      ],
      [
        "v",
        "i"
      ],
      [
        "ent",
        "s"
      ],
      [
        "w",
        "ay"
      ],
      [
        "at",
        "t"
      ],
      [
        "f",
        "t"
      ],
      [
        "is",
        "s"
      ],
      [
        "a",
        "us"
      ],
      [
        "f",
        "er"
      ],
      [
        "g",
        "an"
      ],
      [
        "Ġ",
        "8"
      ],
      [
        "re",
        "at"
      ],
      [
        "ri",
        "b"
      ],
      [
        "Ġcon",
        "s"
      ],
      [
        "ĠA",
        "n"
      ],
      [
        "ro",
        "und"
      ],
      [
        "ak",
        "e"
      ],
      [
        "Ġre",
        "m"
      ],
      [
        "v",
        "ed"
      ],
      [
        "ĠM",
        "ar"
      ],
      [
        "Ġt",
        "r"
      ],
      [
        "ĠS",
        "e"
      ],
      [
        "Ġd",
        "ec"
      ],
      [
        "as",
        "on"
      ],
      [
        "ĠA",
        "r"
      ],
      [
        "an",
        "s"
      ],
      [
        "Ġd",
        "uring"
      ],
      [
        "Ġ",
        "und"
      ],
      [
        "or",
        "th"
      ],
      [
        "ub",
        "l"
      ],
      [
        "h",
        "ip"
      ],
      [
        "Ġ",
        "9"
      ],
      [
        "Ġag",
        "ain"
      ],
      [
        "Ġm",
        "ost"
      ],
      [
        "Ġg",
        "ame"
      ],
      [
        "ot",
        "h"
      ],
      [
        "Ġthe",
        "m"
      ],
      [
        "Ġon",
        "ly"
      ],
      [
        "Ġp",
        "r"
      ],
      [
        "at",
        "h"
      ],
      [
        "we",
        "en"
      ],
      [
        "i",
        "x"
      ],
      [
        "Ġ19",
        "9"
      ],
      [
        "Ġe",
        "ar"
      ],
      [
        "ol",
        "low"
      ],
      [
        "Ġth",
        "an"
      ],
      [
        "o",
        "b"
      ],
      [
        "ro",
        "p"
      ],
      [
        "Ġs",
        "up"
      ],
      [
        "s",
        "s"
      ],
      [
        "ation",
        "al"
      ],
      [
        "f",
        "ore"
      ],
      [
        "Ġab",
        "out"
      ],
      [
        "Ġpro",
        "du"
      ],
      [
        "u",
        "g"
      ],
      [
        "Ġc",
        "ent"
      ],
      [
        "ter",
        "n"
      ],
      [
        "Ġre",
        "t"
      ],
      [
        "Ġch",
        "ar"
      ],
      [
        "Ġs",
        "ong"
      ],
      [
        "Ġc",
        "an"
      ],
      [
        "ĠN",
        "ew"
      ],
      [
        "ou",
        "th"
      ],
      [
        "Ġbet",
        "ween"
      ],
      [
        "Ġl",
        "ater"
      ],
      [
        "Ġre",
        "le"
      ],
      [
        "Ġund",
        "er"
      ],
      [
        "ic",
        "t"
      ],
      [
        "Ġk",
        "n"
      ],
      [
        "Ġth",
        "ree"
      ],
      [
        "t",
        "on"
      ],
      [
        "r",
        "on"
      ],
      [
        "Ġc",
        "ol"
      ],
      [
        "Ġa",
        "ct"
      ],
      [
        "Ġ",
        "00"
      ],
      [
        "h",
        "n"
      ],
      [
        "al",
        "s"
      ],
      [
        "Ġ",
        "qu"
      ],
      [
        "Ġth",
        "rough"
      ],
      [
        "or",
        "ld"
      ],
      [
        "o",
        "ok"
      ],
      [
        "Ġn",
        "um"
      ],
      [
        "Ġs",
        "o"
      ],
      [
        "Ġm",
        "e"
      ],
      [
        "Ġa",
        "cc"
      ],
      [
        "Ġre",
        "l"
      ],
      [
        "Ġwh",
        "ile"
      ],
      [
        "ĠE",
        "n"
      ],
      [
        "Ġ",
        "ra"
      ],
      [
        "Ġe",
        "nd"
      ],
      [
        "mer",
        "ic"
      ],
      [
        "I",
        "n"
      ],
      [
        "le",
        "ct"
      ],
      [
        "Ġf",
        "l"
      ],
      [
        "e",
        "ver"
      ],
      [
        "ter",
        "s"
      ],
      [
        "ĠA",
        "meric"
      ],
      [
        "oc",
        "k"
      ],
      [
        "Ġp",
        "os"
      ],
      [
        "r",
        "al"
      ],
      [
        "ĠL",
        "e"
      ],
      [
        "Ġsu",
        "b"
      ],
      [
        "n",
        "ing"
      ],
      [
        "ul",
        "ar"
      ],
      [
        "Ġas",
        "s"
      ],
      [
        "at",
        "ing"
      ],
      [
        "Ġ",
        "ver"
      ],
      [
        "Ġwhe",
        "re"
      ],
      [
        "Ġd",
        "ay"
      ],
      [
        "c",
        "k"
      ],
      [
        "Ġre",
        "g"
      ],
      [
        "Ġsec",
        "ond"
      ],
      [
        "en",
        "er"
      ],
      [
        "a",
        "id"
      ],
      [
        "Ġb",
        "u"
      ],
      [
        "Ġm",
        "ade"
      ],
      [
        "am",
        "es"
      ],
      [
        "is",
        "ion"
      ],
      [
        "iv",
        "ed"
      ],
      [
        "ĠR",
        "e"
      ],
      [
        "Ġp",
        "e"
      ],
      [
        "Ġrec",
        "ord"
      ],
      [
        "ĠC",
        "om"
      ],
      [
        "Ġde",
        "f"
      ],
      [
        "b",
        "um"
      ],
      [
        "Ġf",
        "our"
      ],
      [
        "Ġg",
        "ro"
      ],
      [
        "Ġf",
        "ollow"
      ],
      [
        "Ġse",
        "ason"
      ],
      [
        "s",
        "on"
      ],
      [
        "Ġ00",
        "0"
      ],
      [
        "Ġe",
        "p"
      ],
      [
        "Ġfor",
        "m"
      ],
      [
        "Ġs",
        "ome"
      ],
      [
        "Ġsu",
        "ch"
      ],
      [
        "Ġa",
        "m"
      ],
      [
        "o",
        "ol"
      ],
      [
        "is",
        "hed"
      ],
      [
        "Ġm",
        "ov"
      ],
      [
        "Ġbe",
        "fore"
      ],
      [
        "Ġt",
        "ra"
      ],
      [
        "he",
        "s"
      ],
      [
        "Ġm",
        "us"
      ],
      [
        "Ġw",
        "rit"
      ],
      [
        "Ġthe",
        "re"
      ],
      [
        "ic",
        "s"
      ],
      [
        "i",
        "o"
      ],
      [
        "Ġsp",
        "ec"
      ],
      [
        "i",
        "el"
      ],
      [
        "i",
        "ke"
      ],
      [
        "Ġ1",
        "0"
      ],
      [
        "ĠS",
        "p"
      ],
      [
        "Ġyear",
        "s"
      ],
      [
        "Ġs",
        "y"
      ],
      [
        "od",
        "e"
      ],
      [
        "Ġte",
        "am"
      ],
      [
        "u",
        "al"
      ],
      [
        "id",
        "ent"
      ],
      [
        "Ġ",
        "/"
      ],
      [
        "Ġl",
        "ar"
      ],
      [
        "ĠO",
        "n"
      ],
      [
        "Ġal",
        "bum"
      ],
      [
        "Ġin",
        "d"
      ],
      [
        "he",
        "n"
      ],
      [
        "il",
        "y"
      ],
      [
        "ow",
        "ever"
      ],
      [
        "ĠJ",
        "o"
      ],
      [
        "Ġ",
        "ent"
      ],
      [
        "Ġus",
        "ed"
      ],
      [
        "Ġc",
        "all"
      ],
      [
        "an",
        "k"
      ],
      [
        "Ġs",
        "ur"
      ],
      [
        "if",
        "ic"
      ],
      [
        "l",
        "l"
      ],
      [
        "Ġa",
        "c"
      ],
      [
        "ur",
        "y"
      ],
      [
        "Ġh",
        "igh"
      ],
      [
        "Ġp",
        "ubl"
      ],
      [
        "Ġbe",
        "ing"
      ],
      [
        "or",
        "n"
      ],
      [
        "ĠTh",
        "is"
      ],
      [
        "Ġep",
        "is"
      ],
      [
        "ĠS",
        "h"
      ],
      [
        "ain",
        "ed"
      ],
      [
        "Ġthe",
        "n"
      ],
      [
        "t",
        "en"
      ],
      [
        "vel",
        "op"
      ],
      [
        "a",
        "j"
      ],
      [
        "Ġd",
        "o"
      ],
      [
        "Ġl",
        "oc"
      ],
      [
        "Ġex",
        "p"
      ],
      [
        "if",
        "e"
      ],
      [
        "r",
        "is"
      ],
      [
        "Ġagain",
        "st"
      ],
      [
        "Ġ1",
        "7"
      ],
      [
        "Ġin",
        "v"
      ],
      [
        "Ġb",
        "l"
      ],
      [
        "Ġ",
        "0"
      ],
      [
        "Ġp",
        "res"
      ],
      [
        "Ġsh",
        "ow"
      ],
      [
        "ot",
        "her"
      ],
      [
        "Ġnum",
        "ber"
      ],
      [
        "Ġchar",
        "ac"
      ],
      [
        "i",
        "ous"
      ],
      [
        "Ġse",
        "ver"
      ],
      [
        "Ġad",
        "d"
      ],
      [
        "al",
        "e"
      ],
      [
        "Ġc",
        "o"
      ],
      [
        "Ġs",
        "et"
      ],
      [
        "in",
        "ce"
      ],
      [
        "j",
        "ect"
      ],
      [
        "ar",
        "s"
      ],
      [
        "Ġbec",
        "ame"
      ],
      [
        "Ġre",
        "ce"
      ],
      [
        "aus",
        "e"
      ],
      [
        "e",
        "k"
      ],
      [
        "Ġle",
        "ad"
      ],
      [
        "Ġper",
        "form"
      ],
      [
        "ĠB",
        "rit"
      ],
      [
        "Ġn",
        "o"
      ],
      [
        "Ġinclud",
        "ing"
      ],
      [
        "Ġs",
        "ing"
      ],
      [
        "at",
        "her"
      ],
      [
        "in",
        "s"
      ],
      [
        "in",
        "es"
      ],
      [
        "ĠâĢ",
        "Ķ"
      ],
      [
        "Ġf",
        "ound"
      ],
      [
        "ĠA",
        "t"
      ],
      [
        "a",
        "ir"
      ],
      [
        "ran",
        "s"
      ],
      [
        "Ġw",
        "ell"
      ],
      [
        "Ġm",
        "on"
      ],
      [
        "Ġre",
        "p"
      ],
      [
        "ĠUn",
        "ited"
      ],
      [
        "Ġp",
        "ol"
      ],
      [
        "ĠA",
        "s"
      ],
      [
        "Ġb",
        "ack"
      ],
      [
        "Ġb",
        "oth"
      ],
      [
        "i",
        "er"
      ],
      [
        "Ġc",
        "ap"
      ],
      [
        "Ġser",
        "ies"
      ],
      [
        "Ġ1",
        "5"
      ],
      [
        "Ġ1",
        "2"
      ],
      [
        "o",
        "ber"
      ],
      [
        "Ġ19",
        "8"
      ],
      [
        "r",
        "am"
      ],
      [
        "ĠS",
        "c"
      ],
      [
        "i",
        "k"
      ],
      [
        "ow",
        "er"
      ],
      [
        "Ġsh",
        "ip"
      ],
      [
        "em",
        "ent"
      ],
      [
        "it",
        "s"
      ],
      [
        "er",
        "t"
      ],
      [
        "i",
        "red"
      ],
      [
        "u",
        "res"
      ],
      [
        "le",
        "y"
      ],
      [
        "iv",
        "ers"
      ],
      [
        "p",
        "en"
      ],
      [
        "Ġm",
        "ain"
      ],
      [
        "Ġm",
        "in"
      ],
      [
        "Ġ19",
        "4"
      ],
      [
        "i",
        "et"
      ],
      [
        "d",
        "er"
      ],
      [
        "over",
        "n"
      ],
      [
        "Ġd",
        "id"
      ],
      [
        "v",
        "en"
      ],
      [
        "Ġg",
        "o"
      ],
      [
        "l",
        "ed"
      ],
      [
        "Ġc",
        "re"
      ],
      [
        "el",
        "f"
      ],
      [
        "ol",
        "og"
      ],
      [
        "Ġim",
        "p"
      ],
      [
        "Ġde",
        "velop"
      ],
      [
        "Ġm",
        "et"
      ],
      [
        "a",
        "z"
      ],
      [
        "ĠS",
        "he"
      ],
      [
        "it",
        "ies"
      ],
      [
        "an",
        "e"
      ],
      [
        "ĠC",
        "on"
      ],
      [
        "Ġl",
        "ong"
      ],
      [
        "iv",
        "er"
      ],
      [
        "an",
        "y"
      ],
      [
        "is",
        "ed"
      ],
      [
        "er",
        "m"
      ],
      [
        "ĠEn",
        "g"
      ],
      [
        "t",
        "ing"
      ],
      [
        "u",
        "ch"
      ],
      [
        "a",
        "red"
      ],
      [
        "ir",
        "d"
      ],
      [
        "Ġe",
        "m"
      ],
      [
        "Ġm",
        "ill"
      ],
      [
        "f",
        "ul"
      ],
      [
        "Ġa",
        "ir"
      ],
      [
        "Ġm",
        "at"
      ],
      [
        "Ġepis",
        "ode"
      ],
      [
        "te",
        "nd"
      ],
      [
        "ire",
        "ct"
      ],
      [
        "Ġs",
        "aid"
      ],
      [
        "Ġst",
        "ud"
      ],
      [
        "Ġman",
        "y"
      ],
      [
        "ut",
        "e"
      ],
      [
        "Ġb",
        "ro"
      ],
      [
        "as",
        "h"
      ],
      [
        "at",
        "ive"
      ],
      [
        "Ġde",
        "p"
      ],
      [
        "Ġc",
        "ar"
      ],
      [
        "Ġc",
        "ould"
      ],
      [
        "Ġor",
        "ig"
      ],
      [
        "Ġ1",
        "6"
      ],
      [
        "Ġw",
        "ar"
      ],
      [
        "Ġcont",
        "in"
      ],
      [
        "an",
        "n"
      ],
      [
        "Ġsever",
        "al"
      ],
      [
        "a",
        "h"
      ],
      [
        "th",
        "ough"
      ],
      [
        "Ġd",
        "if"
      ],
      [
        "iel",
        "d"
      ],
      [
        "ĠJo",
        "hn"
      ],
      [
        "Ġin",
        "st"
      ],
      [
        "Ġp",
        "op"
      ],
      [
        "ou",
        "se"
      ],
      [
        "ĠAmeric",
        "an"
      ],
      [
        "is",
        "e"
      ],
      [
        "em",
        "b"
      ],
      [
        "Ġkn",
        "own"
      ],
      [
        "t",
        "y"
      ],
      [
        "ĠI",
        "nd"
      ],
      [
        "ĠC",
        "l"
      ],
      [
        "Ġ19",
        "7"
      ],
      [
        "ĠW",
        "h"
      ],
      [
        "u",
        "ally"
      ],
      [
        "t",
        "il"
      ],
      [
        "Ġcon",
        "c"
      ],
      [
        "Ġ1",
        "1"
      ],
      [
        "Ġ19",
        "6"
      ],
      [
        "i",
        "am"
      ],
      [
        "vi",
        "ew"
      ],
      [
        "ĠA",
        "ust"
      ],
      [
        "ers",
        "on"
      ],
      [
        "Ġo",
        "b"
      ],
      [
        "u",
        "ed"
      ],
      [
        "Ġs",
        "m"
      ],
      [
        "Ġret",
        "urn"
      ],
      [
        "er",
        "man"
      ],
      [
        "Ġbe",
        "gan"
      ],
      [
        "Ġan",
        "y"
      ],
      [
        "ĠW",
        "ar"
      ],
      [
        "Ġcomp",
        "le"
      ],
      [
        "Ġdes",
        "ign"
      ],
      [
        "Ġdes",
        "c"
      ],
      [
        "Ġs",
        "ign"
      ],
      [
        "op",
        "le"
      ],
      [
        "ch",
        "ool"
      ],
      [
        "ro",
        "ss"
      ],
      [
        "m",
        "y"
      ],
      [
        "is",
        "m"
      ],
      [
        "o",
        "ot"
      ],
      [
        "Ġ",
        "est"
      ],
      [
        "cc",
        "ess"
      ],
      [
        "Ġt",
        "rans"
      ],
      [
        "er",
        "n"
      ],
      [
        "Ġ",
        "Z"
      ],
      [
        "Ġpro",
        "v"
      ],
      [
        "ak",
        "ing"
      ],
      [
        "Ġfe",
        "at"
      ],
      [
        "id",
        "ed"
      ]
    ]
  }
}