{
  "version": "1.0",
  "truncation": null,
  "padding": null,
  "added_tokens": [
    {
      "id": 0,
      "content": "[UNK]",
      "single_word": false,
      "lstrip": false,
      "rstrip": false,
      "normalized": false,
      "special": true
    },
    {
      "id": 1,
      "content": "[PAD]",
      "single_word": false,
      "lstrip": false,
      "rstrip": false,
      "normalized": false,
      "special": true
    },
    {
      "id": 2,
      "content": "[CLS]",
      "single_word": false,
      "lstrip": false,
      "rstrip": false,
      "normalized": false,
      "special": true
    },
    {
      "id": 3,
      "content": "[SEP]",
      "single_word": false,
      "lstrip": false,
      "rstrip": false,
      "normalized": false,
      "special": true
    },
    {
      "id": 4,
      "content": "[MASK]",
      "single_word": false,
      "lstrip": false,
      "rstrip": false,
      "normalized": false,
      "special": true
    }
  ],
  "normalizer": null,
  "pre_tokenizer": {
    "type": "ByteLevel",
    "add_prefix_space": false,
    "trim_offsets": true,
    "use_regex": true
  },
  "post_processor": null,
  "decoder": {
    "type": "ByteLevel",
    "add_prefix_space": true,
    "trim_offsets": true,
    "use_regex": true
  },
  "model": {
    "type": "BPE",
    "dropout": null,
    "unk_token": "[UNK]",
    "continuing_subword_prefix": null,
    "end_of_word_suffix": null,
    "fuse_unk": false,
    "byte_fallback": false,
    "ignore_merges": false,
    "vocab": {
      "[UNK]": 0,
      "[PAD]": 1,
      "[CLS]": 2,
      "[SEP]": 3,
      "[MASK]": 4,
      "!": 5,
      "\"": 6,
      "#": 7,
      "$": 8,
      "%": 9,
      "&": 10,
      "'": 11,
      "(": 12,
      ")": 13,
      "*": 14,
      "+": 15,
      ",": 16,
      "-": 17,
      ".": 18,
      "/": 19,
      "0": 20,
      "1": 21,
      "2": 22,
      "3": 23,
      "4": 24,
      "5": 25,
      "6": 26,
      "7": 27,
      "8": 28,
      "9": 29,
      ":": 30,
      ";": 31,
      "<": 32,
      "=": 33,
      ">": 34,
      "?": 35,
      "@": 36,
      "A": 37,
      "B": 38,
      "C": 39,
      "D": 40,
      "E": 41,
      "F": 42,
      "G": 43,
      "H": 44,
      "I": 45,
      "J": 46,
      "K": 47,
      "L": 48,
      "M": 49,
      "N": 50,
      "O": 51,
      "P": 52,
      "Q": 53,
      "R": 54,
      "S": 55,
      "T": 56,
      "U": 57,
      "V": 58,
      "W": 59,
      "X": 60,
      "Y": 61,
      "Z": 62,
      "[": 63,
      "\\": 64,
      "]": 65,
      "^": 66,
      "_": 67,
      "`": 68,
      "a": 69,
      "b": 70,
      "c": 71,
      "d": 72,
      "e": 73,
      "f": 74,
      "g": 75,
      "h": 76,
      "i": 77,
      "j": 78,
      "k": 79,
      "l": 80,
      "m": 81,
      "n": 82,
      "o": 83,
      "p": 84,
      "q": 85,
      "r": 86,
      "s": 87,
      "t": 88,
      "u": 89,
      "v": 90,
      "w": 91,
      "x": 92,
      "y": 93,
      "z": 94,
      "{": 95,
      "|": 96,
      "}": 97,
      "~": 98,
      "¡": 99,
      "¢": 100,
      "£": 101,
      "¤": 102,
      "¥": 103,
      "¦": 104,
      "§": 105,
      "¨": 106,
      "©": 107,
      "ª": 108,
      "«": 109,
      "¬": 110,
      "®": 111,
      "¯": 112,
      "°": 113,
      "±": 114,
      "²": 115,
      "³": 116,
      "´": 117,
      "µ": 118,
      "¶": 119,
      "·": 120,
      "¸": 121,
      "¹": 122,
      "º": 123,
      "»": 124,
      "¼": 125,
      "½": 126,
      "¾": 127,
      "¿": 128,
      "Â": 129,
      "Ã": 130,
      "Ä": 131,
      "Å": 132,
      "Æ": 133,
      "Ç": 134,
      "È": 135,
      "É": 136,
      "Ê": 137,
      "Ë": 138,
      "Ì": 139,
      "Í": 140,
      "Î": 141,
      "Ï": 142,
      "Ð": 143,
      "Ñ": 144,
      "Ò": 145,
      "Ó": 146,
      "Ô": 147,
      "Õ": 148,
      "Ö": 149,
      "×": 150,
      "Ø": 151,
      "Ù": 152,
      "Ú": 153,
      "Û": 154,
      "Ü": 155,
      "Ý": 156,
      "à": 157,
      "á": 158,
      "â": 159,
      "ã": 160,
      "ä": 161,
      "å": 162,
      "æ": 163,
      "ç": 164,
      "è": 165,
      "é": 166,
      "ê": 167,
      "ë": 168,
      "ì": 169,
      "í": 170,
      "ï": 171,
      "ð": 172,
      "Ċ": 173,
      "Ġ": 174,
      "Ģ": 175,
      "ģ": 176,
      "Ĥ": 177,
      "ĥ": 178,
      "Ħ": 179,
      "ħ": 180,
      "Ĩ": 181,
      "ĩ": 182,
      "Ī": 183,
      "ī": 184,
      "Ĭ": 185,
      "ĭ": 186,
      "Į": 187,
      "į": 188,
      "İ": 189,
      "ı": 190,
      "Ĳ": 191,
      "ĳ": 192,
      "Ĵ": 193,
      "ĵ": 194,
      "Ķ": 195,
      "ķ": 196,
      "ĸ": 197,
      "Ĺ": 198,
      "ĺ": 199,
      "Ļ": 200,
      "ļ": 201,
      "Ľ": 202,
      "ľ": 203,
      "Ŀ": 204,
      "ŀ": 205,
      "Ł": 206,
      "ł": 207,
      "Ń": 208,
      "Ġt": 209,
      "he": 210,
      "Ġa": 211,
      "in": 212,
      "Ġthe": 213,
      "er": 214,
      "on": 215,
      "Ġ,": 216,
      "re": 217,
      "Ġs": 218,
      "ed": 219,
      "Ġw": 220,
      "Ġo": 221,
      "nd": 222,
      "at": 223,
      "Ġ.": 224,
      "or": 225,
      "en": 226,
      "Ġc": 227,
      "it": 228,
      "Ġf": 229,
      "is": 230,
      "es": 231,
      "ar": 232,
      "Ġb": 233,
      "Ġof": 234,
      "an": 235,
      "Ġin": 236,
      "al": 237,
      "ing": 238,
      "Ġp": 239,
      "as": 240,
      "Ġand": 241,
      "Ġto": 242,
      "ic": 243,
      "ro": 244,
      "Ġm": 245,
      "Ġd": 246,
      "Ġh": 247,
      "ion": 248,
      "le": 249,
      "ou": 250,
      "ĠT": 251,
      "Ġre": 252,
      "il": 253,
      "ĠS": 254,
      "ent": 255,
      "Ġ\"": 256,
      "Ġ1": 257,
      "ĠA": 258,
      "Ġth": 259,
      "st": 260,
      "el": 261,
      "Ġl": 262,
      "Ġ@": 263,
      "ĠC": 264,
      "om": 265,
      "Ġe": 266,
      "Ġ=": 267,
      "am": 268,
      "Ġn": 269,
      "ad": 270,
      "ac": 271,
      "Ġwas": 272,
      "ĠM": 273,
      "ec": 274,
      "Ġon": 275,
      "ĠB": 276,
      "ly": 277,
      "ur": 278,
      "Ġ'": 279,
      "et": 280,
      "id": 281,
      "ol": 282,
      "Ġg": 283,
      "im": 284,
      "-@": 285,
      "Ġ@-@": 286,
      "Ġfor": 287,
      "ir": 288,
      "ig": 289,
      "iv": 290,
      "ot": 291,
      "ter": 292,
      "ut": 293,
      "ĠThe": 294,
      "ĠI": 295,
      "ĠH": 296,
      "Ġas": 297,
      "us": 298,
      "ow": 299,
      "ith": 300,
      "ay": 301,
      "Ġst": 302,
      "Ġ2": 303,
      "ĠP": 304,
      "Ġhe": 305,
      "ver": 306,
      "ation": 307,
      "Ġwith": 308,
      "Ġbe": 309,
      "Ġthat": 310,
      "ĠR": 311,
      "ce": 312,
      "un": 313,
      "ĠD": 314,
      "em": 315,
      "Ġwh": 316,
      "ch": 317,
      "Ġby": 318,
      "th": 319,
      "ĠW": 320,
      "Ġal": 321,
      "Ġ)": 322,
      "ĠF": 323,
      "Ġ(": 324,
      "ul": 325,
      "Ġis": 326,
      "Ġcon": 327,
      "ers": 328,
      "Ġat": 329,
      "ĠL": 330,
      "ĠG": 331,
      "ct": 332,
      "ra": 333,
      "ĠN": 334,
      "os": 335,
      "Ġan": 336,
      "Ġ19": 337,
      "Ġit": 338,
      "her": 339,
      "rom": 340,
      "and": 341,
      "um": 342,
      "est": 343,
      "00": 344,
      "ĠJ": 345,
      "Ġhis": 346,
      "ag": 347,
      "av": 348,
      "ain": 349,
      "ĠE": 350,
      "ri": 351,
      "od": 352,
      "Ġfrom": 353,
      "ist": 354,
      "Ġcom": 355,
      "Ġv": 356,
      "Ġpro": 357,
      "op": 358,
      "ill": 359,
      "ore": 360,
      "ĠO": 361,
      "if": 362,
      "ld": 363,
      "up": 364,
      "Ġr": 365,
      "ew": 366,
      "ere": 367,
      "res": 368,
      "igh": 369,
      "ies": 370,
      "Ġde": 371,
      "ber": 372,
      "art": 373,
      "ard": 374,
      "ort": 375,
      "Ġse": 376,
      "ich": 377,
      "Ġwere": 378,
      "ate": 379,
      "all": 380,
      "ak": 381,
      "ant": 382,
      "oc": 383,
      "ud": 384,
      "ap": 385,
      "Ġex": 386,
      "qu": 387,
      "ong": 388,
      "ab": 389,
      "Ġch": 390,
      "Ġor": 391,
      "gh": 392,
      "ear": 393,
      "ess": 394,
      "ated": 395,
      "ĠK": 396,
      "Ġpl": 397,
      "Ġsh": 398,
      "ity": 399,
      "ip": 400,
      "ive": 401,
      "ame": 402,
      "Ġâ": 403,
      "Ġhad": 404,
      "ect": 405,
      "ĠU": 406,
      "ack": 407,
      "ĠIn": 408,
      "ĠâĢ": 409,
      "Ġsu": 410,
      "ast": 411,
      "se": 412,
      "red": 413,
      "Ġk": 414,
      "ĠSt": 415,
      "ge": 416,
      "Ġwhich": 417,
      "our": 418,
      "ment": 419,
      "Ġle": 420,
      "und": 421,
      "Ġare": 422,
      "ov": 423,
      "ian": 424,
      "ial": 425,
      "Ġnot": 426,
      "ell": 427,
      "Ġsp": 428,
      "ost": 429,
      "Ġy": 430,
      "ight": 431,
      "ia": 432,
      "ord": 433,
      "ust": 434,
      "ary": 435,
      "ine": 436,
      "ther": 437,
      "pt": 438,
      "rit": 439,
      "Ġ3": 440,
      "oun": 441,
      "pp": 442,
      "ical": 443,
      "ave": 444,
      "Ġun": 445,
      "ĠCh": 446,
      "cc": 447,
      "Ġ200": 448,
      "Ġinc": 449,
      "fter": 450,
      "ould": 451,
      "Ġbut": 452,
      "irst": 453,
      "ish": 454,
      "te": 455,
      "ous": 456,
      "ĠV": 457,
      "ff": 458,
      "ions": 459,
      "so": 460,
      "Ġcomp": 461,
      "ide": 462,
      "Ġ20": 463,
      "Ġro": 464,
      "ure": 465,
      "Ġwhe": 466,
      "ub": 467,
      "Ġar": 468,
      "Ġcont": 469,
      "ie": 470,
      "Ġ;": 471,
      "og": 472,
      "ign": 473,
      "Ġfirst": 474,
      "Ġcl": 475,
      "wo": 476,
      "Ġher": 477,
      "ry": 478,
      "ue": 479,
      "Ġits": 480,
      "ass": 481,
      "Ġtheir": 482,
      "orm": 483,
      "ĠâĢĵ": 484,
      "ok": 485,
      "ork": 486,
      "Ġint": 487,
      "Ġres": 488,
      "Ġ:": 489,
      "ater": 490,
      "Ġalso": 491,
      "Ġab": 492,
      "ond": 493,
      "Ġad": 494,
      "ome": 495,
      "out": 496,
      "ran": 497,
      "ĠHe": 498,
      "mer": 499,
      "ire": 500,
      "hed": 501,
      "ru": 502,
      "Ġus": 503,
      "age": 504,
      "du": 505,
      "Ġ4": 506,
      "ime": 507,
      "The": 508,
      "low": 509,
      "Ġper": 510,
      "per": 511,
      "Ġwho": 512,
      "Ġ5": 513,
      "Ġone": 514,
      "Ġhave": 515,
      "Ġsc": 516,
      "pl": 517,
      "ally": 518,
      "own": 519,
      "ile": 520,
      "Ġrec": 521,
      "ted": 522,
      "Ġ18": 523,
      ".@": 524,
      "Ġ@.@": 525,
      "Ġtwo": 526,
      "ition": 527,
      "ugh": 528,
      "ĠTh": 529,
      "iz": 530,
      "ree": 531,
      "ence": 532,
      "ts": 533,
      "uring": 534,
      "port": 535,
      "Ġbeen": 536,
      "Ġpart": 537,
      "Ġbec": 538,
      "ice": 539,
      "Ġhas": 540,
      "Ġag": 541,
      "Ġapp": 542,
      "ough": 543,
      ",@": 544,
      "Ġ@,@": 545,
      "Ġ201": 546,
      "Ġj": 547,
      "Ġen": 548,
      "Ġdis": 549,
      "lud": 550,
      "ke": 551,
      "Ġover": 552,
      "Ġser": 553,
      "Ġthis": 554,
      "ory": 555,
      "ely": 556,
      "Ġyear": 557,
      "ations": 558,
      "ember": 559,
      "ren": 560,
      "ction": 561,
      "ound": 562,
      "ach": 563,
      "Ġoff": 564,
      "Ġafter": 565,
      "ric": 566,
      "Ġup": 567,
      "land": 568,
      "ĠAl": 569,
      "Ġplay": 570,
      "Ġdes": 571,
      "ace": 572,
      "ark": 573,
      "over": 574,
      "ance": 575,
      "Ġout": 576,
      "Ġthey": 577,
      "Ġman": 578,
      "ade": 579,
      "Ġte": 580,
      "ĠIt": 581,
      "act": 582,
      "Ġother": 583,
      "ib": 584,
      "man": 585,
      "ult": 586,
      "Ġim": 587,
      "ph": 588,
      "ress": 589,
      "Ġinclud": 590,
      "ced": 591,
      "ens": 592,
      "urn": 593,
      "ĠY": 594,
      "wn": 595,
      "Ġwould": 596,
      "ind": 597,
      "Ġtime": 598,
      "one": 599,
      "Ġpre": 600,
      "Ġinto": 601,
      "vel": 602,
      "ward": 603,
      "we": 604,
      "Ġwe": 605,
      "Ġhim": 606,
      "ite": 607,
      "oin": 608,
      "ates": 609,
      "ĠUn": 610,
      "Ġ6": 611,
      "Ġshe": 612,
      "les": 613,
      "Ġev": 614,
      "ilm": 615,
      "Ġatt": 616,
      "ased": 617,
      "Ġne": 618,
      "ited": 619,
      "able": 620,
      "end": 621,
      "ied": 622,
      "ase": 623,
      "amp": 624,
      "Ġcomm": 625,
      "ors": 626,
      "ne": 627,
      "Ġinter": 628,
      "are": 629,
      "rough": 630,
      "oy": 631,
      "ons": 632,
      "ount": 633,
      "ep": 634,
      "form": 635,
      "Ġall": 636,
      "ose": 637,
      "ood": 638,
      "ang": 639,
      "Ġmore": 640,
      "ces": 641,
      "Ġwork": 642,
      "Ġ7": 643,
      "ail": 644,
      "old": 645,
      "aw": 646,
      "ered": 647,
      "ings": 648,
      "ve": 649,
      "ild": 650,
      "Ġnew": 651,
      "Ġsec": 652,
      "Ġbet": 653,
      "inal": 654,
      "Ġfe": 655,
      "Ġfilm": 656,
      "ick": 657,
      "Ġwhen": 658,
      "vi": 659,
      "ents": 660,
      "way": 661,
      "att": 662,
      "ft": 663,
      "iss": 664,
      "aus": 665,
      "fer": 666,
      "gan": 667,
      "Ġ8": 668,
      "reat": 669,
      "rib": 670,
      "Ġcons": 671,
      "ĠAn": 672,
      "round": 673,
      "ake": 674,
      "Ġrem": 675,
      "ved": 676,
      "ĠMar": 677,
      "Ġtr": 678,
      "ĠSe": 679,
      "Ġdec": 680,
      "ason": 681,
      "ĠAr": 682,
      "ans": 683,
      "Ġduring": 684,
      "Ġund": 685,
      "orth": 686,
      "ubl": 687,
      "hip": 688,
      "Ġ9": 689,
      "Ġagain": 690,
      "Ġmost": 691,
      "Ġgame": 692,
      "oth": 693,
      "Ġthem": 694,
      "Ġonly": 695,
      "Ġpr": 696,
      "ath": 697,
      "ween": 698,
      "ix": 699,
      "Ġ199": 700,
      "Ġear": 701,
      "ollow": 702,
      "Ġthan": 703,
      "ob": 704,
      "rop": 705,
      "Ġsup": 706,
      "ss": 707,
      "ational": 708,
      "fore": 709,
      "Ġabout": 710,
      "Ġprodu": 711,
      "ug": 712,
      "Ġcent": 713,
      "tern": 714,
      "Ġret": 715,
      "Ġchar": 716,
      "Ġsong": 717,
      "Ġcan": 718,
      "ĠNew": 719,
      "outh": 720,
      "Ġbetween": 721,
      "Ġlater": 722,
      "Ġrele": 723,
      "Ġunder": 724,
      "ict": 725,
      "Ġkn": 726,
      "Ġthree": 727,
      "ton": 728,
      "ron": 729,
      "Ġcol": 730,
      "Ġact": 731,
      "Ġ00": 732,
      "hn": 733,
      "als": 734,
      "Ġqu": 735,
      "Ġthrough": 736,
      "orld": 737,
      "ook": 738,
      "Ġnum": 739,
      "Ġso": 740,
      "Ġme": 741,
      "Ġacc": 742,
      "Ġrel": 743,
      "Ġwhile": 744,
      "ĠEn": 745,
      "Ġra": 746,
      "Ġend": 747,
      "meric": 748,
      "In": 749,
      "lect": 750,
      "Ġfl": 751,
      "ever": 752,
      "ters": 753,
      "ĠAmeric": 754,
      "ock": 755,
      "Ġpos": 756,
      "ral": 757,
      "ĠLe": 758,
      "Ġsub": 759,
      "ning": 760,
      "ular": 761,
      "Ġass": 762,
      "ating": 763,
      "Ġver": 764,
      "Ġwhere": 765,
      "Ġday": 766,
      "ck": 767,
      "Ġreg": 768,
      "Ġsecond": 769,
      "ener": 770,
      "aid": 771,
      "Ġbu": 772,
      "Ġmade": 773,
      "ames": 774,
      "ision": 775,
      "ived": 776,
      "ĠRe": 777,
      "Ġpe": 778,
      "Ġrecord": 779,
      "ĠCom": 780,
      "Ġdef": 781,
      "bum": 782,
      "Ġfour": 783,
      "Ġgro": 784,
      "Ġfollow": 785,
      "Ġseason": 786,
      "son": 787,
      "Ġ000": 788,
      "Ġep": 789,
      "Ġform": 790,
      "Ġsome": 791,
      "Ġsuch": 792,
      "Ġam": 793,
      "ool": 794,
      "ished": 795,
      "Ġmov": 796,
      "Ġbefore": 797,
      "Ġtra": 798,
      "hes": 799,
      "Ġmus": 800,
      "Ġwrit": 801,
      "Ġthere": 802,
      "ics": 803,
      "io": 804,
      "Ġspec": 805,
      "iel": 806,
      "ike": 807,
      "Ġ10": 808,
      "ĠSp": 809,
      "Ġyears": 810,
      "Ġsy": 811,
      "ode": 812,
      "Ġteam": 813,
      "ual": 814,
      "ident": 815,
      "Ġ/": 816,
      "Ġlar": 817,
      "ĠOn": 818,
      "Ġalbum": 819,
      "Ġind": 820,
      "hen": 821,
      "ily": 822,
      "owever": 823,
      "ĠJo": 824,
      "Ġent": 825,
      "Ġused": 826,
      "Ġcall": 827,
      "ank": 828,
      "Ġsur": 829,
      "ific": 830,
      "ll": 831,
      "Ġac": 832,
      "ury": 833,
      "Ġhigh": 834,
      "Ġpubl": 835,
      "Ġbeing": 836,
      "orn": 837,
      "ĠThis": 838,
      "Ġepis": 839,
      "ĠSh": 840,
      "ained": 841,
      "Ġthen": 842,
      "ten": 843,
      "velop": 844,
      "aj": 845,
      "Ġdo": 846,
      "Ġloc": 847,
      "Ġexp": 848,
      "ife": 849,
      "ris": 850,
      "Ġagainst": 851,
      "Ġ17": 852,
      "Ġinv": 853,
      "Ġbl": 854,
      "Ġ0": 855,
      "Ġpres": 856,
      "Ġshow": 857,
      "other": 858,
      "Ġnumber": 859,
      "Ġcharac": 860,
      "ious": 861,
      "Ġsever": 862,
      "Ġadd": 863,
      "ale": 864,
      "Ġco": 865,
      "Ġset": 866,
      "ince": 867,
      "ject": 868,
      "ars": 869,
      "Ġbecame": 870,
      "Ġrece": 871,
      "ause": 872,
      "ek": 873,
      "Ġlead": 874,
      "Ġperform": 875,
      "ĠBrit": 876,
      "Ġno": 877,
      "Ġincluding": 878,
      "Ġsing": 879,
      "ather": 880,
      "ins": 881,
      "ines": 882,
      "ĠâĢĶ": 883,
      "Ġfound": 884,
      "ĠAt": 885,
      "air": 886,
      "rans": 887,
      "Ġwell": 888,
      "Ġmon": 889,
      "Ġrep": 890,
      "ĠUnited": 891,
      "Ġpol": 892,
      "ĠAs": 893,
      "Ġback": 894,
      "Ġboth": 895,
      "ier": 896,
      "Ġcap": 897,
      "Ġseries": 898,
      "Ġ15": 899,
      "Ġ12": 900,
      "ober": 901,
      "Ġ198": 902,
      "ram": 903,
      "ĠSc": 904,
      "ik": 905,
      "ower": 906,
      "Ġship": 907,
      "ement": 908,
      "its": 909,
      "ert": 910,
      "ired": 911,
      "ures": 912,
      "ley": 913,
      "ivers": 914,
      "pen": 915,
      "Ġmain": 916,
      "Ġmin": 917,
      "Ġ194": 918,
      "iet": 919,
      "der": 920,
      "overn": 921,
      "Ġdid": 922,
      "ven": 923,
      "Ġgo": 924,
      "led": 925,
      "Ġcre": 926,
      "elf": 927,
      "olog": 928,
      "Ġimp": 929,
      "Ġdevelop": 930,
      "Ġmet": 931,
      "az": 932,
      "ĠShe": 933,
      "ities": 934,
      "ane": 935,
      "ĠCon": 936,
      "Ġlong": 937,
      "iver": 938,
      "any": 939,
      "ised": 940,
      "erm": 941,
      "ĠEng": 942,
      "ting": 943,
      "uch": 944,
      "ared": 945,
      "ird": 946,
      "Ġem": 947,
      "Ġmill": 948,
      "ful": 949,
      "Ġair": 950,
      "Ġmat": 951,
      "Ġepisode": 952,
      "tend": 953,
      "irect": 954,
      "Ġsaid": 955,
      "Ġstud": 956,
      "Ġmany": 957,
      "ute": 958,
      "Ġbro": 959,
      "ash": 960,
      "ative": 961,
      "Ġdep": 962,
      "Ġcar": 963,
      "Ġcould": 964,
      "Ġorig": 965,
      "Ġ16": 966,
      "Ġwar": 967,
      "Ġcontin": 968,
      "ann": 969,
      "Ġseveral": 970,
      "ah": 971,
      "though": 972,
      "Ġdif": 973,
      "ield": 974,
      "ĠJohn": 975,
      "Ġinst": 976,
      "Ġpop": 977,
      "ouse": 978,
      "ĠAmerican": 979,
      "ise": 980,
      "emb": 981,
      "Ġknown": 982,
      "ty": 983,
      "ĠInd": 984,
      "ĠCl": 985,
      "Ġ197": 986,
      "ĠWh": 987,
      "ually": 988,
      "til": 989,
      "Ġconc": 990,
      "Ġ11": 991,
      "Ġ196": 992,
      "iam": 993,
      "view": 994,
      "ĠAust": 995,
      "erson": 996,
      "Ġob": 997,
      "ued": 998,
      "Ġsm": 999,
      "Ġreturn": 1000,
      "erman": 1001,
      "Ġbegan": 1002,
      "Ġany": 1003,
      "ĠWar": 1004,
      "Ġcomple": 1005,
      "Ġdesign": 1006,
      "Ġdesc": 1007,
      "Ġsign": 1008,
      "ople": 1009,
      "chool": 1010,
      "ross": 1011,
      "my": 1012,
      "ism": 1013,
      "oot": 1014,
      "Ġest": 1015,
      "ccess": 1016,
      "Ġtrans": 1017,
      "ern": 1018,
      "ĠZ": 1019,
      "Ġprov": 1020,
      "aking": 1021,
      "Ġfeat": 1022,
      "ided": 1023,
      "Ġinf": 1024,
      "anc": 1025,
      "Ġrun": 1026,
      "Ġearly": 1027,
      "ĠDe": 1028,
      "Ġart": 1029,
      "ized": 1030,
      "Ġdist": 1031,
      "Ġmusic": 1032,
      "Ġown": 1033,
      "Ġnear": 1034,
      "Ġreleased": 1035,
      "Ġuntil": 1036,
      "Ġcalled": 1037,
      "Ġeff": 1038,
      "ĠAfter": 1039,
      "imes": 1040,
      "ĠBl": 1041,
      "rid": 1042,
      "ists": 1043,
      "une": 1044,
      "Ġresp": 1045,
      "Ġbel": 1046,
      "Ġpass": 1047,
      "stem": 1048,
      "ured": 1049,
      "Ġfin": 1050,
      "ĠCol": 1051,
      "ially": 1052,
      "Ġph": 1053,
      "ĠUS": 1054,
      "ĠBe": 1055,
      "ution": 1056,
      "Ġdown": 1057,
      "ĠMay": 1058,
      "Ġdisc": 1059,
      "ments": 1060,
      "Ġcrit": 1061,
      "osed": 1062,
      "xt": 1063,
      "Ġdirect": 1064,
      "Ġgener": 1065,
      "ys": 1066,
      "Ġalong": 1067,
      "ium": 1068,
      "Ġins": 1069,
      "Ġmillion": 1070,
      "ger": 1071,
      "enn": 1072,
      "ull": 1073,
      "ax": 1074,
      "Ġgroup": 1075,
      "Ġoffic": 1076,
      "vent": 1077,
      "Ġfam": 1078,
      "ĠBritish": 1079,
      "Ġ13": 1080,
      "ĠGerman": 1081,
      "Ġthese": 1082,
      "ajor": 1083,
      "Ġmod": 1084,
      "eb": 1085,
      "Ġmay": 1086,
      "cept": 1087,
      "Ġ$": 1088,
      "Ġopen": 1089,
      "ange": 1090,
      "Ġmil": 1091,
      "Ġpoin": 1092,
      "uc": 1093,
      "gg": 1094,
      "Ġland": 1095,
      "Ġsim": 1096,
      "Ġhist": 1097,
      "Ġgovern": 1098,
      "ĠAug": 1099,
      "Ã©": 1100,
      "ĠSept": 1101,
      "Ġsuccess": 1102,
      "erv": 1103,
      "ĠSeptember": 1104,
      "ets": 1105,
      "ĠAugust": 1106,
      "ĠStates": 1107,
      "ible": 1108,
      "ink": 1109,
      "Ġgu": 1110,
      "Ġoper": 1111,
      "Ġcount": 1112,
      "Ġattack": 1113,
      "ĠAd": 1114,
      "Ġsame": 1115,
      "Ġuse": 1116,
      "wards": 1117,
      "Ġdescrib": 1118,
      "Ġpeople": 1119,
      "ĠWorld": 1120,
      "ĠAp": 1121,
      "yp": 1122,
      "aced": 1123,
      "Ġcharacter": 1124,
      "amed": 1125,
      "Ġbecause": 1126,
      "els": 1127,
      "Ġvi": 1128,
      "Ġlike": 1129,
      "Ġ14": 1130,
      "Ġserv": 1131,
      "ged": 1132,
      "ĠJu": 1133,
      "Ġaround": 1134,
      "Ġstart": 1135,
      "Ġthough": 1136,
      "Ġed": 1137,
      "ner": 1138,
      "Ġwin": 1139,
      "Ġkm": 1140,
      "Ġ195": 1141,
      "ĠIs": 1142,
      "Ġconst": 1143,
      "ues": 1144,
      "ring": 1145,
      "Ġtook": 1146,
      "Ġocc": 1147,
      "ruct": 1148,
      "aving": 1149,
      "Ġbatt": 1150,
      "ĠFran": 1151,
      "ove": 1152,
      "ĠOct": 1153,
      "Ġsupport": 1154,
      "ĠQ": 1155,
      "ĠAustral": 1156,
      "Ġfollowing": 1157,
      "Ġsix": 1158,
      "Ġnorth": 1159,
      "Ġele": 1160,
      "ĠNov": 1161,
      "Ġ193": 1162,
      "ĠPl": 1163,
      "Ġsystem": 1164,
      "Ġappear": 1165,
      "uss": 1166,
      "ene": 1167,
      "ĠAll": 1168,
      "Ġfinal": 1169,
      "Ġreceived": 1170,
      "Ġclass": 1171,
      "ined": 1172,
      "ĠOctober": 1173,
      "ives": 1174,
      "Ġhead": 1175,
      "Ġprom": 1176,
      "Ġconsid": 1177,
      "rad": 1178,
      "ants": 1179,
      "ĠCar": 1180,
      "ling": 1181,
      "Ġann": 1182,
      "ility": 1183,
      "ically": 1184,
      "Ġever": 1185,
      "Ġstate": 1186,
      "Ġ191": 1187,
      "Ġbuild": 1188,
      "ĠDec": 1189,
      "ĠPro": 1190,
      "ret": 1191,
      "ĠHowever": 1192,
      "Ġeach": 1193,
      "ĠFor": 1194,
      "anu": 1195,
      "Ġext": 1196,
      "Ġfive": 1197,
      "rist": 1198,
      "Ġaut": 1199,
      "Ġcentury": 1200,
      "ina": 1201,
      "Ġvar": 1202,
      "Ġbo": 1203,
      "Ġwill": 1204,
      "Ġarea": 1205,
      "ĠYork": 1206,
      "ately": 1207,
      "Ġsmall": 1208,
      "get": 1209,
      "oss": 1210,
      "Ġpartic": 1211,
      "Ġlife": 1212,
      "iving": 1213,
      "ril": 1214,
      "Ġreport": 1215,
      "Ġ]": 1216,
      "ĠMe": 1217,
      "tle": 1218,
      "ĠThey": 1219,
      "ored": 1220,
      "ĠNorth": 1221,
      "ians": 1222,
      "ording": 1223,
      "ĠJune": 1224,
      "Ġcity": 1225,
      "Ġ[": 1226,
      "Ġcontro": 1227,
      "gin": 1228,
      "Ġmar": 1229,
      "ped": 1230,
      "Ġmajor": 1231,
      "Ġweek": 1232,
      "Ġpublic": 1233,
      "Ġ%": 1234,
      "ission": 1235,
      "Ġconf": 1236,
      "ĠJuly": 1237,
      "Ġband": 1238,
      "ection": 1239,
      "Ġref": 1240,
      "med": 1241,
      "inc": 1242,
      "ĠKing": 1243,
      "ĠNovember": 1244,
      "urch": 1245,
      "Ġrest": 1246,
      "Ġworld": 1247,
      "Ġmed": 1248,
      "Ġsince": 1249,
      "esp": 1250,
      "Ġsingle": 1251,
      "raft": 1252,
      "raph": 1253,
      "por": 1254,
      "ble": 1255,
      "ĠApril": 1256,
      "ĠComm": 1257,
      "ey": 1258,
      "ains": 1259,
      "ried": 1260,
      "lish": 1261,
      "Ġdet": 1262,
      "omet": 1263,
      "Ġjust": 1264,
      "ĠHar": 1265,
      "ĠMarch": 1266,
      "Ġlast": 1267,
      "ected": 1268,
      "ural": 1269,
      "ional": 1270,
      "hest": 1271,
      "aim": 1272,
      "Ġturn": 1273,
      "ively": 1274,
      "ĠPh": 1275,
      "Ġhel": 1276,
      "ilt": 1277,
      "Ġallow": 1278,
      "Ġpo": 1279,
      "ĠWill": 1280,
      "cl": 1281,
      "Ġ30": 1282,
      "ient": 1283,
      "vious": 1284,
      "ĠCan": 1285,
      "Ġleft": 1286,
      "Ġlarge": 1287,
      "Ġline": 1288,
      "ats": 1289,
      "Ġdiffer": 1290,
      "ĠMc": 1291,
      "ales": 1292,
      "Ġcare": 1293,
      "Ġsouth": 1294,
      "ĠEd": 1295,
      "Ġadv": 1296,
      "ified": 1297,
      "Ġdr": 1298,
      "Ġstr": 1299,
      "Ġbook": 1300,
      "Ġvers": 1301,
      "empt": 1302,
      "Ġschool": 1303,
      "Ġsl": 1304,
      "ĠSouth": 1305,
      "..": 1306,
      "ĠBro": 1307,
      "ague": 1308,
      "Ġthird": 1309,
      "ĠDecember": 1310,
      "avy": 1311,
      "Ġincre": 1312,
      "Ġmonth": 1313,
      "Ġ25": 1314,
      "Ġdue": 1315,
      "Ġappro": 1316,
      "ĠGe": 1317,
      "Ġplayed": 1318,
      "Ġmuch": 1319,
      "rote": 1320,
      "Ġevent": 1321,
      "Ġif": 1322,
      "Ġanother": 1323,
      "anuary": 1324,
      "row": 1325,
      "Ġincluded": 1326,
      "Ġwhat": 1327,
      "ĠJanuary": 1328,
      "Ġ192": 1329,
      "Ġplace": 1330,
      "Ġbased": 1331,
      "Ġshort": 1332,
      "ony": 1333,
      "ĠII": 1334,
      "by": 1335,
      "Ġexpl": 1336,
      "Ġgovernment": 1337,
      "Ġperson": 1338,
      "ball": 1339,
      "Ġwrote": 1340,
      "Ġtrack": 1341,
      "apan": 1342,
      "Ġcamp": 1343,
      "Ġtit": 1344,
      "Ġold": 1345,
      "Ġbre": 1346,
      "alf": 1347,
      "Ġname": 1348,
      "Ġdeath": 1349,
      "Ġport": 1350,
      "ently": 1351,
      "Ġelect": 1352,
      "ĠPr": 1353,
      "ĠEu": 1354,
      "ple": 1355,
      "rent": 1356,
      "ience": 1357,
      "Ġeng": 1358,
      "Ġwon": 1359,
      "Ġchild": 1360,
      "Ġprot": 1361,
      "Ġlit": 1362,
      "ĠJapan": 1363,
      "Ġkill": 1364,
      "Ġprog": 1365,
      "oad": 1366,
      "Ġ...": 1367,
      "Ġstory": 1368,
      "ideo": 1369,
      "ages": 1370,
      "Ġpower": 1371,
      "ĠBy": 1372,
      "Ġreview": 1373,
      "ody": 1374,
      "Ġvis": 1375,
      "ital": 1376,
      "Ġhome": 1377,
      "ott": 1378,
      "Ġled": 1379,
      "ps": 1380,
      "eng": 1381,
      "ont": 1382,
      "Ġdescribed": 1383,
      "Ġrequ": 1384,
      "oman": 1385,
      "Ġprevious": 1386,
      "Ġfamily": 1387,
      "ney": 1388,
      "Ġgun": 1389,
      "rand": 1390,
      "ĠTe": 1391,
      "ĠOr": 1392,
      "yl": 1393,
      "Ġway": 1394,
      "Ġnamed": 1395,
      "Ġright": 1396,
      "Ġnow": 1397,
      "tain": 1398,
      "Ġdem": 1399,
      "urther": 1400,
      "iod": 1401,
      "iven": 1402,
      "ilar": 1403,
      "Ġmen": 1404,
      "Ġeven": 1405,
      "Ġmake": 1406,
      "embers": 1407,
      "Ġorgan": 1408,
      "reen": 1409,
      "ister": 1410,
      "cy": 1411,
      "iversity": 1412,
      "omin": 1413,
      "Ġattempt": 1414,
      "Ġbest": 1415,
      "itions": 1416,
      "sh": 1417,
      "ĠMus": 1418,
      "Ġcour": 1419,
      "Ġ100": 1420,
      "Ġrepl": 1421,
      "ivision": 1422,
      "Ġopp": 1423,
      "Ġleg": 1424,
      "ĠÂ": 1425,
      "rench": 1426,
      "Ġgames": 1427,
      "ior": 1428,
      "ĠGu": 1429,
      "ached": 1430,
      "Ġterm": 1431,
      "Ġcommand": 1432,
      "ival": 1433,
      "Ġhand": 1434,
      "Ġposs": 1435,
      "mp": 1436,
      "Ġbelie": 1437,
      "Ġdam": 1438,
      "Ġvery": 1439,
      "ean": 1440,
      "ox": 1441,
      "Ġthose": 1442,
      "ebru": 1443,
      "Ġpar": 1444,
      "lu": 1445,
      "ebruary": 1446,
      "Ġiss": 1447,
      "Ġstill": 1448,
      "ĠFebruary": 1449,
      "ĠEurop": 1450,
      "Ġtop": 1451,
      "Ġnext": 1452,
      "Ġspecies": 1453,
      "Ġeffect": 1454,
      "riend": 1455,
      "Ġview": 1456,
      "ched": 1457,
      "oci": 1458,
      "Ġoriginal": 1459,
      "ature": 1460,
      "ences": 1461,
      "Ġspe": 1462,
      "aken": 1463,
      "ĠNational": 1464,
      "Ġwater": 1465,
      "ness": 1466,
      "Ġaddition": 1467,
      "Ġjoin": 1468,
      "ĠChrist": 1469,
      "ĠFl": 1470,
      "ĠAnd": 1471,
      "Ġlist": 1472,
      "au": 1473,
      "hor": 1474,
      "Ġperiod": 1475,
      "Ġwithin": 1476,
      "alk": 1477,
      "Ġmembers": 1478,
      "Ġmark": 1479,
      "Ġdeb": 1480,
      "eter": 1481,
      "Ġheld": 1482,
      "Ġbuilt": 1483,
      "ĠHis": 1484,
      "Ġexper": 1485,
      "af": 1486,
      "Ġrelease": 1487,
      "Ġlate": 1488,
      "Ġalthough": 1489,
      "Ġformer": 1490,
      "rew": 1491,
      "ĠFrench": 1492,
      "Ġmatch": 1493,
      "Ġgreat": 1494,
      "Ġ2010": 1495,
      "augh": 1496,
      "ridge": 1497,
      "ĠWe": 1498,
      "Ġcur": 1499,
      "Ġdest": 1500,
      "Ġsold": 1501,
      "uted": 1502,
      "tended": 1503,
      "Ġvideo": 1504,
      "ĠBar": 1505,
      "ards": 1506,
      "Ġcaus": 1507,
      "Ġ21": 1508,
      "line": 1509,
      "ĠPar": 1510,
      "Ġstorm": 1511,
      "Ġcover": 1512,
      "ech": 1513,
      "ves": 1514,
      "Ġinit": 1515,
      "Ġrole": 1516,
      "ropical": 1517,
      "Ġtri": 1518,
      "self": 1519,
      "hel": 1520,
      "Ġcame": 1521,
      "Ġestab": 1522,
      "Ġdays": 1523,
      "ances": 1524,
      "Ġresult": 1525,
      "Ġmid": 1526,
      "Ġpresent": 1527,
      "ĠWest": 1528,
      "na": 1529,
      "lev": 1530,
      "aged": 1531,
      "ption": 1532,
      "oon": 1533,
      "ĠX": 1534,
      "ulation": 1535,
      "Ġstand": 1536,
      "Ġreal": 1537,
      "Ġpolit": 1538,
      "ham": 1539,
      "Ġhowever": 1540,
      "itary": 1541,
      "aster": 1542,
      "ĠAm": 1543,
      "ĠWhen": 1544,
      "Ġprop": 1545,
      "let": 1546,
      "omb": 1547,
      "Ġ2008": 1548,
      "ense": 1549,
      "atic": 1550,
      "ides": 1551,
      "Ġfew": 1552,
      "Ġtown": 1553,
      "Ġwind": 1554,
      "ead": 1555,
      "ĠWilliam": 1556,
      "Ġ2009": 1557,
      "Ġyou": 1558,
      "Ġ24": 1559,
      "ograph": 1560,
      "Ġtw": 1561,
      "Ġside": 1562,
      "Ġsk": 1563,
      "ĠMin": 1564,
      "Ġcontinued": 1565,
      "Ġoften": 1566,
      "Ġequ": 1567,
      "Ġpost": 1568,
      "ays": 1569,
      "Ġlocal": 1570,
      "elt": 1571,
      "ĠMan": 1572,
      "ator": 1573,
      "Ġamong": 1574,
      "Ġsimilar": 1575,
      "ruction": 1576,
      "Ġ2011": 1577,
      "ract": 1578,
      "Ġhum": 1579,
      "Ġav": 1580,
      "Ġclaim": 1581,
      "estern": 1582,
      "omen": 1583,
      "ches": 1584,
      "ung": 1585,
      "ĠAir": 1586,
      "Ġ&": 1587,
      "side": 1588,
      "reet": 1589,
      "read": 1590,
      "akes": 1591,
      "ĠGeor": 1592,
      "Ġdifferent": 1593,
      "ĠEngland": 1594,
      "ese": 1595,
      "ops": 1596,
      "Ġmy": 1597,
      "Ġdel": 1598,
      "ler": 1599,
      "Ġbeh": 1600,
      "ology": 1601,
      "ĠHer": 1602,
      "arm": 1603,
      "par": 1604,
      "Ġtyp": 1605,
      "Ġfurther": 1606,
      "Ġsent": 1607,
      "tal": 1608,
      "Ġ22": 1609,
      "esc": 1610,
      "ots": 1611,
      "ested": 1612,
      "Ġlevel": 1613,
      "urs": 1614,
      "Ġfre": 1615,
      "Ġconsidered": 1616,
      "Ġtake": 1617,
      "Ġlaw": 1618,
      "ĠDuring": 1619,
      "ery": 1620,
      "gy": 1621,
      "Ġcareer": 1622,
      "ĠMich": 1623,
      "rodu": 1624,
      "Ġ2007": 1625,
      "Ġproduction": 1626,
      "ĠChar": 1627,
      "ĠEar": 1628,
      "me": 1629,
      "Ġhalf": 1630,
      "ices": 1631,
      "On": 1632,
      "Ġant": 1633,
      "ampions": 1634,
      "Ġhaving": 1635,
      "bo": 1636,
      "ĠNo": 1637,
      "ĠCity": 1638,
      "ĠPark": 1639,
      "Ġmag": 1640,
      "Ġroad": 1641,
      "Ġeast": 1642,
      "Ġmoved": 1643,
      "sp": 1644,
      "Ġdra": 1645,
      "ering": 1646,
      "ĠEnglish": 1647,
      "rig": 1648,
      "Ġcor": 1649,
      "Ġevery": 1650,
      "Ġwest": 1651,
      "Ġwithout": 1652,
      "ĠEl": 1653,
      "Ġtro": 1654,
      "Ġcr": 1655,
      "ĠThere": 1656,
      "ĠRec": 1657,
      "Ġappe": 1658,
      "Ġplan": 1659,
      "ining": 1660,
      "ĠDav": 1661,
      "Ġplayer": 1662,
      "Ġposition": 1663,
      "Ġbecome": 1664,
      "Ġarr": 1665,
      "Ġhistory": 1666,
      "ront": 1667,
      "ĠCo": 1668,
      "Ġversion": 1669,
      "vers": 1670,
      "ĠCent": 1671,
      "ford": 1672,
      "ondon": 1673,
      "ones": 1674,
      "Ġ2012": 1675,
      "Ġcast": 1676,
      "Ġel": 1677,
      "Ġinflu": 1678,
      "ize": 1679,
      "Ġarm": 1680,
      "ĠCount": 1681,
      "ald": 1682,
      "Ġhouse": 1683,
      "yle": 1684,
      "Ġ23": 1685,
      "Ġsound": 1686,
      "Ġfore": 1687,
      "irc": 1688,
      "Ġcommun": 1689,
      "resent": 1690,
      "app": 1691,
      "ĠLondon": 1692,
      "Ġgr": 1693,
      "ĠAng": 1694,
      "Ġclub": 1695,
      "roy": 1696,
      "Ġsugg": 1697,
      "aul": 1698,
      "atter": 1699,
      "Ġke": 1700,
      "Ġstrong": 1701,
      "Ġinvol": 1702,
      "ĠBatt": 1703,
      "ai": 1704,
      "Ġwritten": 1705,
      "aining": 1706,
      "Ġ190": 1707,
      "Ġbas": 1708,
      "Ġstat": 1709,
      "Ġless": 1710,
      "oung": 1711,
      "utes": 1712,
      "Ġannoun": 1713,
      "rest": 1714,
      "Ġfoot": 1715,
      "iqu": 1716,
      "Ġorder": 1717,
      "ĠRiver": 1718,
      "Ġrefer": 1719,
      "iety": 1720,
      "iment": 1721,
      "ges": 1722,
      "Ġprof": 1723,
      "craft": 1724,
      "ĠCal": 1725,
      "Ġaff": 1726,
      "Ġpoint": 1727,
      "yn": 1728,
      "sequ": 1729,
      "Ġtem": 1730,
      "Ġgiven": 1731,
      "Ġrad": 1732,
      "Ġlow": 1733,
      "Ġtrad": 1734,
      "Ġhig": 1735,
      "ĠCanad": 1736,
      "Ġwant": 1737,
      "ille": 1738,
      "Ġgave": 1739,
      "ĠUniversity": 1740,
      "Ġpat": 1741,
      "uck": 1742,
      "isc": 1743,
      "Ġimport": 1744,
      "Ġnever": 1745,
      "aff": 1746,
      "Ġchang": 1747,
      "Ġdefe": 1748,
      "ories": 1749,
      "Ġsoc": 1750,
      "Ġreturned": 1751,
      "ration": 1752,
      "ae": 1753,
      "ĠOne": 1754,
      "Ġvict": 1755,
      "Ġtotal": 1756,
      "Ġfact": 1757,
      "Ġgood": 1758,
      "ention": 1759,
      "Ġcontrol": 1760,
      "Ġcompany": 1761,
      "Ġfire": 1762,
      "ailed": 1763,
      "Ġcountry": 1764,
      "Ġwent": 1765,
      "ison": 1766,
      "Ġcomb": 1767,
      "cess": 1768,
      "Ġfriend": 1769,
      "ĠGener": 1770,
      "ours": 1771,
      "rick": 1772,
      "Ġcapt": 1773,
      "Ġpublished": 1774,
      "ĠPol": 1775,
      "aun": 1776,
      "Ġproduced": 1777,
      "ĠHigh": 1778,
      "levision": 1779,
      "con": 1780,
      "Ġfind": 1781,
      "aying": 1782,
      "Ġreported": 1783,
      "Ġorigin": 1784,
      "aign": 1785,
      "Ġlost": 1786,
      "Ġstated": 1787,
      "Ġcommon": 1788,
      "Ġprogram": 1789,
      "Ġ2006": 1790,
      "Ġlight": 1791,
      "ington": 1792,
      "Ġparticular": 1793,
      "ape": 1794,
      "Ġord": 1795,
      "echn": 1796,
      "Ġadm": 1797,
      "Ġinclude": 1798,
      "ĠTr": 1799,
      "ests": 1800,
      "ccording": 1801,
      "bs": 1802,
      "Ġlarg": 1803,
      "ably": 1804,
      "urric": 1805,
      "Ġcompet": 1806,
      "Ġer": 1807,
      "used": 1808,
      "Ġrecorded": 1809,
      "ief": 1810,
      "Ġbuilding": 1811,
      "Ġpress": 1812,
      "Ġneed": 1813,
      "Ġbus": 1814,
      "Ġproject": 1815,
      "hing": 1816,
      "Ġforces": 1817,
      "ĠEx": 1818,
      "ument": 1819,
      "Ġnort": 1820,
      "Ġships": 1821,
      "ĠSm": 1822,
      "Ġshould": 1823,
      "Ġ27": 1824,
      "Ġusing": 1825,
      "Ġeight": 1826,
      "Ġ50": 1827,
      "Ġ28": 1828,
      "Ġperformance": 1829,
      "iness": 1830,
      "Ġservice": 1831,
      "Ġpopular": 1832,
      "Ġide": 1833,
      "ploy": 1834,
      "Ġtimes": 1835,
      "osp": 1836,
      "Ġmaking": 1837,
      "Ġten": 1838,
      "Ġaircraft": 1839,
      "Ġhimself": 1840,
      "oyal": 1841,
      "Ġfun": 1842,
      "Ġauthor": 1843,
      "Ġfather": 1844,
      "atch": 1845,
      "Ġmilitary": 1846,
      "Ġanim": 1847,
      "Ġ2013": 1848,
      "lear": 1849,
      "Ġbattle": 1850,
      "ampionship": 1851,
      "ĠSw": 1852,
      "ned": 1853,
      "Ġsit": 1854,
      "Ġlim": 1855,
      "Ġsongs": 1856,
      "Ġsomet": 1857,
      "Ġread": 1858,
      "ef": 1859,
      "outher": 1860,
      "ĠAustralia": 1861,
      "Ġcritic": 1862,
      "ensive": 1863,
      "ither": 1864,
      "ĠAf": 1865,
      "ords": 1866,
      "Ġdevelopment": 1867,
      "oll": 1868,
      "ĠSec": 1869,
      "Ġsw": 1870,
      "ĠAss": 1871,
      "Ġhow": 1872,
      "Ġgl": 1873,
      "Ġ40": 1874,
      "alth": 1875,
      "eth": 1876,
      "itive": 1877,
      "ases": 1878,
      "ĠAb": 1879,
      "Ġsol": 1880,
      "ĠNe": 1881,
      "quad": 1882,
      "eder": 1883,
      "Ġ26": 1884,
      "outhern": 1885,
      "ĠThese": 1886,
      "ĠJack": 1887,
      "Ġcross": 1888,
      "cer": 1889,
      "ĠCor": 1890,
      "ks": 1891,
      "Ġrepresent": 1892,
      "Ġ189": 1893,
      "amb": 1894,
      "Ġground": 1895,
      "Ġdestroy": 1896,
      "acy": 1897,
      "Ġstar": 1898,
      "Ġft": 1899,
      "Ġremained": 1900,
      "ĠGeneral": 1901,
      "astern": 1902,
      "Ġste": 1903,
      "ĠState": 1904,
      "Ġcharacters": 1905,
      "Ġnational": 1906,
      "ĠArmy": 1907,
      "Ġget": 1908,
      "ries": 1909,
      "work": 1910,
      "Ġmonths": 1911,
      "Ġsuff": 1912,
      "ĠSy": 1913,
      "Ġgen": 1914,
      "Ġdied": 1915,
      "aur": 1916,
      "Ġter": 1917,
      "ublic": 1918,
      "Ġdeveloped": 1919,
      "Ġtitle": 1920,
      "dom": 1921,
      "Ġsum": 1922,
      "Ġchart": 1923,
      "Ġcampaign": 1924,
      "fic": 1925,
      "ream": 1926,
      "urricane": 1927,
      "Ġforce": 1928,
      "ĠPres": 1929,
      "Ġchildren": 1930,
      "Ġintrodu": 1931,
      "lands": 1932,
      "ency": 1933,
      "Ġpra": 1934,
      "ĠBo": 1935,
      "ĠLeague": 1936,
      "Ġtour": 1937,
      "Ġpromot": 1938,
      "ĠJames": 1939,
      "itted": 1940,
      "isted": 1941,
      "ael": 1942,
      "Ġson": 1943,
      "Ġsignific": 1944,
      "Ġred": 1945,
      "ĠComp": 1946,
      "Ġacross": 1947,
      "ĠGl": 1948,
      "Ġaway": 1949,
      "ression": 1950,
      "hern": 1951,
      "Ġrelations": 1952,
      "Ġobs": 1953,
      "ĠAlthough": 1954,
      "Ġhistor": 1955,
      "Ġfield": 1956,
      "Ġofficial": 1957,
      "ole": 1958,
      "Ġfav": 1959,
      "ĠDivision": 1960,
      "Ġfelt": 1961,
      "lege": 1962,
      "ĠAmerica": 1963,
      "Ġnoted": 1964,
      "Ġfac": 1965,
      "ĠWith": 1966,
      "Ġnight": 1967,
      "alt": 1968,
      "Ġannounced": 1969,
      "most": 1970,
      "Ġreached": 1971,
      "ĠSte": 1972,
      "Ġintern": 1973,
      "Ġche": 1974,
      "Ġcreated": 1975,
      "Ġareas": 1976,
      "com": 1977,
      "ĠCounty": 1978,
      "Ġtelevision": 1979,
      "Ġcoun": 1980,
      "ĠRuss": 1981,
      "Ġstation": 1982,
      "ressed": 1983,
      "ĠRoad": 1984,
      "Ġsuccessful": 1985,
      "Ġrock": 1986,
      "Ġ2005": 1987,
      "ĠJapanese": 1988,
      "imately": 1989,
      "Ġval": 1990,
      "ĠRep": 1991,
      "ising": 1992,
      "Ġvarious": 1993,
      "ĠâĢĻ": 1994,
      "Ġbar": 1995,
      "Ġpolitical": 1996,
      "Ġseen": 1997,
      "ĠStreet": 1998,
      "Ġfollowed": 1999,
      "Ġaver": 2000,
      "iber": 2001,
      "field": 2002,
      "iting": 2003,
      "Ġtoo": 2004,
      "ĠMor": 2005,
      "Ġrank": 2006,
      "ĠSup": 2007,
      "ett": 2008,
      "Ġ29": 2009,
      "Ġperformed": 2010,
      "cast": 2011,
      "ĠSim": 2012,
      "Ġcult": 2013,
      "ization": 2014,
      "ope": 2015,
      "Ġserved": 2016,
      "Ġplayers": 2017,
      "reg": 2018,
      "ĠMon": 2019,
      "Ġrev": 2020,
      "Ġcond": 2021,
      "ality": 2022,
      "Ġprim": 2023,
      "Ġdecl": 2024,
      "ĠMad": 2025,
      "Ġfull": 2026,
      "Ġ2014": 2027,
      "ination": 2028,
      "Ġblack": 2029,
      "elling": 2030,
      "Ġbegin": 2031,
      "Ġfle": 2032,
      "Ġput": 2033,
      "duct": 2034,
      "Ġcirc": 2035,
      "abor": 2036,
      "Ġconv": 2037,
      "ĠReg": 2038,
      "Ġearl": 2039,
      "olution": 2040,
      "ĠGr": 2041,
      "ĠEast": 2042,
      "Ġcost": 2043,
      "ĠWhile": 2044,
      "idence": 2045,
      "Ġprocess": 2046,
      "Ġsee": 2047,
      "Ġnon": 2048,
      "Ġdiv": 2049,
      "Ġstyle": 2050,
      "ying": 2051,
      "Ġlook": 2052,
      "Ġseven": 2053,
      "Ġaud": 2054,
      "Ġvol": 2055,
      "Ġkilled": 2056,
      "Ġcy": 2057,
      "Ġhelp": 2058,
      "rict": 2059,
      "Ġlet": 2060,
      "play": 2061,
      "lished": 2062,
      "Ġthroughout": 2063,
      "bor": 2064,
      "Ġtaken": 2065,
      "Ġtropical": 2066,
      "Ġable": 2067,
      "ana": 2068,
      "ĠSer": 2069,
      "Ġfight": 2070,
      "Ġdiscover": 2071,
      "Ġagre": 2072,
      "ecut": 2073,
      "ertain": 2074,
      "Ġlittle": 2075,
      "Ġwid": 2076,
      "Ġbecom": 2077,
      "Ġfem": 2078,
      "Ġage": 2079,
      "urg": 2080,
      "Ġsignificant": 2081,
      "ĠPhil": 2082,
      "Ġhit": 2083,
      "Ġmeet": 2084,
      "Ġident": 2085,
      "irl": 2086,
      "ways": 2087,
      "Ġtechn": 2088,
      "ĠHen": 2089,
      "ĠAccording": 2090,
      "ĠGeorge": 2091,
      "Ġspecial": 2092,
      "ĠRober": 2093,
      "Ġcop": 2094,
      "ĠBill": 2095,
      "oice": 2096,
      "Ġwriting": 2097,
      "Ġstruct": 2098,
      "Ġthought": 2099,
      "Ġestablished": 2100,
      "Ġbroad": 2101,
      "Ġfront": 2102,
      "enced": 2103,
      "Ġmm": 2104,
      "Ġappeared": 2105,
      "Ġdoes": 2106,
      "Ġcoll": 2107,
      "Ġentire": 2108,
      "aval": 2109,
      "cil": 2110,
      "epend": 2111,
      "ĠEm": 2112,
      "Ġyoung": 2113,
      "Ġcoast": 2114,
      "Ġpoints": 2115,
      "Ġ!": 2116,
      "Ġmiles": 2117,
      "ius": 2118,
      "Ġbody": 2119,
      "less": 2120,
      "Ġaward": 2121,
      "Ġimpro": 2122,
      "ĠAustralian": 2123,
      "Ġroute": 2124,
      "Ġmember": 2125,
      "odes": 2126,
      "ought": 2127,
      "ground": 2128,
      "ript": 2129,
      "Ġwomen": 2130,
      "Ġactiv": 2131,
      "Ġrange": 2132,
      "ask": 2133,
      "ivil": 2134,
      "here": 2135,
      "ms": 2136,
      "Ġcaused": 2137,
      "Ġstarted": 2138,
      "Ġdecided": 2139,
      "ster": 2140,
      "iers": 2141,
      "ĠPart": 2142,
      "Ġfeatures": 2143,
      "day": 2144,
      "lected": 2145,
      "ĠAct": 2146,
      "ĠSch": 2147,
      "Ġgeneral": 2148,
      "Ġpain": 2149,
      "ĠPer": 2150,
      "Ġeventually": 2151,
      "ators": 2152,
      "iron": 2153,
      "iec": 2154,
      "ĠAfric": 2155,
      "men": 2156,
      "int": 2157,
      "ĠThom": 2158,
      "ĠMed": 2159,
      "umb": 2160,
      "den": 2161,
      "ĠYou": 2162,
      "conom": 2163,
      "oph": 2164,
      "ogn": 2165,
      "Ġrace": 2166,
      "Ġarch": 2167,
      "uk": 2168,
      "Ġvot": 2169,
      "itar": 2170,
      "Ġgrow": 2171,
      "Ġmanag": 2172,
      "Ġfeet": 2173,
      "pped": 2174,
      "ush": 2175,
      "rison": 2176,
      "Ġtoget": 2177,
      "Ġtogether": 2178,
      "Ġadded": 2179,
      "Ġtre": 2180,
      "ĠDavid": 2181,
      "Ġhold": 2182,
      "Ġcut": 2183,
      "ĠRoyal": 2184,
      "bert": 2185,
      "ĠRich": 2186,
      "ivid": 2187,
      "Ġwhite": 2188,
      "ĠHouse": 2189,
      "Ġonce": 2190,
      "Ġnov": 2191,
      "ample": 2192,
      "ament": 2193,
      "Ġformed": 2194,
      "Ġ188": 2195,
      "Ġarg": 2196,
      "Ġlocated": 2197,
      "ĠQu": 2198,
      "reek": 2199,
      "off": 2200,
      "Ġstri": 2201,
      "ĠPe": 2202,
      "urb": 2203,
      "Ġconn": 2204,
      "Ġmodern": 2205,
      "Ġenc": 2206,
      "Ġinstead": 2207,
      "dle": 2208,
      "head": 2209,
      "rought": 2210,
      "aces": 2211,
      "orts": 2212,
      "Ġround": 2213,
      "Ġesc": 2214,
      "ara": 2215,
      "Ġball": 2216,
      "emy": 2217,
      "Ġ31": 2218,
      "Ġmix": 2219,
      "Ġimportant": 2220,
      "Ġpri": 2221,
      "Ġcrew": 2222,
      "cing": 2223,
      "Ġsaw": 2224,
      "Ġaction": 2225,
      "Ġcompleted": 2226,
      "Ġredu": 2227,
      "Ġplaying": 2228,
      "ects": 2229,
      "oney": 2230,
      "ids": 2231,
      "cent": 2232,
      "rated": 2233,
      "ells": 2234,
      "ĠItal": 2235,
      "ata": 2236,
      "ĠBlack": 2237,
      "Ġinsp": 2238,
      "ĠIndian": 2239,
      "Ġbase": 2240,
      "Ġmater": 2241,
      "ĠIntern": 2242,
      "Ġ2004": 2243,
      "Ġpopulation": 2244,
      "Ġmot": 2245,
      "Ġsurv": 2246,
      "ĠHist": 2247,
      "Ġvoc": 2248,
      "lin": 2249,
      "Ġask": 2250,
      "ray": 2251,
      "Ġrather": 2252,
      "Ġoccur": 2253,
      "Ġopened": 2254,
      "sc": 2255,
      "Ġstage": 2256,
      "Ġbehind": 2257,
      "Ġothers": 2258,
      "Ġfall": 2259,
      "Ġguns": 2260,
      "Ġ186": 2261,
      "Ġren": 2262,
      "asing": 2263,
      "ceed": 2264,
      "Ġbrother": 2265,
      "wood": 2266,
      "ements": 2267,
      "igned": 2268,
      "Ġcomment": 2269,
      "Ġlik": 2270,
      "stit": 2271,
      "Ġfif": 2272,
      "Ġsite": 2273,
      "Ġlive": 2274,
      "Ġworks": 2275,
      "nder": 2276,
      "Ġloss": 2277,
      "Ġbomb": 2278,
      "Ġworked": 2279,
      "Ġ2015": 2280,
      "ficult": 2281,
      "ĠTo": 2282,
      "Ġheavy": 2283,
      "Ġmiss": 2284,
      "Ġpred": 2285,
      "ĠFrance": 2286,
      "Ã¡": 2287,
      "medi": 2288,
      "rap": 2289,
      "Ġsubsequ": 2290,
      "Ġlack": 2291,
      "Ġparty": 2292,
      "Ġproble": 2293,
      "lection": 2294,
      "Ġdifficult": 2295,
      "Ġclose": 2296,
      "Ġconstruction": 2297,
      "Ġknow": 2298,
      "ĠSchool": 2299,
      "Ġrelationship": 2300,
      "arch": 2301,
      "Ġhost": 2302,
      "Ġweeks": 2303,
      "ĠMy": 2304,
      "istic": 2305,
      "Ġoriginally": 2306,
      "Ġsepar": 2307,
      "Ġassoci": 2308,
      "Ġupon": 2309,
      "Ġpract": 2310,
      "Ġreb": 2311,
      "Ġleading": 2312,
      "Ġappoin": 2313,
      "lic": 2314,
      "Ġaccom": 2315,
      "Ġvill": 2316,
      "Ġalmost": 2317,
      "ĠSan": 2318,
      "Ġmer": 2319,
      "Ġpeak": 2320,
      "co": 2321,
      "Ġinj": 2322,
      "Ġdamage": 2323,
      "ĠWash": 2324,
      "ĠNor": 2325,
      "ĠMichael": 2326,
      "unk": 2327,
      "Ġborn": 2328,
      "Ġscored": 2329,
      "Ġfourth": 2330,
      "osition": 2331,
      "ĠEurope": 2332,
      "Ġinform": 2333,
      "ica": 2334,
      "Ġmor": 2335,
      "Ġreve": 2336,
      "Ġprovided": 2337,
      "ming": 2338,
      "Ġcase": 2339,
      "Ġgoal": 2340,
      "Ġclos": 2341,
      "board": 2342,
      "aps": 2343,
      "Ġengine": 2344,
      "Ġcreat": 2345,
      "Ġaccept": 2346,
      "Ġmi": 2347,
      "Ġ2000": 2348,
      "Ġinvest": 2349,
      "ĠBattle": 2350,
      "to": 2351,
      "Ġscene": 2352,
      "ellow": 2353,
      "ĠPort": 2354,
      "Ġhuman": 2355,
      "angu": 2356,
      "ule": 2357,
      "ino": 2358,
      "ological": 2359,
      "Ġbrought": 2360,
      "Ġfree": 2361,
      "Ġ500": 2362,
      "Ġindivid": 2363,
      "Ġfeatured": 2364,
      "ula": 2365,
      "Ġmother": 2366,
      "Ġ187": 2367,
      "ĠBest": 2368,
      "Ġleast": 2369,
      "Ġking": 2370,
      "ama": 2371,
      "Ġworking": 2372,
      "Ġallowed": 2373,
      "Ġlaun": 2374,
      "Ġresul": 2375,
      "Ġaverage": 2376,
      "Ġtowards": 2377,
      "Ġwanted": 2378,
      "Ġmult": 2379,
      "ĠStar": 2380,
      "Ġindust": 2381,
      "aves": 2382,
      "Ġtradition": 2383,
      "aut": 2384,
      "ĠRed": 2385,
      "Ġregion": 2386,
      "ĠMusic": 2387,
      "Ġbusiness": 2388,
      "After": 2389,
      "ĠHenry": 2390,
      "ĠAle": 2391,
      "iding": 2392,
      "azine": 2393,
      "ee": 2394,
      "ĠVir": 2395,
      "Ġve": 2396,
      "Ġquick": 2397,
      "Ġtroops": 2398,
      "Ġplaced": 2399,
      "Ġeither": 2400,
      "Ġrespect": 2401,
      "Ġce": 2402,
      "ving": 2403,
      "Ġoffice": 2404,
      "Ġcritics": 2405,
      "ky": 2406,
      "ĠPresident": 2407,
      "Ġavail": 2408,
      "Ġhon": 2409,
      "antic": 2410,
      "Ġreach": 2411,
      "Ġprofess": 2412,
      "Ġexample": 2413,
      "Ġmaterial": 2414,
      "Ġruns": 2415,
      "Ġeconom": 2416,
      "Ġrecogn": 2417,
      "Ġfar": 2418,
      "ĠQue": 2419,
      "go": 2420,
      "ĠWashington": 2421,
      "ened": 2422,
      "Ġwife": 2423,
      "ĠHol": 2424,
      "ĠRou": 2425,
      "earch": 2426,
      "chie": 2427,
      "Ġneg": 2428,
      "Ġestim": 2429,
      "ential": 2430,
      "Ġarmy": 2431,
      "Ġz": 2432,
      "Ġfoc": 2433,
      "right": 2434,
      "espite": 2435,
      "Ġsex": 2436,
      "ĠMil": 2437,
      "Ġinterest": 2438,
      "ĠCap": 2439,
      "ĠGro": 2440,
      "Ġsour": 2441,
      "ĠOther": 2442,
      "ength": 2443,
      "Ġgenerally": 2444,
      "Ġmass": 2445,
      "Ġ2003": 2446,
      "Ġjoined": 2447,
      "Ġrail": 2448,
      "Ġdou": 2449,
      "ĠÃ": 2450,
      "ills": 2451,
      "quadron": 2452,
      "ĠPaul": 2453,
      "Ġproper": 2454,
      "ĠCour": 2455,
      "ĠAg": 2456,
      "enes": 2457,
      "ĠBel": 2458,
      "Ġcurrent": 2459,
      "Ġdev": 2460,
      "ourn": 2461,
      "ĠCro": 2462,
      "uff": 2463,
      "Ġevents": 2464,
      "of": 2465,
      "ĠCup": 2466,
      "Ġbelieved": 2467,
      "itch": 2468,
      "Ġparticip": 2469,
      "ĠRobert": 2470,
      "rey": 2471,
      "Ġfig": 2472,
      "ĠKe": 2473,
      "ollowing": 2474,
      "ville": 2475,
      "Ġ35": 2476,
      "ĠHall": 2477,
      "oor": 2478,
      "ĠAngel": 2479,
      "Ġvictory": 2480,
      "Ġreplaced": 2481,
      "artment": 2482,
      "Ġdesigned": 2483,
      "Ġmph": 2484,
      "iction": 2485,
      "Ġgrad": 2486,
      "Ġrul": 2487,
      "ĠHam": 2488,
      "ĠGame": 2489,
      "itte": 2490,
      "Ġsoon": 2491,
      "Ġnomin": 2492,
      "Ġisland": 2493,
      "Ġfund": 2494,
      "xic": 2495,
      "erous": 2496,
      "Ġhours": 2497,
      "ĠGreat": 2498,
      "Ġemploy": 2499,
      "Ġpresident": 2500,
      "uel": 2501,
      "Ġroom": 2502,
      "itor": 2503,
      "ification": 2504,
      "arn": 2505,
      "Ġinvolved": 2506,
      "aled": 2507,
      "val": 2508,
      "Ġsurf": 2509,
      "Ġfinished": 2510,
      "ze": 2511,
      "merc": 2512,
      "inist": 2513,
      "Ġstru": 2514,
      "ĠEuropean": 2515,
      "rac": 2516,
      "ĠChampionship": 2517,
      "asion": 2518,
      "west": 2519,
      "inf": 2520,
      "inn": 2521,
      "Ġbreak": 2522,
      "aper": 2523,
      "ĠMary": 2524,
      "aren": 2525,
      "ĠLou": 2526,
      "Ġhor": 2527,
      "rain": 2528,
      "iff": 2529,
      "Ġsaying": 2530,
      "ĠFirst": 2531,
      "emor": 2532,
      "Ġcourt": 2533,
      "Ġshot": 2534,
      "Ġthreat": 2535,
      "Ġscore": 2536,
      "Ġopening": 2537,
      "Ġregular": 2538,
      "ĠRoman": 2539,
      "BC": 2540,
      "Ġdirector": 2541,
      "Ġdesp": 2542,
      "Ġlength": 2543,
      "leg": 2544,
      "cher": 2545,
      "ĠLa": 2546,
      "ades": 2547,
      "Ġindic": 2548,
      "Ġconduct": 2549,
      "Ġlargest": 2550,
      "Ġcontrib": 2551,
      "Ġtravel": 2552,
      "Ġhom": 2553,
      "oul": 2554,
      "ki": 2555,
      "Ġpossible": 2556,
      "ecutive": 2557,
      "now": 2558,
      "Ġminutes": 2559,
      "Ġill": 2560,
      "Ġhighway": 2561,
      "Ġdro": 2562,
      "Ġsouthern": 2563,
      "ishing": 2564,
      "Ġhy": 2565,
      "ĠMal": 2566,
      "icle": 2567,
      "Ġhighest": 2568,
      "Ġremov": 2569,
      "Ġearlier": 2570,
      "Ġinitially": 2571,
      "Ġtest": 2572,
      "ago": 2573,
      "Ġly": 2574,
      "ĠMart": 2575,
      "ĠPlay": 2576,
      "Ġavailable": 2577,
      "Ġparticularly": 2578,
      "Ġpercent": 2579,
      "ander": 2580,
      "antry": 2581,
      "Ġhard": 2582,
      "anned": 2583,
      "Ġsequ": 2584,
      "Ġtraining": 2585,
      "Ġ2001": 2586,
      "ĠAtl": 2587,
      "ude": 2588,
      "Ġmust": 2589,
      "Ġforced": 2590,
      "ply": 2591,
      "Ġexist": 2592,
      "ipp": 2593,
      "ĠRepublic": 2594,
      "hib": 2595,
      "ĠVal": 2596,
      "rian": 2597,
      "ography": 2598,
      "asy": 2599,
      "Ġpark": 2600,
      "ĠDan": 2601,
      "ĠÂ°": 2602,
      "ĠNavy": 2603,
      "ĠScott": 2604,
      "ĠSome": 2605,
      "ĠMet": 2606,
      "ĠBer": 2607,
      "ateg": 2608,
      "Ġrespons": 2609,
      "Ġended": 2610,
      "Ġquar": 2611,
      "ĠDon": 2612,
      "ĠKingdom": 2613,
      "ĠMac": 2614,
      "ĠRoute": 2615,
      "Ġturned": 2616,
      "Ġwall": 2617,
      "Ġexc": 2618,
      "Ġsocial": 2619,
      "uture": 2620,
      "ĠSing": 2621,
      "Ġstudio": 2622,
      "ems": 2623,
      "ĠDr": 2624,
      "iforn": 2625,
      "rag": 2626,
      "ĠMid": 2627,
      "ios": 2628,
      "Ġchange": 2629,
      "Ġlangu": 2630,
      "ĠMag": 2631,
      "Ġpraised": 2632,
      "Ġpassed": 2633,
      "Ġpriv": 2634,
      "Ġbill": 2635,
      "atural": 2636,
      "Ġpiec": 2637,
      "Ġincreased": 2638,
      "Ġobject": 2639,
      "ĠWil": 2640,
      "rup": 2641,
      "Ġsuper": 2642,
      "Ġeduc": 2643,
      "Ġhurricane": 2644,
      "Ġregard": 2645,
      "Ġnorthern": 2646,
      "heast": 2647,
      "ĠDep": 2648,
      "ĠInternational": 2649,
      "Ġkeep": 2650,
      "Ġphys": 2651,
      "Ġcentral": 2652,
      "ights": 2653,
      "Ġnovel": 2654,
      "Ġ2002": 2655,
      "Ġrelig": 2656,
      "ĠChurch": 2657,
      "Ġspeed": 2658,
      "Ġappearance": 2659,
      "Ġunits": 2660,
      "Ġpast": 2661,
      "ership": 2662,
      "ĠCharles": 2663,
      "ĠOff": 2664,
      "key": 2665,
      "Ġstop": 2666,
      "ĠCanada": 2667,
      "oring": 2668,
      "rem": 2669,
      "Ġchurch": 2670,
      "ended": 2671,
      "Ġimmedi": 2672,
      "Ġcou": 2673,
      "ĠCaliforn": 2674,
      "ĠVirgin": 2675,
      "uter": 2676,
      "ĠBut": 2677,
      "Ġsym": 2678,
      "ston": 2679,
      "ocr": 2680,
      "Ġdisp": 2681,
      "ĠWhite": 2682,
      "Ġmeas": 2683,
      "Ġordered": 2684,
      "aughter": 2685,
      "ĠThomas": 2686,
      "Ġtreat": 2687,
      "Ġprob": 2688,
      "ĠBay": 2689,
      "Ġtaking": 2690,
      "ference": 2691,
      "ĠPal": 2692,
      "ĠSen": 2693,
      "rying": 2694,
      "ĠRock": 2695,
      "ĠBrown": 2696,
      "ittee": 2697,
      "ĠMcC": 2698,
      "sel": 2699,
      "Ġlove": 2700,
      "Ġindepend": 2701,
      "Ġsigned": 2702,
      "Ġmove": 2703,
      "ique": 2704,
      "ĠRes": 2705,
      "ilities": 2706,
      "Ġachie": 2707,
      "etwork": 2708,
      "Ġbetter": 2709,
      "ump": 2710,
      "Ġpers": 2711,
      "ĠCalifornia": 2712,
      "itz": 2713,
      "ĠSl": 2714,
      "aker": 2715,
      "ĠUnion": 2716,
      "Ġap": 2717,
      "arily": 2718,
      "ecess": 2719,
      "Ġinn": 2720,
      "Ġwinds": 2721,
      "Ġcommerc": 2722,
      "Ġwat": 2723,
      "Ġenough": 2724,
      "Ġpositive": 2725,
      "ĠIsland": 2726,
      "ears": 2727,
      "nel": 2728,
      "ma": 2729,
      "Ġaccording": 2730,
      "Ġhous": 2731,
      "ume": 2732,
      "ĠSmith": 2733,
      "Ġspent": 2734,
      "ĠMo": 2735,
      "ĠMer": 2736,
      "ĠCourt": 2737,
      "elled": 2738,
      "Ġgoing": 2739,
      "Ġpot": 2740,
      "Ġabove": 2741,
      "apt": 2742,
      "Ġslow": 2743,
      "anks": 2744,
      "Ġoutside": 2745,
      "Ġfilms": 2746,
      "ĠGovern": 2747,
      "ĠGod": 2748,
      "Ġfeel": 2749,
      "Ġtold": 2750,
      "ĠSam": 2751,
      "Ġfootball": 2752,
      "berg": 2753,
      "quare": 2754,
      "Ġclear": 2755,
      "Ġpreviously": 2756,
      "uation": 2757,
      "Ġstates": 2758,
      "Ġquest": 2759,
      "Ġrecording": 2760,
      "ĠTwo": 2761,
      "Ġmean": 2762,
      "anding": 2763,
      "ĠAward": 2764,
      "leb": 2765,
      "Ġnine": 2766,
      "ĠAlex": 2767,
      "het": 2768,
      "Ġ60": 2769,
      "Ġpur": 2770,
      "usion": 2771,
      "Ġ1990": 2772,
      "Ġsubject": 2773,
      "hem": 2774,
      "Ġfailed": 2775,
      "atin": 2776,
      "ows": 2777,
      "onst": 2778,
      "Ġassist": 2779,
      "ĠCong": 2780,
      "ĠRichard": 2781,
      "Ġcome": 2782,
      "ĠAssoci": 2783,
      "Ġrequired": 2784,
      "reng": 2785,
      "osing": 2786,
      "ĠCompany": 2787,
      "van": 2788,
      "Ġelements": 2789,
      "Ġ45": 2790,
      "Ġey": 2791,
      "ida": 2792,
      "Ġcru": 2793,
      "alion": 2794,
      "ĠBra": 2795,
      "ĠVict": 2796,
      "Ġlower": 2797,
      "Ġreviews": 2798,
      "Ġinterview": 2799,
      "edy": 2800,
      "Ġphot": 2801,
      "Ġparts": 2802,
      "Ġitself": 2803,
      "Ġsil": 2804,
      "Ġnar": 2805,
      "Ġthink": 2806,
      "ranch": 2807,
      "Ġdirected": 2808,
      "ĠIndia": 2809,
      "Ġabs": 2810,
      "isl": 2811,
      "As": 2812,
      "Ġflow": 2813,
      "Ġesp": 2814,
      "ibility": 2815,
      "ĠGermany": 2816,
      "Ġdespite": 2817,
      "ship": 2818,
      "Ġcred": 2819,
      "ĠAc": 2820,
      "Ġcontract": 2821,
      "amer": 2822,
      "oke": 2823,
      "Ġ185": 2824,
      "Ġdebut": 2825,
      "ĠTom": 2826,
      "nes": 2827,
      "ĠTimes": 2828,
      "ĠÂ£": 2829,
      "erved": 2830,
      "ĠChristian": 2831,
      "Ġ?": 2832,
      "Ġaccess": 2833,
      "ready": 2834,
      "Ġbeginning": 2835,
      "onna": 2836,
      "oid": 2837,
      "Ġbi": 2838,
      "Ġgroups": 2839,
      "Ġviol": 2840,
      "ĠCollege": 2841,
      "Ġsection": 2842,
      "ability": 2843,
      "ĠStud": 2844,
      "hester": 2845,
      "Ġwhose": 2846,
      "asons": 2847,
      "ĠGold": 2848,
      "Ġclaimed": 2849,
      "oviet": 2850,
      "ĠArt": 2851,
      "eal": 2852,
      "Ġinternational": 2853,
      "ĠUK": 2854,
      "Ġasked": 2855,
      "Ġlines": 2856,
      "hile": 2857,
      "Ġtransfer": 2858,
      "Ġprevent": 2859,
      "Ġstreng": 2860,
      "Ġscreen": 2861,
      "onse": 2862,
      "Ġgive": 2863,
      "airs": 2864,
      "rief": 2865,
      "ĠHill": 2866,
      "mar": 2867,
      "Ġbeg": 2868,
      "Ġadditional": 2869,
      "rack": 2870,
      "ĠCast": 2871,
      "Ġunc": 2872,
      "Ġfuture": 2873,
      "ĠMark": 2874,
      "ĠWestern": 2875,
      "Ġleague": 2876,
      "Ġwhom": 2877,
      "ĠPeter": 2878,
      "Ġop": 2879,
      "ĠSoviet": 2880,
      "Ġgold": 2881,
      "Ġpoor": 2882,
      "ĠPat": 2883,
      "Ġfort": 2884,
      "ĠMexic": 2885,
      "ĠAwards": 2886,
      "ĠDem": 2887,
      "lying": 2888,
      "Ġintroduced": 2889,
      "Ġprem": 2890,
      "Ġevidence": 2891,
      "ites": 2892,
      "Ġdon": 2893,
      "Ġsea": 2894,
      "ĠDespite": 2895,
      "Ġidea": 2896,
      "Ġquickly": 2897,
      "ĠSpan": 2898,
      "Ġemb": 2899,
      "atory": 2900,
      "Ġalready": 2901,
      "Ġcenter": 2902,
      "ĠNY": 2903,
      "Ġbridge": 2904,
      "ĠDo": 2905,
      "Ġcal": 2906,
      "Ġ32": 2907,
      "ena": 2908,
      "Ġfrequ": 2909,
      "eck": 2910,
      "usp": 2911,
      "ĠForce": 2912,
      "Ġelection": 2913,
      "Ġproduct": 2914,
      "Ġoccup": 2915,
      "Ġpil": 2916,
      "back": 2917,
      "Ġexcept": 2918,
      "Ġdeal": 2919,
      "irth": 2920,
      "ecially": 2921,
      "Ġ1970": 2922,
      "Ġpen": 2923,
      "ĠThat": 2924,
      "ĠSoc": 2925,
      "ĠGrand": 2926,
      "eum": 2927,
      "aring": 2928,
      "Ġusually": 2929,
      "Ġmusical": 2930,
      "Ġarrived": 2931,
      "Ġwestern": 2932,
      "ĠCoun": 2933,
      "Ġblock": 2934,
      "Ġradio": 2935,
      "unt": 2936,
      "Ġcivil": 2937,
      "liam": 2938,
      "Ġ1980": 2939,
      "Ġcycl": 2940,
      "ully": 2941,
      "ergy": 2942,
      "Ġfemale": 2943,
      "Ġsometimes": 2944,
      "ĠBritain": 2945,
      "Ġstudy": 2946,
      "Ġfood": 2947,
      "Ġresponse": 2948,
      "Ġdecision": 2949,
      "ĠFrank": 2950,
      "Ġmoney": 2951,
      "ĠFilm": 2952,
      "ĠBr": 2953,
      "Ġmagazine": 2954,
      "Ġespecially": 2955,
      "Ġissue": 2956,
      "asc": 2957,
      "liament": 2958,
      "omm": 2959,
      "ha": 2960,
      "Ġlab": 2961,
      "ĠHot": 2962,
      "ĠPac": 2963,
      "ĠDay": 2964,
      "Ġsurface": 2965,
      "Ġliter": 2966,
      "rab": 2967,
      "Ġflood": 2968,
      "Ġmight": 2969,
      "gen": 2970,
      "aint": 2971,
      "Ġenv": 2972,
      "Ġguitar": 2973,
      "Ġcarried": 2974,
      "Ġshows": 2975,
      "Ġcommunity": 2976,
      "Ġconstruct": 2977,
      "Ġestimated": 2978,
      "iter": 2979,
      "Ġarran": 2980,
      "Ġremain": 2981,
      "raw": 2982,
      "aries": 2983,
      "Ġ-": 2984,
      "Ġremaining": 2985,
      "Ġeastern": 2986,
      "Ġminor": 2987,
      "Ġdefeated": 2988,
      "Ġdeterm": 2989,
      "ĠChic": 2990,
      "ĠBen": 2991,
      "inent": 2992,
      "ession": 2993,
      "Ġapprox": 2994,
      "igan": 2995,
      "Ġlarger": 2996,
      "Ġ1999": 2997,
      "ulf": 2998,
      "Ġbecoming": 2999,
      "ĠVictor": 3000,
      "Ġrap": 3001,
      "Ġwood": 3002,
      "Ġcomplete": 3003,
      "Ġ36": 3004,
      "ror": 3005,
      "Ġpolice": 3006,
      "Ġsuggested": 3007,
      "ĠRob": 3008,
      "porary": 3009,
      "Ġmedia": 3010,
      "Ġpressure": 3011,
      "Ġentered": 3012,
      "Ġshoot": 3013,
      "Ġteams": 3014,
      "Ġcommercial": 3015,
      "Ġanal": 3016,
      "Ġ80": 3017,
      "Ġdoc": 3018,
      "Ġlatter": 3019,
      "Ġlyric": 3020,
      "ands": 3021,
      "tt": 3022,
      "Ġmarket": 3023,
      "erve": 3024,
      "Ġlo": 3025,
      "Ġconsider": 3026,
      "Ġstudents": 3027,
      "ises": 3028,
      "sy": 3029,
      "Ġsurround": 3030,
      "Ġinvestig": 3031,
      "Ġbrief": 3032,
      "Ġkey": 3033,
      "Ġconcern": 3034,
      "ĠLos": 3035,
      "Ġpersonal": 3036,
      "St": 3037,
      "inct": 3038,
      "Ġbur": 3039,
      "ĠRh": 3040,
      "Ġprison": 3041,
      "Ġcertain": 3042,
      "ĠMount": 3043,
      "Ġdiscuss": 3044,
      "Ġacqu": 3045,
      "ĠBur": 3046,
      "Ġeffects": 3047,
      "Ġcomplet": 3048,
      "Ġhop": 3049,
      "ĠMill": 3050,
      "Ġappointed": 3051,
      "alled": 3052,
      "Ġder": 3053,
      "Ġsummer": 3054,
      "ĠVirginia": 3055,
      "Ġepisodes": 3056,
      "Ġprior": 3057,
      "ederal": 3058,
      "incip": 3059,
      "II": 3060,
      "NA": 3061,
      "Ġsat": 3062,
      "Ġtar": 3063,
      "change": 3064,
      "Ġemer": 3065,
      "Ġstaff": 3066,
      "lymp": 3067,
      "Ġsize": 3068,
      "enth": 3069,
      "lo": 3070,
      "ĠTra": 3071,
      "Ġchanges": 3072,
      "ulated": 3073,
      "Ġcommission": 3074,
      "imate": 3075,
      "ĠInf": 3076,
      "Ġwinning": 3077,
      "Ġlimited": 3078,
      "ĠFrom": 3079,
      "Ġscenes": 3080,
      "Ġfleet": 3081,
      "Ġriver": 3082,
      "Ġleaving": 3083,
      "Ġdestroyed": 3084,
      "iser": 3085,
      "Ġdeg": 3086,
      "ores": 3087,
      "Ġpay": 3088,
      "pris": 3089,
      "ĠTex": 3090,
      "Ġrid": 3091,
      "Ġden": 3092,
      "Ġdraw": 3093,
      "ĠOlymp": 3094,
      "ĠSecond": 3095,
      "ĠFle": 3096,
      "ĠClub": 3097,
      "ĠFlor": 3098,
      "Ġself": 3099,
      "ari": 3100,
      "rd": 3101,
      "ga": 3102,
      "Ġrights": 3103,
      "ournal": 3104,
      "Ġprovide": 3105,
      "Ġwriter": 3106,
      "ires": 3107,
      "rigade": 3108,
      "Ġpolic": 3109,
      "Ġ75": 3110,
      "que": 3111,
      "idents": 3112,
      "Ġfail": 3113,
      "ension": 3114,
      "Ġdate": 3115,
      "Ġterrit": 3116,
      "su": 3117,
      "Ġtrib": 3118,
      "ĠIm": 3119,
      "AF": 3120,
      "oms": 3121,
      "han": 3122,
      "Ġgirl": 3123,
      "Ġproposed": 3124,
      "ĠJackson": 3125,
      "ex": 3126,
      "Ġinfluence": 3127,
      "ties": 3128,
      "ĠSpanish": 3129,
      "Ġoverall": 3130,
      "ĠParty": 3131,
      "ĠLouis": 3132,
      "Ġtax": 3133,
      "Ġkil": 3134,
      "Ġtransport": 3135,
      "Ġstructure": 3136,
      "Ġequip": 3137,
      "iral": 3138,
      "Ġ184": 3139,
      "Ġ1960": 3140,
      "Ġscript": 3141,
      "Ġbr": 3142,
      "Ġdivision": 3143,
      "Ġ300": 3144,
      "inese": 3145,
      "ÃŃ": 3146,
      "be": 3147,
      "Ġagreed": 3148,
      "ĠAssociation": 3149,
      "Ġanti": 3150,
      "Ġintended": 3151,
      "Ġjud": 3152,
      "Ġbow": 3153,
      "Ġrunning": 3154,
      "ift": 3155,
      "ending": 3156,
      "icles": 3157,
      "Ġtype": 3158,
      "sen": 3159,
      "Ġdaughter": 3160,
      "Ġbig": 3161,
      "Ġbroadcast": 3162,
      "Ġpurch": 3163,
      "Ġnearly": 3164,
      "Ġsupported": 3165,
      "atives": 3166,
      "Ġdeep": 3167,
      "che": 3168,
      "Ġresearch": 3169,
      "Ġdi": 3170,
      "Ġwide": 3171,
      "imum": 3172,
      "Ġestablish": 3173,
      "Ġhelped": 3174,
      "Ġmarried": 3175,
      "ĠChicago": 3176,
      "iles": 3177,
      "Ġmovement": 3178,
      "Ġawarded": 3179,
      "Ġmultip": 3180,
      "ny": 3181,
      "ĠGreen": 3182,
      "ili": 3183,
      "ĠDu": 3184,
      "ĠCouncil": 3185,
      "ĠLater": 3186,
      "atively": 3187,
      "ĠJust": 3188,
      "ĠTer": 3189,
      "Ġ1998": 3190,
      "Ġfavor": 3191,
      "Ġcreate": 3192,
      "acing": 3193,
      "Ġintens": 3194,
      "ĠChinese": 3195,
      "Ġdiss": 3196,
      "Ġbird": 3197,
      "Ġdark": 3198,
      "Ġsusp": 3199,
      "omer": 3200,
      "ĠAdm": 3201,
      "teen": 3202,
      "Ġstars": 3203,
      "Ã¶": 3204,
      "ĠCont": 3205,
      "Ġlonger": 3206,
      "ĠRo": 3207,
      "Ġlanguage": 3208,
      "Ġhigher": 3209,
      "Ġcat": 3210,
      "Ġplanned": 3211,
      "mon": 3212,
      "Ġcompared": 3213,
      "Ġcaptured": 3214,
      "Ġincreasing": 3215,
      "Ġfans": 3216,
      "Ġconclud": 3217,
      "uz": 3218,
      "Ġcourse": 3219,
      "ĠIr": 3220,
      "ĠSong": 3221,
      "Ġchanged": 3222,
      "ien": 3223,
      "ĠIf": 3224,
      "ounds": 3225,
      "Ġexperience": 3226,
      "bers": 3227,
      "Ġapproximately": 3228,
      "Ġrelated": 3229,
      "Ġ33": 3230,
      "Ġdone": 3231,
      "Ġfeature": 3232,
      "Ġfifth": 3233,
      "Ġliving": 3234,
      "Ġthemsel": 3235,
      "enty": 3236,
      "ĠOver": 3237,
      "Ġthemselves": 3238,
      "abit": 3239,
      "ĠSal": 3240,
      "Ġproducer": 3241,
      "ĠKore": 3242,
      "tained": 3243,
      "ĠEmp": 3244,
      "arent": 3245,
      "Ġ70": 3246,
      "Ġtemper": 3247,
      "Ġspace": 3248,
      "ĠEdward": 3249,
      "Ġtracks": 3250,
      "Ġmostly": 3251,
      "ĠHistory": 3252,
      "isions": 3253,
      "Th": 3254,
      "Ġwithd": 3255,
      "ĠEarly": 3256,
      "olic": 3257,
      "ĠOper": 3258,
      "ĠEnter": 3259,
      "ĠPacific": 3260,
      "ĠUp": 3261,
      "Ġthus": 3262,
      "can": 3263,
      "ij": 3264,
      "Ġdead": 3265,
      "Ġwoman": 3266,
      "umn": 3267,
      "Ġoperations": 3268,
      "Ġimm": 3269,
      "Ġremains": 3270,
      "ĠBillboard": 3271,
      "Ġbring": 3272,
      "Ġsyn": 3273,
      "Ġquarter": 3274,
      "ĠServ": 3275,
      "thing": 3276,
      "Ġour": 3277,
      "Ġnatural": 3278,
      "imin": 3279,
      "Ġult": 3280,
      "oint": 3281,
      "Ã¼": 3282,
      "vin": 3283,
      "Ġwhether": 3284,
      "Ġconcept": 3285,
      "Ġweap": 3286,
      "Ġdram": 3287,
      "anded": 3288,
      "Ġprobably": 3289,
      "Ġsoldiers": 3290,
      "Ġran": 3291,
      "Ġcopies": 3292,
      "Al": 3293,
      "rast": 3294,
      "uth": 3295,
      "bour": 3296,
      "Ġbuildings": 3297,
      "Ġleader": 3298,
      "Ġvoice": 3299,
      "Ġface": 3300,
      "Ġboy": 3301,
      "Ġextended": 3302,
      "Ġlyrics": 3303,
      "Ġforward": 3304,
      "Ġdepart": 3305,
      "ĠMont": 3306,
      "Ġcomplex": 3307,
      "Ġboard": 3308,
      "iring": 3309,
      "ĠEv": 3310,
      "Ġreact": 3311,
      "Ġbattles": 3312,
      "Ġissued": 3313,
      "Ġheav": 3314,
      "Ġchall": 3315,
      "riage": 3316,
      "vey": 3317,
      "ging": 3318,
      "Ġreally": 3319,
      "itt": 3320,
      "Ġcountries": 3321,
      "ĠAtlantic": 3322,
      "ospital": 3323,
      "Ġ1997": 3324,
      "rate": 3325,
      "ĠSun": 3326,
      "urt": 3327,
      "Ġsuffered": 3328,
      "Ġ37": 3329,
      "ĠScot": 3330,
      "Ġcm": 3331,
      "Ġgoals": 3332,
      "Ġincludes": 3333,
      "ĠJohnson": 3334,
      "Ġimmediately": 3335,
      "Ġattend": 3336,
      "hood": 3337,
      "ĠLake": 3338,
      "Ġbreed": 3339,
      "Ġmanager": 3340,
      "Ġcapital": 3341,
      "Ġprivate": 3342,
      "Ġmixed": 3343,
      "iant": 3344,
      "Ġofficers": 3345,
      "ĠCongress": 3346,
      "ĠInter": 3347,
      "Ġlikely": 3348,
      "Ġcann": 3349,
      "ĠLove": 3350,
      "ĠBack": 3351,
      "Ġdistrib": 3352,
      "hold": 3353,
      "Ġmach": 3354,
      "ĠFlorida": 3355,
      "Ġmeth": 3356,
      "ĠJew": 3357,
      "bury": 3358,
      "Ġremoved": 3359,
      "Ġplant": 3360,
      "Ġinitial": 3361,
      "Ġceleb": 3362,
      "During": 3363,
      "Ġincrease": 3364,
      "ĠFranc": 3365,
      "venue": 3366,
      "Ġhealth": 3367,
      "de": 3368,
      "Ġsubsequently": 3369,
      "ĠApp": 3370,
      "Ġleave": 3371,
      "Ġplans": 3372,
      "ria": 3373,
      "Ġalways": 3374,
      "Ġfocus": 3375,
      "Ġcoin": 3376,
      "rol": 3377,
      "ĠMost": 3378,
      "Ġnetwork": 3379,
      "ections": 3380,
      "Ġservices": 3381,
      "Ġmount": 3382,
      "Ġvia": 3383,
      "Ġstatus": 3384,
      "Ġcompan": 3385,
      "rial": 3386,
      "Ġvisit": 3387,
      "Ġlocation": 3388,
      "order": 3389,
      "ĠFinal": 3390,
      "ams": 3391,
      "iation": 3392,
      "ĠBig": 3393,
      "ĠFort": 3394,
      "ĠTown": 3395,
      "Ġproblems": 3396,
      "Ġflag": 3397,
      "ĠSea": 3398,
      "ĠQueen": 3399,
      "well": 3400,
      "Ġoffered": 3401,
      "Ġinstr": 3402,
      "ctor": 3403,
      "ĠDist": 3404,
      "etic": 3405,
      "ously": 3406,
      "aily": 3407,
      "Ġmodel": 3408,
      "Ġterms": 3409,
      "Ġnorm": 3410,
      "Ġmur": 3411,
      "Ġcolon": 3412,
      "ĠTexas": 3413,
      "ĠChina": 3414,
      "Ġapproach": 3415,
      "wer": 3416,
      "Ġvillage": 3417,
      "Ġsomething": 3418,
      "Ġadminist": 3419,
      "ĠOld": 3420,
      "Ġtons": 3421,
      "Ġfell": 3422,
      "ounted": 3423,
      "At": 3424,
      "ĠEarth": 3425,
      "ĠFollowing": 3426,
      "Ġtor": 3427,
      "ironment": 3428,
      "Ġsch": 3429,
      "Ġmajority": 3430,
      "burg": 3431,
      "ĠTor": 3432,
      "ĠKn": 3433,
      "Ġprofessional": 3434,
      "ĠCamp": 3435,
      "Ġcounter": 3436,
      "lor": 3437,
      "Ġ183": 3438,
      "adium": 3439,
      "Ã³": 3440,
      "ĠLaw": 3441,
      "stant": 3442,
      "Ġgot": 3443,
      "ibr": 3444,
      "Ġcause": 3445,
      "Ġconsist": 3446,
      "aches": 3447,
      "uries": 3448,
      "ĠAfrica": 3449,
      "Ġinters": 3450,
      "ĠLord": 3451,
      "ĠRail": 3452,
      "Ġdamaged": 3453,
      "ĠTrans": 3454,
      "ĠPet": 3455,
      "Ġmeeting": 3456,
      "pan": 3457,
      "oe": 3458,
      "olk": 3459,
      "Ġjob": 3460,
      "Ġappears": 3461,
      "ĠMr": 3462,
      "Ġconfir": 3463,
      "Ġadop": 3464,
      "Ġminute": 3465,
      "ĠPri": 3466,
      "ĠJim": 3467,
      "ĠCanadian": 3468,
      "Ġranked": 3469,
      "Ġlay": 3470,
      "oes": 3471,
      "uf": 3472,
      "Ġindividual": 3473,
      "Ġcomposed": 3474,
      "cean": 3475,
      "Ġrevealed": 3476,
      "ĠCenter": 3477,
      "ĠAnt": 3478,
      "ify": 3479,
      "ĠTur": 3480,
      "Ġang": 3481,
      "Ġflight": 3482,
      "Ġattacks": 3483,
      "ĠSquadron": 3484,
      "itect": 3485,
      "ĠBoy": 3486,
      "reater": 3487,
      "Ġplot": 3488,
      "Ġ90": 3489,
      "Ġdiscovered": 3490,
      "Ġraised": 3491,
      "reak": 3492,
      "umed": 3493,
      "Ġfinanc": 3494,
      "ĠWood": 3495,
      "Ġrespectively": 3496,
      "Ġmakes": 3497,
      "gar": 3498,
      "ĠRussian": 3499,
      "Ġnumerous": 3500,
      "ĠHow": 3501,
      "ĠIts": 3502,
      "Ġassociated": 3503,
      "ste": 3504,
      "Ġaltern": 3505,
      "Ġtakes": 3506,
      "ĠAngeles": 3507,
      "Ġdomin": 3508,
      "ĠIII": 3509,
      "Ġneeded": 3510,
      "Ġinspired": 3511,
      "Ġanc": 3512,
      "Ġlived": 3513,
      "Ġ1995": 3514,
      "ault": 3515,
      "Ġgrand": 3516,
      "ĠHighway": 3517,
      "Ġlaunched": 3518,
      "Ġyet": 3519,
      "ĠCarol": 3520,
      "ription": 3521,
      "Ġcand": 3522,
      "eff": 3523,
      "Ġnature": 3524,
      "ĠKent": 3525,
      "Ġ34": 3526,
      "Ġamb": 3527,
      "Ġpow": 3528,
      "ĠCentral": 3529,
      "Ġdig": 3530,
      "Ġcoach": 3531,
      "Ġoccurred": 3532,
      "ken": 3533,
      "Ġcontains": 3534,
      "Ġveh": 3535,
      "estival": 3536,
      "Ġbene": 3537,
      "Ġshown": 3538,
      "Ġattempted": 3539,
      "uals": 3540,
      "Ġattacked": 3541,
      "uments": 3542,
      "Ġmoving": 3543,
      "Ġconditions": 3544,
      "ĠOl": 3545,
      "Ġhour": 3546,
      "rie": 3547,
      "Ġupper": 3548,
      "ka": 3549,
      "VD": 3550,
      "iest": 3551,
      "down": 3552,
      "Ġsales": 3553,
      "Ġgra": 3554,
      "ective": 3555,
      "ĠMur": 3556,
      "ĠMel": 3557,
      "joy": 3558,
      "Ġcollect": 3559,
      "imb": 3560,
      "Ġ38": 3561,
      "orce": 3562,
      "ĠTV": 3563,
      "aught": 3564,
      "ĠYear": 3565,
      "Ġissues": 3566,
      "Ġbirth": 3567,
      "Ġwhole": 3568,
      "Ġ2016": 3569,
      "Ġsal": 3570,
      "izing": 3571,
      "ĠMartin": 3572,
      "Ġcer": 3573,
      "Ġexam": 3574,
      "Ġ1950": 3575,
      "Ġinformation": 3576,
      "Ġyards": 3577,
      "Ġfarm": 3578,
      "oly": 3579,
      "ĠBow": 3580,
      "Ġslight": 3581,
      "Ġbox": 3582,
      "vert": 3583,
      "win": 3584,
      "urity": 3585,
      "uing": 3586,
      "Ġ1996": 3587,
      "Ġmom": 3588,
      "Ġreferred": 3589,
      "Ġcritical": 3590,
      "Ġi": 3591,
      "ĠEmpire": 3592,
      "Ġincor": 3593,
      "reme": 3594,
      "Ġnumbers": 3595,
      "Ġfinally": 3596,
      "Ġsmaller": 3597,
      "Ġelected": 3598,
      "Ġselected": 3599,
      "Ġdefeat": 3600,
      "Ġsen": 3601,
      "Ġresulted": 3602,
      "ĠTour": 3603,
      "Ġscient": 3604,
      "ĠRev": 3605,
      "ĠGroup": 3606,
      "Ġstay": 3607,
      "Ġbad": 3608,
      "Ġgrant": 3609,
      "ĠRad": 3610,
      "Ġqual": 3611,
      "Ġactive": 3612,
      "ĠSir": 3613,
      "Ġprincip": 3614,
      "Ġsinger": 3615,
      "kin": 3616,
      "Ġstandard": 3617,
      "Ġsecret": 3618,
      "Ġpit": 3619,
      "itation": 3620,
      "uated": 3621,
      "Ġmission": 3622,
      "Ġindustry": 3623,
      "ĠMiss": 3624,
      "enant": 3625,
      "Ġlargely": 3626,
      "ortun": 3627,
      "Ġens": 3628,
      "Ġoperation": 3629,
      "ĠBet": 3630,
      "Ġsem": 3631,
      "andon": 3632,
      "Ġprec": 3633,
      "onic": 3634,
      "Ġlink": 3635,
      "oura": 3636,
      "Ġassigned": 3637,
      "Ġsaf": 3638,
      "Ġearned": 3639,
      "Ġ1994": 3640,
      "Ġthr": 3641,
      "Ġlegisl": 3642,
      "Ġcommented": 3643,
      "ĠItalian": 3644,
      "ya": 3645,
      "itude": 3646,
      "Ġmale": 3647,
      "Ġexpected": 3648,
      "ãĥ": 3649,
      "ĠSuper": 3650,
      "oud": 3651,
      "iled": 3652,
      "ĠCorps": 3653,
      "ĠDes": 3654,
      "Ġaudience": 3655,
      "Ġroy": 3656,
      "lled": 3657,
      "Ġlisted": 3658,
      "Ġsuggest": 3659,
      "Ġcovered": 3660,
      "Ġpurp": 3661,
      "ĠDVD": 3662,
      "Ġunable": 3663,
      "irection": 3664,
      "Ġsched": 3665,
      "Ġheart": 3666,
      "Ġtraditional": 3667,
      "Ġeducation": 3668,
      "gr": 3669,
      "Ġtrade": 3670,
      "ĠBoth": 3671,
      "Ġartist": 3672,
      "Ġnewsp": 3673,
      "Ġfriends": 3674,
      "Ġdouble": 3675,
      "Ġclosed": 3676,
      "Ġrefused": 3677,
      "ĠDel": 3678,
      "agon": 3679,
      "Ġunderst": 3680,
      "Ġaw": 3681,
      "Ġrecover": 3682,
      "Ġattention": 3683,
      "ounts": 3684,
      "use": 3685,
      "ĠPenn": 3686,
      "Ġmethod": 3687,
      "ighter": 3688,
      "Ġprimary": 3689,
      "Ġsister": 3690,
      "ogue": 3691,
      "ĠNot": 3692,
      "Ġkind": 3693,
      "Ġtalk": 3694,
      "ĠViet": 3695,
      "tered": 3696,
      "Ġreason": 3697,
      "ĠGar": 3698,
      "Ġofficer": 3699,
      "Ġplat": 3700,
      "Ġbelow": 3701,
      "oo": 3702,
      "Ġcontem": 3703,
      "hips": 3704,
      "Ġenjoy": 3705,
      "Ġability": 3706,
      "Ġ1940": 3707,
      "Ġdepression": 3708,
      "Ġmeant": 3709,
      "anced": 3710,
      "Ġperformances": 3711,
      "isher": 3712,
      "Ġdeclared": 3713,
      "Ġwalk": 3714,
      "Ġblood": 3715,
      "Ġ49": 3716,
      "Ġgiving": 3717,
      "Ġletter": 3718,
      "Ġcompl": 3719,
      "Ġword": 3720,
      "undred": 3721,
      "ples": 3722,
      "ĠWales": 3723,
      "Ġfighting": 3724,
      "Ġmiddle": 3725,
      "Ġcommander": 3726,
      "Ġbooks": 3727,
      "Ġreligious": 3728,
      "Ġtheat": 3729,
      "Ġmax": 3730,
      "Ġhot": 3731,
      "ĠOut": 3732,
      "Ġ180": 3733,
      "ĠMany": 3734,
      "Ġsett": 3735,
      "Ġrate": 3736,
      "ĠCath": 3737,
      "ona": 3738,
      "ĠDis": 3739,
      "ĠJose": 3740,
      "ĠMichigan": 3741,
      "Ġrecords": 3742,
      "Ġmatches": 3743,
      "Ġconstit": 3744,
      "ĠCr": 3745,
      "Ġnames": 3746,
      "aped": 3747,
      "Ġproduce": 3748,
      "Ġquestion": 3749,
      "ĠNort": 3750,
      "utch": 3751,
      "ĠDemocr": 3752,
      "antasy": 3753,
      "Ġcompetition": 3754,
      "irt": 3755,
      "Ġcentre": 3756,
      "Ġserious": 3757,
      "Ġunit": 3758,
      "road": 3759,
      "ĠMass": 3760,
      "ĠTest": 3761,
      "odies": 3762,
      "Ġdisapp": 3763,
      "Ġtouch": 3764,
      "Ġvocals": 3765,
      "ims": 3766,
      "ĠMinister": 3767,
      "iences": 3768,
      "20": 3769,
      "Ġmention": 3770,
      "ounded": 3771,
      "Ġri": 3772,
      "ĠZeal": 3773,
      "ector": 3774,
      "ĠAcad": 3775,
      "Ġaccount": 3776,
      "Ġdocument": 3777,
      "Ġabandon": 3778,
      "icted": 3779,
      "Ġrapid": 3780,
      "Ġenergy": 3781,
      "Ġnecess": 3782,
      "Ġ41": 3783,
      "ux": 3784,
      "ils": 3785,
      "quar": 3786,
      "Ġ1992": 3787,
      "Ġkilomet": 3788,
      "icient": 3789,
      "ervation": 3790,
      "ares": 3791,
      "echan": 3792,
      "Ġdut": 3793,
      "Ġtraff": 3794,
      "Ġconstructed": 3795,
      "ĠTeam": 3796,
      "ĠCle": 3797,
      "ening": 3798,
      "yr": 3799,
      "Ġtheme": 3800,
      "Ġris": 3801,
      "oses": 3802,
      "ĠCare": 3803,
      "rier": 3804,
      "ette": 3805,
      "Ġroyal": 3806,
      "Ġpick": 3807,
      "ishop": 3808,
      "Ġstra": 3809,
      "Ġnearby": 3810,
      "Ġhighly": 3811,
      "Ġseparate": 3812,
      "ĠZealand": 3813,
      "Ġcontinue": 3814,
      "edic": 3815,
      "vention": 3816,
      "ĠLong": 3817,
      "Ġprep": 3818,
      "Ġchief": 3819,
      "ĠOx": 3820,
      "ails": 3821,
      "Ġdrum": 3822,
      "Ġeffort": 3823,
      "osh": 3824,
      "rug": 3825,
      "Ġcas": 3826,
      "ĠFer": 3827,
      "Ġpresented": 3828,
      "Ġtur": 3829,
      "ĠPre": 3830,
      "Ġcombat": 3831,
      "oper": 3832,
      "Ġpositions": 3833,
      "ĠUnder": 3834,
      "Ġannual": 3835,
      "Ġreduced": 3836,
      "ether": 3837,
      "ibly": 3838,
      "Ġcontrovers": 3839,
      "uit": 3840,
      "Ġ400": 3841,
      "Ġdirectly": 3842,
      "ĠMexico": 3843,
      "ieut": 3844,
      "ĠArch": 3845,
      "cel": 3846,
      "hy": 3847,
      "Ġlevels": 3848,
      "ĠAfrican": 3849,
      "Ġmeans": 3850,
      "ĠFore": 3851,
      "Ġcle": 3852,
      "Ġneigh": 3853,
      "Ġnotes": 3854,
      "Ġ1930": 3855,
      "Ġattended": 3856,
      "Ġsevent": 3857,
      "Ġpractice": 3858,
      "Ġtried": 3859,
      "shire": 3860,
      "Ġcompos": 3861,
      "Ġforest": 3862,
      "emorial": 3863,
      "ĠTime": 3864,
      "ĠStep": 3865,
      "Ġhar": 3866,
      "Ġfast": 3867,
      "Ġnuc": 3868,
      "Ġedition": 3869,
      "Ġtrain": 3870,
      "Ġge": 3871,
      "ado": 3872,
      "acher": 3873,
      "Ġ55": 3874,
      "ĠHaw": 3875,
      "ita": 3876,
      "ĠFox": 3877,
      "arents": 3878,
      "ĠSum": 3879,
      "vement": 3880,
      "Ġtwenty": 3881,
      "Ġmetal": 3882,
      "Ġaccepted": 3883,
      "osen": 3884,
      "Ġwatch": 3885,
      "ĠChart": 3886,
      "ĠWal": 3887,
      "Ġstating": 3888,
      "ĠCons": 3889,
      "Ġmovie": 3890,
      "Ġarchitect": 3891,
      "Ġtext": 3892,
      "rical": 3893,
      "Ġrepe": 3894,
      "Ġcandid": 3895,
      "isation": 3896,
      "pe": 3897,
      "track": 3898,
      "light": 3899,
      "Ġconcert": 3900,
      "ras": 3901,
      "Ġ1993": 3902,
      "Ġadvance": 3903,
      "stitute": 3904,
      "Ġ1991": 3905,
      "Ġpair": 3906,
      "Ġportray": 3907,
      "Ġdirection": 3908,
      "house": 3909,
      "Ġ179": 3910,
      "Ġfr": 3911,
      "Äĩ": 3912,
      "Ġseem": 3913,
      "Ġdism": 3914,
      "Ġschools": 3915,
      "Ġlegal": 3916,
      "ĠSo": 3917,
      "ĠMa": 3918,
      "Ġreject": 3919,
      "eway": 3920,
      "lict": 3921,
      "inem": 3922,
      "ĠWall": 3923,
      "ĠAnother": 3924,
      "MS": 3925,
      "wide": 3926,
      "Ġasp": 3927,
      "icip": 3928,
      "Ġhorse": 3929,
      "fall": 3930,
      "ĠTre": 3931,
      "Ġthick": 3932,
      "Ġmarriage": 3933,
      "illery": 3934,
      "aging": 3935,
      "Ġrecomm": 3936,
      "ĠMajor": 3937,
      "ĠMore": 3938,
      "Ġefforts": 3939,
      "Ġmanaged": 3940,
      "Ġcollege": 3941,
      "ĠDepartment": 3942,
      "Ġ+": 3943,
      "Ġpurs": 3944,
      "ĠScotland": 3945,
      "like": 3946,
      "Ġwing": 3947,
      "utions": 3948,
      "Ġending": 3949,
      "Ġ39": 3950,
      "Ġresulting": 3951,
      "irit": 3952,
      "ĠSar": 3953,
      "ieutenant": 3954,
      "ros": 3955,
      "ĠGreek": 3956,
      "band": 3957,
      "Ġshowed": 3958,
      "Ġdropped": 3959,
      "awn": 3960,
      "Ġresponsible": 3961,
      "illed": 3962,
      "Ġnation": 3963,
      "Ġdisplay": 3964,
      "Ġinside": 3965,
      "ĠBu": 3966,
      "Ġcases": 3967,
      "Ġkept": 3968,
      "Ġcust": 3969,
      "ĠJones": 3970,
      "Ġenvironment": 3971,
      "ĠInfantry": 3972,
      "Ġculture": 3973,
      "Ġrare": 3974,
      "Ġmeaning": 3975,
      "Ġrat": 3976,
      "Ġcyclone": 3977,
      "olf": 3978,
      "ĠKh": 3979,
      "Ġ48": 3980,
      "Ġdom": 3981,
      "ĠMadonna": 3982,
      "ĠDar": 3983,
      "Ġincorpor": 3984,
      "ĠBrad": 3985,
      "Ġbegins": 3986,
      "pass": 3987,
      "ĠCross": 3988,
      "Ġvariety": 3989,
      "ceeded": 3990,
      "Ġmorning": 3991,
      "Ġcerem": 3992,
      "Ġhouses": 3993,
      "Ġforms": 3994,
      "Ġchampionship": 3995,
      "ĠChris": 3996,
      "ĠBob": 3997,
      "Ġwords": 3998,
      "ani": 3999,
      "ini": 4000,
      "Ġarrest": 4001,
      "Ġschol": 4002,
      "Ġyard": 4003,
      "ĠCreek": 4004,
      "peror": 4005,
      "ĠMatt": 4006,
      "Ġoil": 4007,
      "ĠBost": 4008,
      "ĠManc": 4009,
      "Ġinches": 4010,
      "Ġmarked": 4011,
      "cend": 4012,
      "An": 4013,
      "gl": 4014,
      "ĠHel": 4015,
      "Ġcontinues": 4016,
      "ĠKenn": 4017,
      "Ġspl": 4018,
      "Ġscience": 4019,
      "Ġperm": 4020,
      "ĠAnn": 4021,
      "Ġsymb": 4022,
      "ĠCrit": 4023,
      "ĠBC": 4024,
      "ĠHung": 4025,
      "Ġ181": 4026,
      "gypt": 4027,
      "ecting": 4028,
      "ittle": 4029,
      "Åį": 4030,
      "ĠRecords": 4031,
      "Ġbank": 4032,
      "ols": 4033,
      "Ġuses": 4034,
      "Ġeconomic": 4035,
      "writ": 4036,
      "cle": 4037,
      "ĠPost": 4038,
      "Ġsource": 4039,
      "ĠLeg": 4040,
      "thel": 4041,
      "bed": 4042,
      "ĠSecret": 4043,
      "ĠStone": 4044,
      "ĠEr": 4045,
      "Ġquality": 4046,
      "Ġdefend": 4047,
      "ulations": 4048,
      "ĠTheir": 4049,
      "Ġlear": 4050,
      "ĠWilliams": 4051,
      "ĠService": 4052,
      "Ġhundred": 4053,
      "ĠVer": 4054,
      "Ġsettle": 4055,
      "ĠParliament": 4056,
      "ĠLad": 4057,
      "ĠGames": 4058,
      "Ġimpact": 4059,
      "Ġstarting": 4060,
      "Ġconducted": 4061,
      "ĠChe": 4062,
      "thur": 4063,
      "Ġspecific": 4064,
      "Ġstrugg": 4065,
      "Ġallowing": 4066,
      "ĠSever": 4067,
      "ĠDou": 4068,
      "ĠGo": 4069,
      "ĠPan": 4070,
      "Ġbeat": 4071,
      "een": 4072,
      "Ġpresence": 4073,
      "Ġ1942": 4074,
      "ĠSociety": 4075,
      "Ġamount": 4076,
      "Ġsides": 4077,
      "Ġdu": 4078,
      "ĠMic": 4079,
      "Ġviewers": 4080,
      "Ġcaptain": 4081,
      "sych": 4082,
      "Ġdance": 4083,
      "Ġmetres": 4084,
      "Ġchap": 4085,
      "ingu": 4086,
      "ĠFour": 4087,
      "ĠNews": 4088,
      "rown": 4089,
      "Ġunivers": 4090,
      "irm": 4091,
      "Ġexhib": 4092,
      "Ġsuppl": 4093,
      "Ġrule": 4094,
      "ĠEgypt": 4095
    },
    "merges": [
      [
        "Ġ",
        "t"
      ],
      [
        "h",
        "e"
      ],
      [
        "Ġ",
        "a"
      ],
      [
        "i",
        "n"
      ],
      [
        "Ġt",
        "he"
      ],
      [
        "e",
        "r"
      ],
      [
        "o",
        "n"
      ],
      [
        "Ġ",
        ","
      ],
      [
        "r",
        "e"
      ],
      [
        "Ġ",
        "s"
      ],
      [
        "e",
        "d"
      ],
      [
        "Ġ",
        "w"
      ],
      [
        "Ġ",
        "o"
      ],
      [
        "n",
        "d"
      ],
      [
        "a",
        "t"
      ],
      [
        "Ġ",
        "."
      ],
      [
        "o",
        "r"
      ],
      [
        "e",
        "n"
      ],
      [
        "Ġ",
        "c"
      ],
      [
        "i",
        "t"
      ],
      [
        "Ġ",
        "f"
      ],
      [
        "i",
        "s"
      ],
      [
        "e",
        "s"
      ],
      [
        "a",
        "r"
      ],
      [
        "Ġ",
        "b"
      ],
      [
        "Ġo",
        "f"
      ],
      [
        "a",
        "n"
      ],
      [
        "Ġ",
        "in"
      ],
      [
        "a",
        "l"
      ],
      [
        "in",
        "g"
      ],
      [
        "Ġ",
        "p"
      ],
      [
        "a",
        "s"
      ],
      [
        "Ġa",
        "nd"
      ],
      [
        "Ġt",
        "o"
      ],
      [
        "i",
        "c"
      ],
      [
        "r",
        "o"
      ],
      [
        "Ġ",
        "m"
      ],
      [
        "Ġ",
        "d"
      ],
      [
        "Ġ",
        "h"
      ],
      [
        "i",
        "on"
      ],
      [
        "l",
        "e"
      ],
      [
        "o",
        "u"
      ],
      [
        "Ġ",
        "T"
      ],
      [
        "Ġ",
        "re"
      ],
      [
        "i",
        "l"
      ],
      [
        "Ġ",
        "S"
      ],
      [
        "en",
        "t"
      ],
      [
        "Ġ",
        "\""
      ],
      [
        "Ġ",
        "1"
      ],
      [
        "Ġ",
        "A"
      ],
      [
        "Ġt",
        "h"
      ],
      [
        "s",
        "t"
      ],
      [
        "e",
        "l"
      ],
      [
        "Ġ",
        "l"
      ],
      [
        "Ġ",
        "@"
      ],
      [
        "Ġ",
        "C"
      ],
      [
        "o",
        "m"
      ],
      [
        "Ġ",
        "e"
      ],
      [
        "Ġ",
        "="
      ],
      [
        "a",
        "m"
      ],
      [
        "Ġ",
        "n"
      ],
      [
        "a",
        "d"
      ],
      [
        "a",
        "c"
      ],
      [
        "Ġw",
        "as"
      ],
      [
        "Ġ",
        "M"
      ],
      [
        "e",
        "c"
      ],
      [
        "Ġ",
        "on"
      ],
      [
        "Ġ",
        "B"
      ],
      [
        "l",
        "y"
      ],
      [
        "u",
        "r"
      ],
      [
        "Ġ",
        "'"
      ],
      [
        "e",
        "t"
      ],
      [
        "i",
        "d"
      ],
      [
        "o",
        "l"
      ],
      [
        "Ġ",
        "g"
      ],
      [
        "i",
        "m"
      ],
      [
        "-",
        "@"
      ],
      [
        "Ġ@",
        "-@"
      ],
      [
        "Ġf",
        "or"
      ],
      [
        "i",
        "r"
      ],
      [
        "i",
        "g"
      ],
      [
        "i",
        "v"
      ],
      [
        "o",
        "t"
      ],
      [
        "t",
        "er"
      ],
      [
        "u",
        "t"
      ],
      [
        "ĠT",
        "he"
      ],
      [
        "Ġ",
        "I"
      ],
      [
        "Ġ",
        "H"
      ],
      [
        "Ġa",
        "s"
      ],
      [
        "u",
        "s"
      ],
      [
        "o",
        "w"
      ],
      [
        "it",
        "h"
      ],
      [
        "a",
        "y"
      ],
      [
        "Ġs",
        "t"
      ],
      [
        "Ġ",
        "2"
      ],
      [
        "Ġ",
        "P"
      ],
      [
        "Ġ",
        "he"
      ],
      [
        "v",
        "er"
      ],
      [
        "at",
        "ion"
      ],
      [
        "Ġw",
        "ith"
      ],
      [
        "Ġb",
        "e"
      ],
      [
        "Ġth",
        "at"
      ],
      [
        "Ġ",
        "R"
      ],
      [
        "c",
        "e"
      ],
      [
        "u",
        "n"
      ],
      [
        "Ġ",
        "D"
      ],
      [
        "e",
        "m"
      ],
      [
        "Ġw",
        "h"
      ],
      [
        "c",
        "h"
      ],
      [
        "Ġb",
        "y"
      ],
      [
        "t",
        "h"
      ],
      [
        "Ġ",
        "W"
      ],
      [
        "Ġa",
        "l"
      ],
      [
        "Ġ",
        ")"
      ],
      [
        "Ġ",
        "F"
      ],
      [
        "Ġ",
        "("
      ],
      [
        "u",
        "l"
      ],
      [
        "Ġ",
        "is"
      ],
      [
        "Ġc",
        "on"
      ],
      [
        "er",
        "s"
      ],
      [
        "Ġa",
        "t"
      ],
      [
        "Ġ",
        "L"
      ],
      [
        "Ġ",
        "G"
      ],
      [
        "c",
        "t"
      ],
      [
        "r",
        "a"
      ],
      [
        "Ġ",
        "N"
      ],
      [
        "o",
        "s"
      ],
      [
        "Ġa",
        "n"
      ],
      [
        "Ġ1",
        "9"
      ],
      [
        "Ġ",
        "it"
      ],
      [
        "he",
        "r"
      ],
      [
        "ro",
        "m"
      ],
      [
        "a",
        "nd"
      ],
      [
        "u",
        "m"
      ],
      [
        "es",
        "t"
      ],
      [
        "0",
        "0"
      ],
      [
        "Ġ",
        "J"
      ],
      [
        "Ġh",
        "is"
      ],
      [
        "a",
        "g"
      ],
      [
        "a",
        "v"
      ],
      [
        "a",
        "in"
      ],
      [
        "Ġ",
        "E"
      ],
      [
        "r",
        "i"
      ],
      [
        "o",
        "d"
      ],
      [
        "Ġf",
        "rom"
      ],
      [
        "is",
        "t"
      ],
      [
        "Ġc",
        "om"
      ],
      [
        "Ġ",
        "v"
      ],
      [
        "Ġp",
        "ro"
      ],
      [
        "o",
        "p"
      ],
      [
        "il",
        "l"
      ],
      [
        "o",
        "re"
      ],
      [
        "Ġ",
        "O"
      ],
      [
        "i",
        "f"
      ],
      [
        "l",
        "d"
      ],
      [
        "u",
        "p"
      ],
      [
        "Ġ",
        "r"
      ],
      [
        "e",
        "w"
      ],
      [
        "er",
        "e"
      ],
      [
        "re",
        "s"
      ],
      [
        "ig",
        "h"
      ],
      [
        "i",
        "es"
      ],
      [
        "Ġd",
        "e"
      ],
      [
        "b",
        "er"
      ],
      [
        "ar",
        "t"
      ],
      [
        "ar",
        "d"
      ],
      [
        "or",
        "t"
      ],
      [
        "Ġs",
        "e"
      ],
      [
        "ic",
        "h"
      ],
      [
        "Ġw",
        "ere"
      ],
      [
        "at",
        "e"
      ],
      [
        "al",
        "l"
      ],
      [
        "a",
        "k"
      ],
      [
        "an",
        "t"
      ],
      [
        "o",
        "c"
      ],
      [
        "u",
        "d"
      ],
      [
        "a",
        "p"
      ],
      [
        "Ġe",
        "x"
      ],
      [
        "q",
        "u"
      ],
      [
        "on",
        "g"
      ],
      [
        "a",
        "b"
      ],
      [
        "Ġc",
        "h"
      ],
      [
        "Ġo",
        "r"
      ],
      [
        "g",
        "h"
      ],
      [
        "e",
        "ar"
      ],
      [
        "es",
        "s"
      ],
      [
        "at",
        "ed"
      ],
      [
        "Ġ",
        "K"
      ],
      [
        "Ġp",
        "l"
      ],
      [
        "Ġs",
        "h"
      ],
      [
        "it",
        "y"
      ],
      [
        "i",
        "p"
      ],
      [
        "iv",
        "e"
      ],
      [
        "am",
        "e"
      ],
      [
        "Ġ",
        "â"
      ],
      [
        "Ġh",
        "ad"
      ],
      [
        "ec",
        "t"
      ],
      [
        "Ġ",
        "U"
      ],
      [
        "ac",
        "k"
      ],
      [
        "ĠI",
        "n"
      ],
      [
        "Ġâ",
        "Ģ"
      ],
      [
        "Ġs",
        "u"
      ],
      [
        "as",
        "t"
      ],
      [
        "s",
        "e"
      ],
      [
        "re",
        "d"
      ],
      [
        "Ġ",
        "k"
      ],
      [
        "ĠS",
        "t"
      ],
      [
        "g",
        "e"
      ],
      [
        "Ġwh",
        "ich"
      ],
      [
        "ou",
        "r"
      ],
      [
        "m",
        "ent"
      ],
      [
        "Ġ",
        "le"
      ],
      [
        "u",
        "nd"
      ],
      [
        "Ġa",
        "re"
      ],
      [
        "o",
        "v"
      ],
      [
        "i",
        "an"
      ],
      [
        "i",
        "al"
      ],
      [
        "Ġn",
        "ot"
      ],
      [
        "el",
        "l"
      ],
      [
        "Ġs",
        "p"
      ],
      [
        "o",
        "st"
      ],
      [
        "Ġ",
        "y"
      ],
      [
        "igh",
        "t"
      ],
      [
        "i",
        "a"
      ],
      [
        "or",
        "d"
      ],
      [
        "u",
        "st"
      ],
      [
        "ar",
        "y"
      ],
      [
        "in",
        "e"
      ],
      [
        "t",
        "her"
      ],
      [
        "p",
        "t"
      ],
      [
        "r",
        "it"
      ],
      [
        "Ġ",
        "3"
      ],
      [
        "ou",
        "n"
      ],
      [
        "p",
        "p"
      ],
      [
        "ic",
        "al"
      ],
      [
        "av",
        "e"
      ],
      [
        "Ġ",
        "un"
      ],
      [
        "ĠC",
        "h"
      ],
      [
        "c",
        "c"
      ],
      [
        "Ġ2",
        "00"
      ],
      [
        "Ġin",
        "c"
      ],
      [
        "f",
        "ter"
      ],
      [
        "ou",
        "ld"
      ],
      [
        "Ġb",
        "ut"
      ],
      [
        "ir",
        "st"
      ],
      [
        "is",
        "h"
      ],
      [
        "t",
        "e"
      ],
      [
        "ou",
        "s"
      ],
      [
        "Ġ",
        "V"
      ],
      [
        "f",
        "f"
      ],
      [
        "ion",
        "s"
      ],
      [
        "s",
        "o"
      ],
      [
        "Ġcom",
        "p"
      ],
      [
        "id",
        "e"
      ],
      [
        "Ġ2",
        "0"
      ],
      [
        "Ġ",
        "ro"
      ],
      [
        "u",
        "re"
      ],
      [
        "Ġw",
        "he"
      ],
      [
        "u",
        "b"
      ],
      [
        "Ġa",
        "r"
      ],
      [
        "Ġcon",
        "t"
      ],
      [
        "i",
        "e"
      ],
      [
        "Ġ",
        ";"
      ],
      [
        "o",
        "g"
      ],
      [
        "ig",
        "n"
      ],
      [
        "Ġf",
        "irst"
      ],
      [
        "Ġc",
        "l"
      ],
      [
        "w",
        "o"
      ],
      [
        "Ġhe",
        "r"
      ],
      [
        "r",
        "y"
      ],
      [
        "u",
        "e"
      ],
      [
        "Ġit",
        "s"
      ],
      [
        "as",
        "s"
      ],
      [
        "Ġthe",
        "ir"
      ],
      [
        "or",
        "m"
      ],
      [
        "ĠâĢ",
        "ĵ"
      ],
      [
        "o",
        "k"
      ],
      [
        "or",
        "k"
      ],
      [
        "Ġin",
        "t"
      ],
      [
        "Ġre",
        "s"
      ],
      [
        "Ġ",
        ":"
      ],
      [
        "at",
        "er"
      ],
      [
        "Ġal",
        "so"
      ],
      [
        "Ġa",
        "b"
      ],
      [
        "on",
        "d"
      ],
      [
        "Ġa",
        "d"
      ],
      [
        "om",
        "e"
      ],
      [
        "ou",
        "t"
      ],
      [
        "r",
        "an"
      ],
      [
        "ĠH",
        "e"
      ],
      [
        "m",
        "er"
      ],
      [
        "i",
        "re"
      ],
      [
        "he",
        "d"
      ],
      [
        "r",
        "u"
      ],
      [
        "Ġ",
        "us"
      ],
      [
        "ag",
        "e"
      ],
      [
        "d",
        "u"
      ],
      [
        "Ġ",
        "4"
      ],
      [
        "im",
        "e"
      ],
      [
        "T",
        "he"
      ],
      [
        "l",
        "ow"
      ],
      [
        "Ġp",
        "er"
      ],
      [
        "p",
        "er"
      ],
      [
        "Ġwh",
        "o"
      ],
      [
        "Ġ",
        "5"
      ],
      [
        "Ġon",
        "e"
      ],
      [
        "Ġh",
        "ave"
      ],
      [
        "Ġs",
        "c"
      ],
      [
        "p",
        "l"
      ],
      [
        "al",
        "ly"
      ],
      [
        "ow",
        "n"
      ],
      [
        "i",
        "le"
      ],
      [
        "Ġre",
        "c"
      ],
      [
        "t",
        "ed"
      ],
      [
        "Ġ1",
        "8"
      ],
      [
        ".",
        "@"
      ],
      [
        "Ġ@",
        ".@"
      ],
      [
        "Ġt",
        "wo"
      ],
      [
        "it",
        "ion"
      ],
      [
        "u",
        "gh"
      ],
      [
        "ĠT",
        "h"
      ],
      [
        "i",
        "z"
      ],
      [
        "re",
        "e"
      ],
      [
        "en",
        "ce"
      ],
      [
        "t",
        "s"
      ],
      [
        "ur",
        "ing"
      ],
      [
        "p",
        "ort"
      ],
      [
        "Ġbe",
        "en"
      ],
      [
        "Ġp",
        "art"
      ],
      [
        "Ġb",
        "ec"
      ],
      [
        "ic",
        "e"
      ],
      [
        "Ġh",
        "as"
      ],
      [
        "Ġa",
        "g"
      ],
      [
        "Ġa",
        "pp"
      ],
      [
        "ou",
        "gh"
      ],
      [
        ",",
        "@"
      ],
      [
        "Ġ@",
        ",@"
      ],
      [
        "Ġ20",
        "1"
      ],
      [
        "Ġ",
        "j"
      ],
      [
        "Ġ",
        "en"
      ],
      [
        "Ġd",
        "is"
      ],
      [
        "l",
        "ud"
      ],
      [
        "k",
        "e"
      ],
      [
        "Ġo",
        "ver"
      ],
      [
        "Ġs",
        "er"
      ],
      [
        "Ġth",
        "is"
      ],
      [
        "or",
        "y"
      ],
      [
        "el",
        "y"
      ],
      [
        "Ġy",
        "ear"
      ],
      [
        "ation",
        "s"
      ],
      [
        "em",
        "ber"
      ],
      [
        "re",
        "n"
      ],
      [
        "ct",
        "ion"
      ],
      [
        "ou",
        "nd"
      ],
      [
        "ac",
        "h"
      ],
      [
        "Ġof",
        "f"
      ],
      [
        "Ġa",
        "fter"
      ],
      [
        "r",
        "ic"
      ],
      [
        "Ġ",
        "up"
      ],
      [
        "l",
        "and"
      ],
      [
        "ĠA",
        "l"
      ],
      [
        "Ġpl",
        "ay"
      ],
      [
        "Ġd",
        "es"
      ],
      [
        "ac",
        "e"
      ],
      [
        "ar",
        "k"
      ],
      [
        "o",
        "ver"
      ],
      [
        "an",
        "ce"
      ],
      [
        "Ġo",
        "ut"
      ],
      [
        "Ġthe",
        "y"
      ],
      [
        "Ġm",
        "an"
      ],
      [
        "ad",
        "e"
      ],
      [
        "Ġt",
        "e"
      ],
      [
        "ĠI",
        "t"
      ],
      [
        "ac",
        "t"
      ],
      [
        "Ġo",
        "ther"
      ],
      [
        "i",
        "b"
      ],
      [
        "m",
        "an"
      ],
      [
        "ul",
        "t"
      ],
      [
        "Ġ",
        "im"
      ],
      [
        "p",
        "h"
      ],
      [
        "res",
        "s"
      ],
      [
        "Ġinc",
        "lud"
      ],
      [
        "c",
        "ed"
      ],
      [
        "en",
        "s"
      ],
      [
        "ur",
        "n"
      ],
      [
        "Ġ",
        "Y"
      ],
      [
        "w",
        "n"
      ],
      [
        "Ġw",
        "ould"
      ],
      [
        "in",
        "d"
      ],
      [
        "Ġt",
        "ime"
      ],
      [
        "on",
        "e"
      ],
      [
        "Ġp",
        "re"
      ],
      [
        "Ġint",
        "o"
      ],
      [
        "v",
        "el"
      ],
      [
        "w",
        "ard"
      ],
      [
        "w",
        "e"
      ],
      [
        "Ġw",
        "e"
      ],
      [
        "Ġh",
        "im"
      ],
      [
        "it",
        "e"
      ],
      [
        "o",
        "in"
      ],
      [
        "at",
        "es"
      ],
      [
        "ĠU",
        "n"
      ],
      [
        "Ġ",
        "6"
      ],
      [
        "Ġs",
        "he"
      ],
      [
        "l",
        "es"
      ],
      [
        "Ġe",
        "v"
      ],
      [
        "il",
        "m"
      ],
      [
        "Ġat",
        "t"
      ],
      [
        "as",
        "ed"
      ],
      [
        "Ġn",
        "e"
      ],
      [
        "it",
        "ed"
      ],
      [
        "ab",
        "le"
      ],
      [
        "e",
        "nd"
      ],
      [
        "i",
        "ed"
      ],
      [
        "as",
        "e"
      ],
      [
        "am",
        "p"
      ],
      [
        "Ġcom",
        "m"
      ],
      [
        "or",
        "s"
      ],
      [
        "n",
        "e"
      ],
      [
        "Ġin",
        "ter"
      ],
      [
        "a",
        "re"
      ],
      [
        "ro",
        "ugh"
      ],
      [
        "o",
        "y"
      ],
      [
        "on",
        "s"
      ],
      [
        "oun",
        "t"
      ],
      [
        "e",
        "p"
      ],
      [
        "f",
        "orm"
      ],
      [
        "Ġal",
        "l"
      ],
      [
        "os",
        "e"
      ],
      [
        "o",
        "od"
      ],
      [
        "an",
        "g"
      ],
      [
        "Ġm",
        "ore"
      ],
      [
        "c",
        "es"
      ],
      [
        "Ġw",
        "ork"
      ],
      [
        "Ġ",
        "7"
      ],
      [
        "a",
        "il"
      ],
      [
        "ol",
        "d"
      ],
      [
        "a",
        "w"
      ],
      [
        "er",
        "ed"
      ],
      [
        "ing",
        "s"
      ],
      [
        "v",
        "e"
      ],
      [
        "il",
        "d"
      ],
      [
        "Ġn",
        "ew"
      ],
      [
        "Ġs",
        "ec"
      ],
      [
        "Ġb",
        "et"
      ],
      [
        "in",
        "al"
      ],
      [
        "Ġf",
        "e"
      ],
      [
        "Ġf",
        "ilm"
      ],
      [
        "ic",
        "k"
      ],
      [
        "Ġwhe",
        "n"
      ],
      [
        "v",
        "i"
      ],
      [
        "ent",
        "s"
      ],
      [
        "w",
        "ay"
      ],
      [
        "at",
        "t"
      ],
      [
        "f",
        "t"
      ],
      [
        "is",
        "s"
      ],
      [
        "a",
        "us"
      ],
      [
        "f",
        "er"
      ],
      [
        "g",
        "an"
      ],
      [
        "Ġ",
        "8"
      ],
      [
        "re",
        "at"
      ],
      [
        "ri",
        "b"
      ],
      [
        "Ġcon",
        "s"
      ],
      [
        "ĠA",
        "n"
      ],
      [
        "ro",
        "und"
      ],
      [
        "ak",
        "e"
      ],
      [
        "Ġre",
        "m"
      ],
      [
        "v",
        "ed"
      ],
      [
        "ĠM",
        "ar"
      ],
      [
        "Ġt",
        "r"
      ],
      [
        "ĠS",
        "e"
      ],
      [
        "Ġd",
        "ec"
      ],
      [
        "as",
        "on"
      ],
      [
        "ĠA",
        "r"
      ],
      [
        "an",
        "s"
      ],
      [
        "Ġd",
        "uring"
      ],
      [
        "Ġ",
        "und"
      ],
      [
        "or",
        "th"
      ],
      [
        "ub",
        "l"
      ],
      [
        "h",
        "ip"
      ],
      [
        "Ġ",
        "9"
      ],
      [
        "Ġag",
        "ain"
      ],
      [
        "Ġm",
        "ost"
      ],
      [
        "Ġg",
        "ame"
      ],
      [
        "ot",
        "h"
      ],
      [
        "Ġthe",
        "m"
      ],
      [
        "Ġon",
        "ly"
      ],
      [
        "Ġp",
        "r"
      ],
      [
        "at",
        "h"
      ],
      [
        "we",
        "en"
      ],
      [
        "i",
        "x"
      ],
      [
        "Ġ19",
        "9"
      ],
      [
        "Ġe",
        "ar"
      ],
      [
        "ol",
        "low"
      ],
      [
        "Ġth",
        "an"
      ],
      [
        "o",
        "b"
      ],
      [
        "ro",
        "p"
      ],
      [
        "Ġs",
        "up"
      ],
      [
        "s",
        "s"
      ],
      [
        "ation",
        "al"
      ],
      [
        "f",
        "ore"
      ],
      [
        "Ġab",
        "out"
      ],
      [
        "Ġpro",
        "du"
      ],
      [
        "u",
        "g"
      ],
      [
        "Ġc",
        "ent"
      ],
      [
        "ter",
        "n"
      ],
      [
        "Ġre",
        "t"
      ],
      [
        "Ġch",
        "ar"
      ],
      [
        "Ġs",
        "ong"
      ],
      [
        "Ġc",
        "an"
      ],
      [
        "ĠN",
        "ew"
      ],
      [
        "ou",
        "th"
      ],
      [
        "Ġbet",
        "ween"
      ],
      [
        "Ġl",
        "ater"
      ],
      [
        "Ġre",
        "le"
      ],
      [
        "Ġund",
        "er"
      ],
      [
        "ic",
        "t"
      ],
      [
        "Ġk",
        "n"
      ],
      [
        "Ġth",
        "ree"
      ],
      [
        "t",
        "on"
      ],
      [
        "r",
        "on"
      ],
      [
        "Ġc",
        "ol"
      ],
      [
        "Ġa",
        "ct"
      ],
      [
        "Ġ",
        "00"
      ],
      [
        "h",
        "n"
      ],
      [
        "al",
        "s"
      ],
      [
        "Ġ",
        "qu"
      ],
      [
        "Ġth",
        "rough"
      ],
      [
        "or",
        "ld"
      ],
      [
        "o",
        "ok"
      ],
      [
        "Ġn",
        "um"
      ],
      [
        "Ġs",
        "o"
      ],
      [
        "Ġm",
        "e"
      ],
      [
        "Ġa",
        "cc"
      ],
      [
        "Ġre",
        "l"
      ],
      [
        "Ġwh",
        "ile"
      ],
      [
        "ĠE",
        "n"
      ],
      [
        "Ġ",
        "ra"
      ],
      [
        "Ġe",
        "nd"
      ],
      [
        "mer",
        "ic"
      ],
      [
        "I",
        "n"
      ],
      [
        "le",
        "ct"
      ],
      [
        "Ġf",
        "l"
      ],
      [
        "e",
        "ver"
      ],
      [
        "ter",
        "s"
      ],
      [
        "ĠA",
        "meric"
      ],
      [
        "oc",
        "k"
      ],
      [
        "Ġp",
        "os"
      ],
      [
        "r",
        "al"
      ],
      [
        "ĠL",
        "e"
      ],
      [
        "Ġsu",
        "b"
      ],
      [
        "n",
        "ing"
      ],
      [
        "ul",
        "ar"
      ],
      [
        "Ġas",
        "s"
      ],
      [
        "at",
        "ing"
      ],
      [
        "Ġ",
        "ver"
      ],
      [
        "Ġwhe",
        "re"
      ],
      [
        "Ġd",
        "ay"
      ],
      [
        "c",
        "k"
      ],
      [
        "Ġre",
        "g"
      ],
      [
        "Ġsec",
        "ond"
      ],
      [
        "en",
        "er"
      ],
      [
        "a",
        "id"
      ],
      [
        "Ġb",
        "u"
      ],
      [
        "Ġm",
        "ade"
      ],
      [
        "am",
        "es"
      ],
      [
        "is",
        "ion"
      ],
      [
        "iv",
        "ed"
      ],
      [
        "ĠR",
        "e"
      ],
      [
        "Ġp",
        "e"
      ],
      [
        "Ġrec",
        "ord"
      ],
      [
        "ĠC",
        "om"
      ],
      [
        "Ġde",
        "f"
      ],
      [
        "b",
        "um"
      ],
      [
        "Ġf",
        "our"
      ],
      [
        "Ġg",
        "ro"
      ],
      [
        "Ġf",
        "ollow"
      ],
      [
        "Ġse",
        "ason"
      ],
      [
        "s",
        "on"
      ],
      [
        "Ġ00",
        "0"
      ],
      [
        "Ġe",
        "p"
      ],
      [
        "Ġfor",
        "m"
      ],
      [
        "Ġs",
        "ome"
      ],
      [
        "Ġsu",
        "ch"
      ],
      [
        "Ġa",
        "m"
      ],
      [
        "o",
        "ol"
      ],
      [
        "is",
        "hed"
      ],
      [
        "Ġm",
        "ov"
      ],
      [
        "Ġbe",
        "fore"
      ],
      [
        "Ġt",
        "ra"
      ],
      [
        "he",
        "s"
      ],
      [
        "Ġm",
        "us"
      ],
      [
        "Ġw",
        "rit"
      ],
      [
        "Ġthe",
        "re"
      ],
      [
        "ic",
        "s"
      ],
      [
        "i",
        "o"
      ],
      [
        "Ġsp",
        "ec"
      ],
      [
        "i",
        "el"
      ],
      [
        "i",
        "ke"
      ],
      [
        "Ġ1",
        "0"
      ],
      [
        "ĠS",
        "p"
      ],
      [
        "Ġyear",
        "s"
      ],
      [
        "Ġs",
        "y"
      ],
      [
        "od",
        "e"
      ],
      [
        "Ġte",
        "am"
      ],
      [
        "u",
        "al"
      ],
      [
        "id",
        "ent"
      ],
      [
        "Ġ",
        "/"
      ],
      [
        "Ġl",
        "ar"
      ],
      [
        "ĠO",
        "n"
      ],
      [
        "Ġal",
        "bum"
      ],
      [
        "Ġin",
        "d"
      ],
      [
        "he",
        "n"
      ],
      [
        "il",
        "y"
      ],
      [
        "ow",
        "ever"
      ],
      [
        "ĠJ",
        "o"
      ],
      [
        "Ġ",
        "ent"
      ],
      [
        "Ġus",
        "ed"
      ],
      [
        "Ġc",
        "all"
      ],
      [
        "an",
        "k"
      ],
      [
        "Ġs",
        "ur"
      ],
      [
        "if",
        "ic"
      ],
      [
        "l",
        "l"
      ],
      [
        "Ġa",
        "c"
      ],
      [
        "ur",
        "y"
      ],
      [
        "Ġh",
        "igh"
      ],
      [
        "Ġp",
        "ubl"
      ],
      [
        "Ġbe",
        "ing"
      ],
      [
        "or",
        "n"
      ],
      [
        "ĠTh",
        "is"
      ],
      [
        "Ġep",
        "is"
      ],
      [
        "ĠS",
        "h"
      ],
      [
        "ain",
        "ed"
      ],
      [
        "Ġthe",
        "n"
      ],
      [
        "t",
        "en"
      ],
      [
        "vel",
        "op"
      ],
      [
        "a",
        "j"
      ],
      [
        "Ġd",
        "o"
      ],
      [
        "Ġl",
        "oc"
      ],
      [
        "Ġex",
        "p"
      ],
      [
        "if",
        "e"
      ],
      [
        "r",
        "is"
      ],
      [
        "Ġagain",
        "st"
      ],
      [
        "Ġ1",
        "7"
      ],
      [
        "Ġin",
        "v"
      ],
      [
        "Ġb",
        "l"
      ],
      [
        "Ġ",
        "0"
      ],
      [
        "Ġp",
        "res"
      ],
      [
        "Ġsh",
        "ow"
      ],
      [
        "ot",
        "her"
      ],
      [
        "Ġnum",
        "ber"
      ],
      [
        "Ġchar",
        "ac"
      ],
      [
        "i",
        "ous"
      ],
      [
        "Ġse",
        "ver"
      ],
      [
        "Ġad",
        "d"
      ],
      [
        "al",
        "e"
      ],
      [
        "Ġc",
        "o"
      ],
      [
        "Ġs",
        "et"
      ],
      [
        "in",
        "ce"
      ],
      [
        "j",
        "ect"
      ],
      [
        "ar",
        "s"
      ],
      [
        "Ġbec",
        "ame"
      ],
      [
        "Ġre",
        "ce"
      ],
      [
        "aus",
        "e"
      ],
      [
        "e",
        "k"
      ],
      [
        "Ġle",
        "ad"
      ],
      [
        "Ġper",
        "form"
      ],
      [
        "ĠB",
        "rit"
      ],
      [
        "Ġn",
        "o"
      ],
      [
        "Ġinclud",
        "ing"
      ],
      [
        "Ġs",
        "ing"
      ],
      [
        "at",
        "her"
      ],
      [
        "in",
        "s"
      ],
      [
        "in",
        "es"
      ],
      [
        "ĠâĢ",
        "Ķ"
      ],
      [
        "Ġf",
        "ound"
      ],
      [
        "ĠA",
        "t"
      ],
      [
        "a",
        "ir"
      ],
      [
        "ran",
        "s"
      ],
      [
        "Ġw",
        "ell"
      ],
      [
        "Ġm",
        "on"
      ],
      [
        "Ġre",
        "p"
      ],
      [
        "ĠUn",
        "ited"
      ],
      [
        "Ġp",
        "ol"
      ],
      [
        "ĠA",
        "s"
      ],
      [
        "Ġb",
        "ack"
      ],
      [
        "Ġb",
        "oth"
      ],
      [
        "i",
        "er"
      ],
      [
        "Ġc",
        "ap"
      ],
      [
        "Ġser",
        "ies"
      ],
      [
        "Ġ1",
        "5"
      ],
      [
        "Ġ1",
        "2"
      ],
      [
        "o",
        "ber"
      ],
      [
        "Ġ19",
        "8"
      ],
      [
        "r",
        "am"
      ],
      [
        "ĠS",
        "c"
      ],
      [
        "i",
        "k"
      ],
      [
        "ow",
        "er"
      ],
      [
        "Ġsh",
        "ip"
      ],
      [
        "em",
        "ent"
      ],
      [
        "it",
        "s"
      ],
      [
        "er",
        "t"
      ],
      [
        "i",
        "red"
      ],
      [
        "u",
        "res"
      ],
      [
        "le",
        "y"
      ],
      [
        "iv",
        "ers"
      ],
      [
        "p",
        "en"
      ],
      [
        "Ġm",
        "ain"
      ],
      [
        "Ġm",
        "in"
      ],
      [
        "Ġ19",
        "4"
      ],
      [
        "i",
        "et"
      ],
      [
        "d",
        "er"
      ],
      [
        "over",
        "n"
      ],
      [
        "Ġd",
        "id"
      ],
      [
        "v",
        "en"
      ],
      [
        "Ġg",
        "o"
      ],
      [
        "l",
        "ed"
      ],
      [
        "Ġc",
        "re"
      ],
      [
        "el",
        "f"
      ],
      [
        "ol",
        "og"
      ],
      [
        "Ġim",
        "p"
      ],
      [
        "Ġde",
        "velop"
      ],
      [
        "Ġm",
        "et"
      ],
      [
        "a",
        "z"
      ],
      [
        "ĠS",
        "he"
      ],
      [
        "it",
        "ies"
      ],
      [
        "an",
        "e"
      ],
      [
        "ĠC",
        "on"
      ],
      [
        "Ġl",
        "ong"
      ],
      [
        "iv",
        "er"
      ],
      [
        "an",
        "y"
      ],
      [
        "is",
        "ed"
      ],
      [
        "er",
        "m"
      ],
      [
        "ĠEn",
        "g"
      ],
      [
        "t",
        "ing"
      ],
      [
        "u",
        "ch"
      ],
      [
        "a",
        "red"
      ],
      [
        "ir",
        "d"
      ],
      [
        "Ġe",
        "m"
      ],
      [
        "Ġm",
        "ill"
      ],
      [
        "f",
        "ul"
      ],
      [
        "Ġa",
        "ir"
      ],
      [
        "Ġm",
        "at"
      ],
      [
        "Ġepis",
        "ode"
      ],
      [
        "te",
        "nd"
      ],
      [
        "ire",
        "ct"
      ],
      [
        "Ġs",
        "aid"
      ],
      [
        "Ġst",
        "ud"
      ],
      [
        "Ġman",
        "y"
      ],
      [
        "ut",
        "e"
      ],
      [
        "Ġb",
        "ro"
      ],
      [
        "as",
        "h"
      ],
      [
        "at",
        "ive"
      ],
      [
        "Ġde",
        "p"
      ],
      [
        "Ġc",
        "ar"
      ],
      [
        "Ġc",
        "ould"
      ],
      [
        "Ġor",
        "ig"
      ],
      [
        "Ġ1",
        "6"
      ],
      [
        "Ġw",
        "ar"
      ],
      [
        "Ġcont",
        "in"
      ],
      [
        "an",
        "n"
      ],
      [
        "Ġsever",
        "al"
      ],
      [
        "a",
        "h"
      ],
      [
        "th",
        "ough"
      ],
      [
        "Ġd",
        "if"
      ],
      [
        "iel",
        "d"
      ],
      [
        "ĠJo",
        "hn"
      ],
      [
        "Ġin",
        "st"
      ],
      [
        "Ġp",
        "op"
      ],
      [
        "ou",
        "se"
      ],
      [
        "ĠAmeric",
        "an"
      ],
      [
        "is",
        "e"
      ],
      [
        "em",
        "b"
      ],
      [
        "Ġkn",
        "own"
      ],
      [
        "t",
        "y"
      ],
      [
        "ĠI",
        "nd"
      ],
      [
        "ĠC",
        "l"
      ],
      [
        "Ġ19",
        "7"
      ],
      [
        "ĠW",
        "h"
      ],
      [
        "u",
        "ally"
      ],
      [
        "t",
        "il"
      ],
      [
        "Ġcon",
        "c"
      ],
      [
        "Ġ1",
        "1"
      ],
      [
        "Ġ19",
        "6"
      ],
      [
        "i",
        "am"
      ],
      [
        "vi",
        "ew"
      ],
      [
        "ĠA",
        "ust"
      ],
      [
        "ers",
        "on"
      ],
      [
        "Ġo",
        "b"
      ],
      [
        "u",
        "ed"
      ],
      [
        "Ġs",
        "m"
      ],
      [
        "Ġret",
        "urn"
      ],
      [
        "er",
        "man"
      ],
      [
        "Ġbe",
        "gan"
      ],
      [
        "Ġan",
        "y"
      ],
      [
        "ĠW",
        "ar"
      ],
      [
        "Ġcomp",
        "le"
      ],
      [
        "Ġdes",
        "ign"
      ],
      [
        "Ġdes",
        "c"
      ],
      [
        "Ġs",
        "ign"
      ],
      [
        "op",
        "le"
      ],
      [
        "ch",
        "ool"
      ],
      [
        "ro",
        "ss"
      ],
      [
        "m",
        "y"
      ],
      [
        "is",
        "m"
      ],
      [
        "o",
        "ot"
      ],
      [
        "Ġ",
        "est"
      ],
      [
        "cc",
        "ess"
      ],
      [
        "Ġt",
        "rans"
      ],
      [
        "er",
        "n"
      ],
      [
        "Ġ",
        "Z"
      ],
      [
        "Ġpro",
        "v"
      ],
      [
        "ak",
        "ing"
      ],
      [
        "Ġfe",
        "at"
      ],
      [
        "id",
        "ed"
      ],
      [
        "Ġin",
        "f"
      ],
      [
        "an",
        "c"
      ],
      [
        "Ġr",
        "un"
      ],
      [
        "Ġear",
        "ly"
      ],
      [
        "ĠD",
        "e"
      ],
      [
        "Ġar",
        "t"
      ],
      [
        "iz",
        "ed"
      ],
      [
        "Ġd",
        "ist"
      ],
      [
        "Ġmus",
        "ic"
      ],
      [
        "Ġo",
        "wn"
      ],
      [
        "Ġn",
        "ear"
      ],
      [
        "Ġrele",
        "ased"
      ],
      [
        "Ġun",
        "til"
      ],
      [
        "Ġcall",
        "ed"
      ],
      [
        "Ġe",
        "ff"
      ],
      [
        "ĠA",
        "fter"
      ],
      [
        "im",
        "es"
      ],
      [
        "ĠB",
        "l"
      ],
      [
        "r",
        "id"
      ],
      [
        "ist",
        "s"
      ],
      [
        "un",
        "e"
      ],
      [
        "Ġres",
        "p"
      ],
      [
        "Ġb",
        "el"
      ],
      [
        "Ġp",
        "ass"
      ],
      [
        "st",
        "em"
      ],
      [
        "u",
        "red"
      ],
      [
        "Ġf",
        "in"
      ],
      [
        "ĠC",
        "ol"
      ],
      [
        "ial",
        "ly"
      ],
      [
        "Ġp",
        "h"
      ],
      [
        "ĠU",
        "S"
      ],
      [
        "ĠB",
        "e"
      ],
      [
        "ut",
        "ion"
      ],
      [
        "Ġd",
        "own"
      ],
      [
        "ĠM",
        "ay"
      ],
      [
        "Ġdis",
        "c"
      ],
      [
        "ment",
        "s"
      ],
      [
        "Ġc",
        "rit"
      ],
      [
        "os",
        "ed"
      ],
      [
        "x",
        "t"
      ],
      [
        "Ġd",
        "irect"
      ],
      [
        "Ġg",
        "ener"
      ],
      [
        "y",
        "s"
      ],
      [
        "Ġal",
        "ong"
      ],
      [
        "i",
        "um"
      ],
      [
        "Ġin",
        "s"
      ],
      [
        "Ġmill",
        "ion"
      ],
      [
        "g",
        "er"
      ],
      [
        "en",
        "n"
      ],
      [
        "ul",
        "l"
      ],
      [
        "a",
        "x"
      ],
      [
        "Ġgro",
        "up"
      ],
      [
        "Ġoff",
        "ic"
      ],
      [
        "v",
        "ent"
      ],
      [
        "Ġf",
        "am"
      ],
      [
        "ĠBrit",
        "ish"
      ],
      [
        "Ġ1",
        "3"
      ],
      [
        "ĠG",
        "erman"
      ],
      [
        "Ġthe",
        "se"
      ],
      [
        "aj",
        "or"
      ],
      [
        "Ġm",
        "od"
      ],
      [
        "e",
        "b"
      ],
      [
        "Ġm",
        "ay"
      ],
      [
        "ce",
        "pt"
      ],
      [
        "Ġ",
        "$"
      ],
      [
        "Ġo",
        "pen"
      ],
      [
        "an",
        "ge"
      ],
      [
        "Ġm",
        "il"
      ],
      [
        "Ġp",
        "oin"
      ],
      [
        "u",
        "c"
      ],
      [
        "g",
        "g"
      ],
      [
        "Ġl",
        "and"
      ],
      [
        "Ġs",
        "im"
      ],
      [
        "Ġhis",
        "t"
      ],
      [
        "Ġg",
        "overn"
      ],
      [
        "ĠA",
        "ug"
      ],
      [
        "Ã",
        "©"
      ],
      [
        "ĠSe",
        "pt"
      ],
      [
        "Ġsu",
        "ccess"
      ],
      [
        "er",
        "v"
      ],
      [
        "ĠSept",
        "ember"
      ],
      [
        "et",
        "s"
      ],
      [
        "ĠAug",
        "ust"
      ],
      [
        "ĠSt",
        "ates"
      ],
      [
        "ib",
        "le"
      ],
      [
        "in",
        "k"
      ],
      [
        "Ġg",
        "u"
      ],
      [
        "Ġo",
        "per"
      ],
      [
        "Ġc",
        "ount"
      ],
      [
        "Ġatt",
        "ack"
      ],
      [
        "ĠA",
        "d"
      ],
      [
        "Ġs",
        "ame"
      ],
      [
        "Ġus",
        "e"
      ],
      [
        "ward",
        "s"
      ],
      [
        "Ġdesc",
        "rib"
      ],
      [
        "Ġpe",
        "ople"
      ],
      [
        "ĠW",
        "orld"
      ],
      [
        "ĠA",
        "p"
      ],
      [
        "y",
        "p"
      ],
      [
        "ac",
        "ed"
      ],
      [
        "Ġcharac",
        "ter"
      ],
      [
        "am",
        "ed"
      ],
      [
        "Ġbec",
        "ause"
      ],
      [
        "el",
        "s"
      ],
      [
        "Ġv",
        "i"
      ],
      [
        "Ġl",
        "ike"
      ],
      [
        "Ġ1",
        "4"
      ],
      [
        "Ġser",
        "v"
      ],
      [
        "g",
        "ed"
      ],
      [
        "ĠJ",
        "u"
      ],
      [
        "Ġa",
        "round"
      ],
      [
        "Ġst",
        "art"
      ],
      [
        "Ġth",
        "ough"
      ],
      [
        "Ġ",
        "ed"
      ],
      [
        "n",
        "er"
      ],
      [
        "Ġw",
        "in"
      ],
      [
        "Ġk",
        "m"
      ],
      [
        "Ġ19",
        "5"
      ],
      [
        "ĠI",
        "s"
      ],
      [
        "Ġcon",
        "st"
      ],
      [
        "u",
        "es"
      ],
      [
        "r",
        "ing"
      ],
      [
        "Ġto",
        "ok"
      ],
      [
        "Ġo",
        "cc"
      ],
      [
        "ru",
        "ct"
      ],
      [
        "av",
        "ing"
      ],
      [
        "Ġb",
        "att"
      ],
      [
        "ĠF",
        "ran"
      ],
      [
        "ov",
        "e"
      ],
      [
        "ĠO",
        "ct"
      ],
      [
        "Ġsup",
        "port"
      ],
      [
        "Ġ",
        "Q"
      ],
      [
        "ĠAust",
        "ral"
      ],
      [
        "Ġfollow",
        "ing"
      ],
      [
        "Ġs",
        "ix"
      ],
      [
        "Ġn",
        "orth"
      ],
      [
        "Ġe",
        "le"
      ],
      [
        "ĠN",
        "ov"
      ],
      [
        "Ġ19",
        "3"
      ],
      [
        "ĠP",
        "l"
      ],
      [
        "Ġsy",
        "stem"
      ],
      [
        "Ġapp",
        "ear"
      ],
      [
        "us",
        "s"
      ],
      [
        "en",
        "e"
      ],
      [
        "ĠAl",
        "l"
      ],
      [
        "Ġf",
        "inal"
      ],
      [
        "Ġrece",
        "ived"
      ],
      [
        "Ġcl",
        "ass"
      ],
      [
        "in",
        "ed"
      ],
      [
        "ĠOct",
        "ober"
      ],
      [
        "iv",
        "es"
      ],
      [
        "Ġhe",
        "ad"
      ],
      [
        "Ġp",
        "rom"
      ],
      [
        "Ġcons",
        "id"
      ],
      [
        "r",
        "ad"
      ],
      [
        "ant",
        "s"
      ],
      [
        "ĠC",
        "ar"
      ],
      [
        "l",
        "ing"
      ],
      [
        "Ġan",
        "n"
      ],
      [
        "il",
        "ity"
      ],
      [
        "ical",
        "ly"
      ],
      [
        "Ġe",
        "ver"
      ],
      [
        "Ġst",
        "ate"
      ],
      [
        "Ġ19",
        "1"
      ],
      [
        "Ġbu",
        "ild"
      ],
      [
        "ĠD",
        "ec"
      ],
      [
        "ĠP",
        "ro"
      ],
      [
        "re",
        "t"
      ],
      [
        "ĠH",
        "owever"
      ],
      [
        "Ġe",
        "ach"
      ],
      [
        "ĠF",
        "or"
      ],
      [
        "an",
        "u"
      ],
      [
        "Ġex",
        "t"
      ],
      [
        "Ġf",
        "ive"
      ],
      [
        "r",
        "ist"
      ],
      [
        "Ġa",
        "ut"
      ],
      [
        "Ġcent",
        "ury"
      ],
      [
        "in",
        "a"
      ],
      [
        "Ġv",
        "ar"
      ],
      [
        "Ġb",
        "o"
      ],
      [
        "Ġw",
        "ill"
      ],
      [
        "Ġare",
        "a"
      ],
      [
        "ĠY",
        "ork"
      ],
      [
        "at",
        "ely"
      ],
      [
        "Ġsm",
        "all"
      ],
      [
        "g",
        "et"
      ],
      [
        "os",
        "s"
      ],
      [
        "Ġpart",
        "ic"
      ],
      [
        "Ġl",
        "ife"
      ],
      [
        "iv",
        "ing"
      ],
      [
        "r",
        "il"
      ],
      [
        "Ġre",
        "port"
      ],
      [
        "Ġ",
        "]"
      ],
      [
        "ĠM",
        "e"
      ],
      [
        "t",
        "le"
      ],
      [
        "ĠThe",
        "y"
      ],
      [
        "ore",
        "d"
      ],
      [
        "ĠN",
        "orth"
      ],
      [
        "ian",
        "s"
      ],
      [
        "ord",
        "ing"
      ],
      [
        "ĠJ",
        "une"
      ],
      [
        "Ġc",
        "ity"
      ],
      [
        "Ġ",
        "["
      ],
      [
        "Ġcont",
        "ro"
      ],
      [
        "g",
        "in"
      ],
      [
        "Ġm",
        "ar"
      ],
      [
        "p",
        "ed"
      ],
      [
        "Ġm",
        "ajor"
      ],
      [
        "Ġwe",
        "ek"
      ],
      [
        "Ġpubl",
        "ic"
      ],
      [
        "Ġ",
        "%"
      ],
      [
        "iss",
        "ion"
      ],
      [
        "Ġcon",
        "f"
      ],
      [
        "ĠJu",
        "ly"
      ],
      [
        "Ġb",
        "and"
      ],
      [
        "ect",
        "ion"
      ],
      [
        "Ġre",
        "f"
      ],
      [
        "m",
        "ed"
      ],
      [
        "in",
        "c"
      ],
      [
        "ĠK",
        "ing"
      ],
      [
        "ĠNov",
        "ember"
      ],
      [
        "ur",
        "ch"
      ],
      [
        "Ġre",
        "st"
      ],
      [
        "Ġw",
        "orld"
      ],
      [
        "Ġm",
        "ed"
      ],
      [
        "Ġs",
        "ince"
      ],
      [
        "es",
        "p"
      ],
      [
        "Ġsing",
        "le"
      ],
      [
        "ra",
        "ft"
      ],
      [
        "ra",
        "ph"
      ],
      [
        "p",
        "or"
      ],
      [
        "b",
        "le"
      ],
      [
        "ĠAp",
        "ril"
      ],
      [
        "ĠCom",
        "m"
      ],
      [
        "e",
        "y"
      ],
      [
        "ain",
        "s"
      ],
      [
        "ri",
        "ed"
      ],
      [
        "l",
        "ish"
      ],
      [
        "Ġd",
        "et"
      ],
      [
        "om",
        "et"
      ],
      [
        "Ġj",
        "ust"
      ],
      [
        "ĠH",
        "ar"
      ],
      [
        "ĠMar",
        "ch"
      ],
      [
        "Ġl",
        "ast"
      ],
      [
        "ect",
        "ed"
      ],
      [
        "ur",
        "al"
      ],
      [
        "ion",
        "al"
      ],
      [
        "he",
        "st"
      ],
      [
        "a",
        "im"
      ],
      [
        "Ġt",
        "urn"
      ],
      [
        "iv",
        "ely"
      ],
      [
        "ĠP",
        "h"
      ],
      [
        "Ġhe",
        "l"
      ],
      [
        "il",
        "t"
      ],
      [
        "Ġal",
        "low"
      ],
      [
        "Ġp",
        "o"
      ],
      [
        "ĠW",
        "ill"
      ],
      [
        "c",
        "l"
      ],
      [
        "Ġ3",
        "0"
      ],
      [
        "i",
        "ent"
      ],
      [
        "vi",
        "ous"
      ],
      [
        "ĠC",
        "an"
      ],
      [
        "Ġle",
        "ft"
      ],
      [
        "Ġlar",
        "ge"
      ],
      [
        "Ġl",
        "ine"
      ],
      [
        "at",
        "s"
      ],
      [
        "Ġdif",
        "fer"
      ],
      [
        "ĠM",
        "c"
      ],
      [
        "al",
        "es"
      ],
      [
        "Ġc",
        "are"
      ],
      [
        "Ġs",
        "outh"
      ],
      [
        "ĠE",
        "d"
      ],
      [
        "Ġad",
        "v"
      ],
      [
        "if",
        "ied"
      ],
      [
        "Ġd",
        "r"
      ],
      [
        "Ġst",
        "r"
      ],
      [
        "Ġb",
        "ook"
      ],
      [
        "Ġver",
        "s"
      ],
      [
        "em",
        "pt"
      ],
      [
        "Ġs",
        "chool"
      ],
      [
        "Ġs",
        "l"
      ],
      [
        "ĠS",
        "outh"
      ],
      [
        ".",
        "."
      ],
      [
        "ĠB",
        "ro"
      ],
      [
        "ag",
        "ue"
      ],
      [
        "Ġth",
        "ird"
      ],
      [
        "ĠDec",
        "ember"
      ],
      [
        "av",
        "y"
      ],
      [
        "Ġinc",
        "re"
      ],
      [
        "Ġmon",
        "th"
      ],
      [
        "Ġ2",
        "5"
      ],
      [
        "Ġd",
        "ue"
      ],
      [
        "Ġapp",
        "ro"
      ],
      [
        "ĠG",
        "e"
      ],
      [
        "Ġplay",
        "ed"
      ],
      [
        "Ġm",
        "uch"
      ],
      [
        "ro",
        "te"
      ],
      [
        "Ġev",
        "ent"
      ],
      [
        "Ġ",
        "if"
      ],
      [
        "Ġan",
        "other"
      ],
      [
        "anu",
        "ary"
      ],
      [
        "ro",
        "w"
      ],
      [
        "Ġinclud",
        "ed"
      ],
      [
        "Ġwh",
        "at"
      ],
      [
        "ĠJ",
        "anuary"
      ],
      [
        "Ġ19",
        "2"
      ],
      [
        "Ġpl",
        "ace"
      ],
      [
        "Ġb",
        "ased"
      ],
      [
        "Ġsh",
        "ort"
      ],
      [
        "on",
        "y"
      ],
      [
        "ĠI",
        "I"
      ],
      [
        "b",
        "y"
      ],
      [
        "Ġex",
        "pl"
      ],
      [
        "Ġgovern",
        "ment"
      ],
      [
        "Ġp",
        "erson"
      ],
      [
        "b",
        "all"
      ],
      [
        "Ġw",
        "rote"
      ],
      [
        "Ġtr",
        "ack"
      ],
      [
        "ap",
        "an"
      ],
      [
        "Ġc",
        "amp"
      ],
      [
        "Ġt",
        "it"
      ],
      [
        "Ġo",
        "ld"
      ],
      [
        "Ġb",
        "re"
      ],
      [
        "al",
        "f"
      ],
      [
        "Ġn",
        "ame"
      ],
      [
        "Ġde",
        "ath"
      ],
      [
        "Ġp",
        "ort"
      ],
      [
        "ent",
        "ly"
      ],
      [
        "Ġe",
        "lect"
      ],
      [
        "ĠP",
        "r"
      ],
      [
        "ĠE",
        "u"
      ],
      [
        "p",
        "le"
      ],
      [
        "ren",
        "t"
      ],
      [
        "i",
        "ence"
      ],
      [
        "Ġen",
        "g"
      ],
      [
        "Ġw",
        "on"
      ],
      [
        "Ġch",
        "ild"
      ],
      [
        "Ġpro",
        "t"
      ],
      [
        "Ġl",
        "it"
      ],
      [
        "ĠJ",
        "apan"
      ],
      [
        "Ġk",
        "ill"
      ],
      [
        "Ġpro",
        "g"
      ],
      [
        "o",
        "ad"
      ],
      [
        "Ġ.",
        ".."
      ],
      [
        "Ġst",
        "ory"
      ],
      [
        "ide",
        "o"
      ],
      [
        "ag",
        "es"
      ],
      [
        "Ġp",
        "ower"
      ],
      [
        "ĠB",
        "y"
      ],
      [
        "Ġre",
        "view"
      ],
      [
        "od",
        "y"
      ],
      [
        "Ġv",
        "is"
      ],
      [
        "it",
        "al"
      ],
      [
        "Ġh",
        "ome"
      ],
      [
        "ot",
        "t"
      ],
      [
        "Ġl",
        "ed"
      ],
      [
        "p",
        "s"
      ],
      [
        "en",
        "g"
      ],
      [
        "on",
        "t"
      ],
      [
        "Ġdescrib",
        "ed"
      ],
      [
        "Ġre",
        "qu"
      ],
      [
        "om",
        "an"
      ],
      [
        "Ġpre",
        "vious"
      ],
      [
        "Ġfam",
        "ily"
      ],
      [
        "ne",
        "y"
      ],
      [
        "Ġg",
        "un"
      ],
      [
        "ra",
        "nd"
      ],
      [
        "ĠT",
        "e"
      ],
      [
        "ĠO",
        "r"
      ],
      [
        "y",
        "l"
      ],
      [
        "Ġw",
        "ay"
      ],
      [
        "Ġn",
        "amed"
      ],
      [
        "Ġr",
        "ight"
      ],
      [
        "Ġn",
        "ow"
      ],
      [
        "t",
        "ain"
      ],
      [
        "Ġd",
        "em"
      ],
      [
        "ur",
        "ther"
      ],
      [
        "i",
        "od"
      ],
      [
        "iv",
        "en"
      ],
      [
        "il",
        "ar"
      ],
      [
        "Ġm",
        "en"
      ],
      [
        "Ġev",
        "en"
      ],
      [
        "Ġm",
        "ake"
      ],
      [
        "emb",
        "ers"
      ],
      [
        "Ġor",
        "gan"
      ],
      [
        "re",
        "en"
      ],
      [
        "is",
        "ter"
      ],
      [
        "c",
        "y"
      ],
      [
        "ivers",
        "ity"
      ],
      [
        "om",
        "in"
      ],
      [
        "Ġatt",
        "empt"
      ],
      [
        "Ġb",
        "est"
      ],
      [
        "it",
        "ions"
      ],
      [
        "s",
        "h"
      ],
      [
        "ĠM",
        "us"
      ],
      [
        "Ġc",
        "our"
      ],
      [
        "Ġ1",
        "00"
      ],
      [
        "Ġre",
        "pl"
      ],
      [
        "iv",
        "ision"
      ],
      [
        "Ġo",
        "pp"
      ],
      [
        "Ġle",
        "g"
      ],
      [
        "Ġ",
        "Â"
      ],
      [
        "ren",
        "ch"
      ],
      [
        "Ġg",
        "ames"
      ],
      [
        "i",
        "or"
      ],
      [
        "ĠG",
        "u"
      ],
      [
        "ac",
        "hed"
      ],
      [
        "Ġt",
        "erm"
      ],
      [
        "Ġcomm",
        "and"
      ],
      [
        "iv",
        "al"
      ],
      [
        "Ġh",
        "and"
      ],
      [
        "Ġpos",
        "s"
      ],
      [
        "m",
        "p"
      ],
      [
        "Ġbel",
        "ie"
      ],
      [
        "Ġd",
        "am"
      ],
      [
        "Ġver",
        "y"
      ],
      [
        "e",
        "an"
      ],
      [
        "o",
        "x"
      ],
      [
        "Ġth",
        "ose"
      ],
      [
        "eb",
        "ru"
      ],
      [
        "Ġp",
        "ar"
      ],
      [
        "l",
        "u"
      ],
      [
        "ebru",
        "ary"
      ],
      [
        "Ġis",
        "s"
      ],
      [
        "Ġst",
        "ill"
      ],
      [
        "ĠF",
        "ebruary"
      ],
      [
        "ĠEu",
        "rop"
      ],
      [
        "Ġto",
        "p"
      ],
      [
        "Ġne",
        "xt"
      ],
      [
        "Ġspec",
        "ies"
      ],
      [
        "Ġeff",
        "ect"
      ],
      [
        "ri",
        "end"
      ],
      [
        "Ġvi",
        "ew"
      ],
      [
        "c",
        "hed"
      ],
      [
        "oc",
        "i"
      ],
      [
        "Ġorig",
        "inal"
      ],
      [
        "at",
        "ure"
      ],
      [
        "en",
        "ces"
      ],
      [
        "Ġsp",
        "e"
      ],
      [
        "ak",
        "en"
      ],
      [
        "ĠN",
        "ational"
      ],
      [
        "Ġw",
        "ater"
      ],
      [
        "n",
        "ess"
      ],
      [
        "Ġadd",
        "ition"
      ],
      [
        "Ġj",
        "oin"
      ],
      [
        "ĠCh",
        "rist"
      ],
      [
        "ĠF",
        "l"
      ],
      [
        "ĠA",
        "nd"
      ],
      [
        "Ġl",
        "ist"
      ],
      [
        "a",
        "u"
      ],
      [
        "h",
        "or"
      ],
      [
        "Ġper",
        "iod"
      ],
      [
        "Ġwith",
        "in"
      ],
      [
        "al",
        "k"
      ],
      [
        "Ġm",
        "embers"
      ],
      [
        "Ġm",
        "ark"
      ],
      [
        "Ġde",
        "b"
      ],
      [
        "et",
        "er"
      ],
      [
        "Ġhe",
        "ld"
      ],
      [
        "Ġbu",
        "ilt"
      ],
      [
        "ĠH",
        "is"
      ],
      [
        "Ġex",
        "per"
      ],
      [
        "a",
        "f"
      ],
      [
        "Ġrele",
        "ase"
      ],
      [
        "Ġl",
        "ate"
      ],
      [
        "Ġal",
        "though"
      ],
      [
        "Ġfor",
        "mer"
      ],
      [
        "re",
        "w"
      ],
      [
        "ĠF",
        "rench"
      ],
      [
        "Ġmat",
        "ch"
      ],
      [
        "Ġg",
        "reat"
      ],
      [
        "Ġ201",
        "0"
      ],
      [
        "a",
        "ugh"
      ],
      [
        "rid",
        "ge"
      ],
      [
        "ĠW",
        "e"
      ],
      [
        "Ġc",
        "ur"
      ],
      [
        "Ġd",
        "est"
      ],
      [
        "Ġs",
        "old"
      ],
      [
        "ut",
        "ed"
      ],
      [
        "tend",
        "ed"
      ],
      [
        "Ġv",
        "ideo"
      ],
      [
        "ĠB",
        "ar"
      ],
      [
        "ard",
        "s"
      ],
      [
        "Ġc",
        "aus"
      ],
      [
        "Ġ2",
        "1"
      ],
      [
        "l",
        "ine"
      ],
      [
        "ĠP",
        "ar"
      ],
      [
        "Ġst",
        "orm"
      ],
      [
        "Ġc",
        "over"
      ],
      [
        "ec",
        "h"
      ],
      [
        "v",
        "es"
      ],
      [
        "Ġin",
        "it"
      ],
      [
        "Ġro",
        "le"
      ],
      [
        "rop",
        "ical"
      ],
      [
        "Ġt",
        "ri"
      ],
      [
        "s",
        "elf"
      ],
      [
        "he",
        "l"
      ],
      [
        "Ġc",
        "ame"
      ],
      [
        "Ġest",
        "ab"
      ],
      [
        "Ġday",
        "s"
      ],
      [
        "an",
        "ces"
      ],
      [
        "Ġres",
        "ult"
      ],
      [
        "Ġm",
        "id"
      ],
      [
        "Ġpres",
        "ent"
      ],
      [
        "ĠW",
        "est"
      ],
      [
        "n",
        "a"
      ],
      [
        "le",
        "v"
      ],
      [
        "ag",
        "ed"
      ],
      [
        "pt",
        "ion"
      ],
      [
        "o",
        "on"
      ],
      [
        "Ġ",
        "X"
      ],
      [
        "ul",
        "ation"
      ],
      [
        "Ġst",
        "and"
      ],
      [
        "Ġre",
        "al"
      ],
      [
        "Ġpol",
        "it"
      ],
      [
        "h",
        "am"
      ],
      [
        "Ġh",
        "owever"
      ],
      [
        "it",
        "ary"
      ],
      [
        "as",
        "ter"
      ],
      [
        "ĠA",
        "m"
      ],
      [
        "ĠW",
        "hen"
      ],
      [
        "Ġpro",
        "p"
      ],
      [
        "le",
        "t"
      ],
      [
        "om",
        "b"
      ],
      [
        "Ġ200",
        "8"
      ],
      [
        "en",
        "se"
      ],
      [
        "at",
        "ic"
      ],
      [
        "id",
        "es"
      ],
      [
        "Ġf",
        "ew"
      ],
      [
        "Ġto",
        "wn"
      ],
      [
        "Ġw",
        "ind"
      ],
      [
        "e",
        "ad"
      ],
      [
        "ĠWill",
        "iam"
      ],
      [
        "Ġ200",
        "9"
      ],
      [
        "Ġy",
        "ou"
      ],
      [
        "Ġ2",
        "4"
      ],
      [
        "og",
        "raph"
      ],
      [
        "Ġt",
        "w"
      ],
      [
        "Ġs",
        "ide"
      ],
      [
        "Ġs",
        "k"
      ],
      [
        "ĠM",
        "in"
      ],
      [
        "Ġcontin",
        "ued"
      ],
      [
        "Ġof",
        "ten"
      ],
      [
        "Ġe",
        "qu"
      ],
      [
        "Ġp",
        "ost"
      ],
      [
        "ay",
        "s"
      ],
      [
        "Ġloc",
        "al"
      ],
      [
        "el",
        "t"
      ],
      [
        "ĠM",
        "an"
      ],
      [
        "at",
        "or"
      ],
      [
        "Ġam",
        "ong"
      ],
      [
        "Ġsim",
        "ilar"
      ],
      [
        "ru",
        "ction"
      ],
      [
        "Ġ201",
        "1"
      ],
      [
        "r",
        "act"
      ],
      [
        "Ġh",
        "um"
      ],
      [
        "Ġa",
        "v"
      ],
      [
        "Ġcl",
        "aim"
      ],
      [
        "es",
        "tern"
      ],
      [
        "om",
        "en"
      ],
      [
        "c",
        "hes"
      ],
      [
        "un",
        "g"
      ],
      [
        "ĠA",
        "ir"
      ],
      [
        "Ġ",
        "&"
      ],
      [
        "s",
        "ide"
      ],
      [
        "re",
        "et"
      ],
      [
        "re",
        "ad"
      ],
      [
        "ak",
        "es"
      ],
      [
        "ĠGe",
        "or"
      ],
      [
        "Ġdiffer",
        "ent"
      ],
      [
        "ĠEng",
        "land"
      ],
      [
        "es",
        "e"
      ],
      [
        "op",
        "s"
      ],
      [
        "Ġm",
        "y"
      ],
      [
        "Ġd",
        "el"
      ],
      [
        "l",
        "er"
      ],
      [
        "Ġbe",
        "h"
      ],
      [
        "olog",
        "y"
      ],
      [
        "ĠH",
        "er"
      ],
      [
        "ar",
        "m"
      ],
      [
        "p",
        "ar"
      ],
      [
        "Ġt",
        "yp"
      ],
      [
        "Ġf",
        "urther"
      ],
      [
        "Ġs",
        "ent"
      ],
      [
        "t",
        "al"
      ],
      [
        "Ġ2",
        "2"
      ],
      [
        "es",
        "c"
      ],
      [
        "ot",
        "s"
      ],
      [
        "est",
        "ed"
      ],
      [
        "Ġle",
        "vel"
      ],
      [
        "ur",
        "s"
      ],
      [
        "Ġf",
        "re"
      ],
      [
        "Ġconsid",
        "ered"
      ],
      [
        "Ġt",
        "ake"
      ],
      [
        "Ġl",
        "aw"
      ],
      [
        "ĠD",
        "uring"
      ],
      [
        "er",
        "y"
      ],
      [
        "g",
        "y"
      ],
      [
        "Ġcare",
        "er"
      ],
      [
        "ĠM",
        "ich"
      ],
      [
        "ro",
        "du"
      ],
      [
        "Ġ200",
        "7"
      ],
      [
        "Ġprodu",
        "ction"
      ],
      [
        "ĠCh",
        "ar"
      ],
      [
        "ĠE",
        "ar"
      ],
      [
        "m",
        "e"
      ],
      [
        "Ġh",
        "alf"
      ],
      [
        "ic",
        "es"
      ],
      [
        "O",
        "n"
      ],
      [
        "Ġan",
        "t"
      ],
      [
        "amp",
        "ions"
      ],
      [
        "Ġh",
        "aving"
      ],
      [
        "b",
        "o"
      ],
      [
        "ĠN",
        "o"
      ],
      [
        "ĠC",
        "ity"
      ],
      [
        "ĠP",
        "ark"
      ],
      [
        "Ġm",
        "ag"
      ],
      [
        "Ġro",
        "ad"
      ],
      [
        "Ġe",
        "ast"
      ],
      [
        "Ġmov",
        "ed"
      ],
      [
        "s",
        "p"
      ],
      [
        "Ġd",
        "ra"
      ],
      [
        "er",
        "ing"
      ],
      [
        "ĠEng",
        "lish"
      ],
      [
        "r",
        "ig"
      ],
      [
        "Ġc",
        "or"
      ],
      [
        "Ġever",
        "y"
      ],
      [
        "Ġw",
        "est"
      ],
      [
        "Ġwith",
        "out"
      ],
      [
        "ĠE",
        "l"
      ],
      [
        "Ġt",
        "ro"
      ],
      [
        "Ġc",
        "r"
      ],
      [
        "ĠThe",
        "re"
      ],
      [
        "ĠR",
        "ec"
      ],
      [
        "Ġapp",
        "e"
      ],
      [
        "Ġpl",
        "an"
      ],
      [
        "in",
        "ing"
      ],
      [
        "ĠD",
        "av"
      ],
      [
        "Ġplay",
        "er"
      ],
      [
        "Ġpos",
        "ition"
      ],
      [
        "Ġbec",
        "ome"
      ],
      [
        "Ġar",
        "r"
      ],
      [
        "Ġhist",
        "ory"
      ],
      [
        "ron",
        "t"
      ],
      [
        "ĠC",
        "o"
      ],
      [
        "Ġvers",
        "ion"
      ],
      [
        "ver",
        "s"
      ],
      [
        "ĠC",
        "ent"
      ],
      [
        "f",
        "ord"
      ],
      [
        "ond",
        "on"
      ],
      [
        "on",
        "es"
      ],
      [
        "Ġ201",
        "2"
      ],
      [
        "Ġc",
        "ast"
      ],
      [
        "Ġ",
        "el"
      ],
      [
        "Ġinf",
        "lu"
      ],
      [
        "iz",
        "e"
      ],
      [
        "Ġar",
        "m"
      ],
      [
        "ĠC",
        "ount"
      ],
      [
        "al",
        "d"
      ],
      [
        "Ġh",
        "ouse"
      ],
      [
        "y",
        "le"
      ],
      [
        "Ġ2",
        "3"
      ],
      [
        "Ġs",
        "ound"
      ],
      [
        "Ġf",
        "ore"
      ],
      [
        "ir",
        "c"
      ],
      [
        "Ġcomm",
        "un"
      ],
      [
        "res",
        "ent"
      ],
      [
        "ap",
        "p"
      ],
      [
        "ĠL",
        "ondon"
      ],
      [
        "Ġg",
        "r"
      ],
      [
        "ĠAn",
        "g"
      ],
      [
        "Ġcl",
        "ub"
      ],
      [
        "ro",
        "y"
      ],
      [
        "Ġsu",
        "gg"
      ],
      [
        "a",
        "ul"
      ],
      [
        "at",
        "ter"
      ],
      [
        "Ġk",
        "e"
      ],
      [
        "Ġstr",
        "ong"
      ],
      [
        "Ġinv",
        "ol"
      ],
      [
        "ĠB",
        "att"
      ],
      [
        "a",
        "i"
      ],
      [
        "Ġwrit",
        "ten"
      ],
      [
        "ain",
        "ing"
      ],
      [
        "Ġ19",
        "0"
      ],
      [
        "Ġb",
        "as"
      ],
      [
        "Ġst",
        "at"
      ],
      [
        "Ġl",
        "ess"
      ],
      [
        "oun",
        "g"
      ],
      [
        "ut",
        "es"
      ],
      [
        "Ġann",
        "oun"
      ],
      [
        "re",
        "st"
      ],
      [
        "Ġf",
        "oot"
      ],
      [
        "i",
        "qu"
      ],
      [
        "Ġor",
        "der"
      ],
      [
        "ĠR",
        "iver"
      ],
      [
        "Ġre",
        "fer"
      ],
      [
        "iet",
        "y"
      ],
      [
        "im",
        "ent"
      ],
      [
        "g",
        "es"
      ],
      [
        "Ġpro",
        "f"
      ],
      [
        "c",
        "raft"
      ],
      [
        "ĠC",
        "al"
      ],
      [
        "Ġa",
        "ff"
      ],
      [
        "Ġpoin",
        "t"
      ],
      [
        "y",
        "n"
      ],
      [
        "se",
        "qu"
      ],
      [
        "Ġt",
        "em"
      ],
      [
        "Ġg",
        "iven"
      ],
      [
        "Ġr",
        "ad"
      ],
      [
        "Ġl",
        "ow"
      ],
      [
        "Ġtr",
        "ad"
      ],
      [
        "Ġh",
        "ig"
      ],
      [
        "ĠCan",
        "ad"
      ],
      [
        "Ġw",
        "ant"
      ],
      [
        "il",
        "le"
      ],
      [
        "Ġg",
        "ave"
      ],
      [
        "ĠUn",
        "iversity"
      ],
      [
        "Ġp",
        "at"
      ],
      [
        "u",
        "ck"
      ],
      [
        "is",
        "c"
      ],
      [
        "Ġim",
        "port"
      ],
      [
        "Ġne",
        "ver"
      ],
      [
        "a",
        "ff"
      ],
      [
        "Ġch",
        "ang"
      ],
      [
        "Ġdef",
        "e"
      ],
      [
        "or",
        "ies"
      ],
      [
        "Ġs",
        "oc"
      ],
      [
        "Ġreturn",
        "ed"
      ],
      [
        "r",
        "ation"
      ],
      [
        "a",
        "e"
      ],
      [
        "ĠO",
        "ne"
      ],
      [
        "Ġv",
        "ict"
      ],
      [
        "Ġto",
        "tal"
      ],
      [
        "Ġf",
        "act"
      ],
      [
        "Ġg",
        "ood"
      ],
      [
        "ent",
        "ion"
      ],
      [
        "Ġcontro",
        "l"
      ],
      [
        "Ġcomp",
        "any"
      ],
      [
        "Ġf",
        "ire"
      ],
      [
        "ail",
        "ed"
      ],
      [
        "Ġcount",
        "ry"
      ],
      [
        "Ġw",
        "ent"
      ],
      [
        "is",
        "on"
      ],
      [
        "Ġcom",
        "b"
      ],
      [
        "c",
        "ess"
      ],
      [
        "Ġf",
        "riend"
      ],
      [
        "ĠG",
        "ener"
      ],
      [
        "our",
        "s"
      ],
      [
        "ric",
        "k"
      ],
      [
        "Ġcap",
        "t"
      ],
      [
        "Ġpubl",
        "ished"
      ],
      [
        "ĠP",
        "ol"
      ],
      [
        "a",
        "un"
      ],
      [
        "Ġprodu",
        "ced"
      ],
      [
        "ĠH",
        "igh"
      ],
      [
        "lev",
        "ision"
      ],
      [
        "c",
        "on"
      ],
      [
        "Ġf",
        "ind"
      ],
      [
        "ay",
        "ing"
      ],
      [
        "Ġreport",
        "ed"
      ],
      [
        "Ġorig",
        "in"
      ],
      [
        "a",
        "ign"
      ],
      [
        "Ġl",
        "ost"
      ],
      [
        "Ġst",
        "ated"
      ],
      [
        "Ġcomm",
        "on"
      ],
      [
        "Ġprog",
        "ram"
      ],
      [
        "Ġ200",
        "6"
      ],
      [
        "Ġl",
        "ight"
      ],
      [
        "ing",
        "ton"
      ],
      [
        "Ġpartic",
        "ular"
      ],
      [
        "ap",
        "e"
      ],
      [
        "Ġor",
        "d"
      ],
      [
        "ec",
        "hn"
      ],
      [
        "Ġad",
        "m"
      ],
      [
        "Ġinclud",
        "e"
      ],
      [
        "ĠT",
        "r"
      ],
      [
        "est",
        "s"
      ],
      [
        "cc",
        "ording"
      ],
      [
        "b",
        "s"
      ],
      [
        "Ġlar",
        "g"
      ],
      [
        "ab",
        "ly"
      ],
      [
        "ur",
        "ric"
      ],
      [
        "Ġcomp",
        "et"
      ],
      [
        "Ġ",
        "er"
      ],
      [
        "us",
        "ed"
      ],
      [
        "Ġrecord",
        "ed"
      ],
      [
        "ie",
        "f"
      ],
      [
        "Ġbuild",
        "ing"
      ],
      [
        "Ġp",
        "ress"
      ],
      [
        "Ġne",
        "ed"
      ],
      [
        "Ġb",
        "us"
      ],
      [
        "Ġpro",
        "ject"
      ],
      [
        "h",
        "ing"
      ],
      [
        "Ġfor",
        "ces"
      ],
      [
        "ĠE",
        "x"
      ],
      [
        "um",
        "ent"
      ],
      [
        "Ġn",
        "ort"
      ],
      [
        "Ġship",
        "s"
      ],
      [
        "ĠS",
        "m"
      ],
      [
        "Ġsh",
        "ould"
      ],
      [
        "Ġ2",
        "7"
      ],
      [
        "Ġus",
        "ing"
      ],
      [
        "Ġe",
        "ight"
      ],
      [
        "Ġ5",
        "0"
      ],
      [
        "Ġ2",
        "8"
      ],
      [
        "Ġperform",
        "ance"
      ],
      [
        "in",
        "ess"
      ],
      [
        "Ġserv",
        "ice"
      ],
      [
        "Ġpop",
        "ular"
      ],
      [
        "Ġ",
        "ide"
      ],
      [
        "pl",
        "oy"
      ],
      [
        "Ġt",
        "imes"
      ],
      [
        "os",
        "p"
      ],
      [
        "Ġm",
        "aking"
      ],
      [
        "Ġt",
        "en"
      ],
      [
        "Ġair",
        "craft"
      ],
      [
        "Ġhim",
        "self"
      ],
      [
        "oy",
        "al"
      ],
      [
        "Ġf",
        "un"
      ],
      [
        "Ġaut",
        "hor"
      ],
      [
        "Ġf",
        "ather"
      ],
      [
        "at",
        "ch"
      ],
      [
        "Ġmil",
        "itary"
      ],
      [
        "Ġan",
        "im"
      ],
      [
        "Ġ201",
        "3"
      ],
      [
        "le",
        "ar"
      ],
      [
        "Ġbatt",
        "le"
      ],
      [
        "ampions",
        "hip"
      ],
      [
        "ĠS",
        "w"
      ],
      [
        "n",
        "ed"
      ],
      [
        "Ġs",
        "it"
      ],
      [
        "Ġl",
        "im"
      ],
      [
        "Ġsong",
        "s"
      ],
      [
        "Ġs",
        "omet"
      ],
      [
        "Ġre",
        "ad"
      ],
      [
        "e",
        "f"
      ],
      [
        "ou",
        "ther"
      ],
      [
        "ĠAustral",
        "ia"
      ],
      [
        "Ġcrit",
        "ic"
      ],
      [
        "ens",
        "ive"
      ],
      [
        "it",
        "her"
      ],
      [
        "ĠA",
        "f"
      ],
      [
        "ord",
        "s"
      ],
      [
        "Ġdevelop",
        "ment"
      ],
      [
        "ol",
        "l"
      ],
      [
        "ĠS",
        "ec"
      ],
      [
        "Ġs",
        "w"
      ],
      [
        "ĠA",
        "ss"
      ],
      [
        "Ġh",
        "ow"
      ],
      [
        "Ġg",
        "l"
      ],
      [
        "Ġ4",
        "0"
      ],
      [
        "al",
        "th"
      ],
      [
        "et",
        "h"
      ],
      [
        "it",
        "ive"
      ],
      [
        "as",
        "es"
      ],
      [
        "ĠA",
        "b"
      ],
      [
        "Ġs",
        "ol"
      ],
      [
        "ĠN",
        "e"
      ],
      [
        "qu",
        "ad"
      ],
      [
        "ed",
        "er"
      ],
      [
        "Ġ2",
        "6"
      ],
      [
        "outher",
        "n"
      ],
      [
        "ĠThe",
        "se"
      ],
      [
        "ĠJ",
        "ack"
      ],
      [
        "Ġc",
        "ross"
      ],
      [
        "c",
        "er"
      ],
      [
        "ĠC",
        "or"
      ],
      [
        "k",
        "s"
      ],
      [
        "Ġrep",
        "resent"
      ],
      [
        "Ġ18",
        "9"
      ],
      [
        "am",
        "b"
      ],
      [
        "Ġg",
        "round"
      ],
      [
        "Ġdest",
        "roy"
      ],
      [
        "ac",
        "y"
      ],
      [
        "Ġst",
        "ar"
      ],
      [
        "Ġf",
        "t"
      ],
      [
        "Ġrem",
        "ained"
      ],
      [
        "ĠGener",
        "al"
      ],
      [
        "as",
        "tern"
      ],
      [
        "Ġst",
        "e"
      ],
      [
        "ĠSt",
        "ate"
      ],
      [
        "Ġcharac",
        "ters"
      ],
      [
        "Ġn",
        "ational"
      ],
      [
        "ĠAr",
        "my"
      ],
      [
        "Ġg",
        "et"
      ],
      [
        "ri",
        "es"
      ],
      [
        "w",
        "ork"
      ],
      [
        "Ġmonth",
        "s"
      ],
      [
        "Ġsu",
        "ff"
      ],
      [
        "ĠS",
        "y"
      ],
      [
        "Ġg",
        "en"
      ],
      [
        "Ġd",
        "ied"
      ],
      [
        "a",
        "ur"
      ],
      [
        "Ġt",
        "er"
      ],
      [
        "ubl",
        "ic"
      ],
      [
        "Ġdevelop",
        "ed"
      ],
      [
        "Ġtit",
        "le"
      ],
      [
        "d",
        "om"
      ],
      [
        "Ġs",
        "um"
      ],
      [
        "Ġch",
        "art"
      ],
      [
        "Ġcamp",
        "aign"
      ],
      [
        "f",
        "ic"
      ],
      [
        "re",
        "am"
      ],
      [
        "urric",
        "ane"
      ],
      [
        "Ġfor",
        "ce"
      ],
      [
        "ĠP",
        "res"
      ],
      [
        "Ġchild",
        "ren"
      ],
      [
        "Ġint",
        "rodu"
      ],
      [
        "land",
        "s"
      ],
      [
        "en",
        "cy"
      ],
      [
        "Ġp",
        "ra"
      ],
      [
        "ĠB",
        "o"
      ],
      [
        "ĠLe",
        "ague"
      ],
      [
        "Ġto",
        "ur"
      ],
      [
        "Ġprom",
        "ot"
      ],
      [
        "ĠJ",
        "ames"
      ],
      [
        "it",
        "ted"
      ],
      [
        "ist",
        "ed"
      ],
      [
        "a",
        "el"
      ],
      [
        "Ġs",
        "on"
      ],
      [
        "Ġsign",
        "ific"
      ],
      [
        "Ġre",
        "d"
      ],
      [
        "ĠCom",
        "p"
      ],
      [
        "Ġac",
        "ross"
      ],
      [
        "ĠG",
        "l"
      ],
      [
        "Ġa",
        "way"
      ],
      [
        "ress",
        "ion"
      ],
      [
        "her",
        "n"
      ],
      [
        "Ġrel",
        "ations"
      ],
      [
        "Ġob",
        "s"
      ],
      [
        "ĠAl",
        "though"
      ],
      [
        "Ġhist",
        "or"
      ],
      [
        "Ġf",
        "ield"
      ],
      [
        "Ġoffic",
        "ial"
      ],
      [
        "o",
        "le"
      ],
      [
        "Ġf",
        "av"
      ],
      [
        "ĠD",
        "ivision"
      ],
      [
        "Ġf",
        "elt"
      ],
      [
        "le",
        "ge"
      ],
      [
        "ĠAmeric",
        "a"
      ],
      [
        "Ġnot",
        "ed"
      ],
      [
        "Ġf",
        "ac"
      ],
      [
        "ĠW",
        "ith"
      ],
      [
        "Ġn",
        "ight"
      ],
      [
        "al",
        "t"
      ],
      [
        "Ġannoun",
        "ced"
      ],
      [
        "m",
        "ost"
      ],
      [
        "Ġre",
        "ached"
      ],
      [
        "ĠSt",
        "e"
      ],
      [
        "Ġinter",
        "n"
      ],
      [
        "Ġc",
        "he"
      ],
      [
        "Ġcre",
        "ated"
      ],
      [
        "Ġare",
        "as"
      ],
      [
        "c",
        "om"
      ],
      [
        "ĠCount",
        "y"
      ],
      [
        "Ġte",
        "levision"
      ],
      [
        "Ġc",
        "oun"
      ],
      [
        "ĠR",
        "uss"
      ],
      [
        "Ġst",
        "ation"
      ],
      [
        "ress",
        "ed"
      ],
      [
        "ĠR",
        "oad"
      ],
      [
        "Ġsuccess",
        "ful"
      ],
      [
        "Ġro",
        "ck"
      ],
      [
        "Ġ200",
        "5"
      ],
      [
        "ĠJapan",
        "ese"
      ],
      [
        "im",
        "ately"
      ],
      [
        "Ġv",
        "al"
      ],
      [
        "ĠR",
        "ep"
      ],
      [
        "is",
        "ing"
      ],
      [
        "Ġvar",
        "ious"
      ],
      [
        "ĠâĢ",
        "Ļ"
      ],
      [
        "Ġb",
        "ar"
      ],
      [
        "Ġpolit",
        "ical"
      ],
      [
        "Ġse",
        "en"
      ],
      [
        "ĠSt",
        "reet"
      ],
      [
        "Ġfollow",
        "ed"
      ],
      [
        "Ġa",
        "ver"
      ],
      [
        "i",
        "ber"
      ],
      [
        "f",
        "ield"
      ],
      [
        "it",
        "ing"
      ],
      [
        "Ġto",
        "o"
      ],
      [
        "ĠM",
        "or"
      ],
      [
        "Ġr",
        "ank"
      ],
      [
        "ĠS",
        "up"
      ],
      [
        "et",
        "t"
      ],
      [
        "Ġ2",
        "9"
      ],
      [
        "Ġperform",
        "ed"
      ],
      [
        "c",
        "ast"
      ],
      [
        "ĠS",
        "im"
      ],
      [
        "Ġc",
        "ult"
      ],
      [
        "iz",
        "ation"
      ],
      [
        "op",
        "e"
      ],
      [
        "Ġser",
        "ved"
      ],
      [
        "Ġplay",
        "ers"
      ],
      [
        "re",
        "g"
      ],
      [
        "ĠM",
        "on"
      ],
      [
        "Ġre",
        "v"
      ],
      [
        "Ġcon",
        "d"
      ],
      [
        "al",
        "ity"
      ],
      [
        "Ġpr",
        "im"
      ],
      [
        "Ġdec",
        "l"
      ],
      [
        "ĠM",
        "ad"
      ],
      [
        "Ġf",
        "ull"
      ],
      [
        "Ġ201",
        "4"
      ],
      [
        "in",
        "ation"
      ],
      [
        "Ġbl",
        "ack"
      ],
      [
        "ell",
        "ing"
      ],
      [
        "Ġbe",
        "gin"
      ],
      [
        "Ġf",
        "le"
      ],
      [
        "Ġp",
        "ut"
      ],
      [
        "du",
        "ct"
      ],
      [
        "Ġc",
        "irc"
      ],
      [
        "ab",
        "or"
      ],
      [
        "Ġcon",
        "v"
      ],
      [
        "ĠRe",
        "g"
      ],
      [
        "Ġear",
        "l"
      ],
      [
        "ol",
        "ution"
      ],
      [
        "ĠG",
        "r"
      ],
      [
        "ĠE",
        "ast"
      ],
      [
        "Ġc",
        "ost"
      ],
      [
        "ĠWh",
        "ile"
      ],
      [
        "id",
        "ence"
      ],
      [
        "Ġpro",
        "cess"
      ],
      [
        "Ġse",
        "e"
      ],
      [
        "Ġn",
        "on"
      ],
      [
        "Ġd",
        "iv"
      ],
      [
        "Ġst",
        "yle"
      ],
      [
        "y",
        "ing"
      ],
      [
        "Ġl",
        "ook"
      ],
      [
        "Ġse",
        "ven"
      ],
      [
        "Ġa",
        "ud"
      ],
      [
        "Ġv",
        "ol"
      ],
      [
        "Ġkill",
        "ed"
      ],
      [
        "Ġc",
        "y"
      ],
      [
        "Ġhel",
        "p"
      ],
      [
        "ric",
        "t"
      ],
      [
        "Ġle",
        "t"
      ],
      [
        "pl",
        "ay"
      ],
      [
        "l",
        "ished"
      ],
      [
        "Ġthrough",
        "out"
      ],
      [
        "b",
        "or"
      ],
      [
        "Ġt",
        "aken"
      ],
      [
        "Ġt",
        "ropical"
      ],
      [
        "Ġab",
        "le"
      ],
      [
        "an",
        "a"
      ],
      [
        "ĠS",
        "er"
      ],
      [
        "Ġf",
        "ight"
      ],
      [
        "Ġdisc",
        "over"
      ],
      [
        "Ġag",
        "re"
      ],
      [
        "ec",
        "ut"
      ],
      [
        "ert",
        "ain"
      ],
      [
        "Ġlit",
        "tle"
      ],
      [
        "Ġw",
        "id"
      ],
      [
        "Ġbec",
        "om"
      ],
      [
        "Ġf",
        "em"
      ],
      [
        "Ġa",
        "ge"
      ],
      [
        "ur",
        "g"
      ],
      [
        "Ġsignific",
        "ant"
      ],
      [
        "ĠPh",
        "il"
      ],
      [
        "Ġh",
        "it"
      ],
      [
        "Ġme",
        "et"
      ],
      [
        "Ġ",
        "ident"
      ],
      [
        "ir",
        "l"
      ],
      [
        "way",
        "s"
      ],
      [
        "Ġt",
        "echn"
      ],
      [
        "ĠH",
        "en"
      ],
      [
        "ĠA",
        "ccording"
      ],
      [
        "ĠGeor",
        "ge"
      ],
      [
        "Ġspec",
        "ial"
      ],
      [
        "ĠR",
        "ober"
      ],
      [
        "Ġc",
        "op"
      ],
      [
        "ĠB",
        "ill"
      ],
      [
        "o",
        "ice"
      ],
      [
        "Ġwrit",
        "ing"
      ],
      [
        "Ġst",
        "ruct"
      ],
      [
        "Ġthough",
        "t"
      ],
      [
        "Ġestab",
        "lished"
      ],
      [
        "Ġbro",
        "ad"
      ],
      [
        "Ġf",
        "ront"
      ],
      [
        "en",
        "ced"
      ],
      [
        "Ġm",
        "m"
      ],
      [
        "Ġappe",
        "ared"
      ],
      [
        "Ġdo",
        "es"
      ],
      [
        "Ġcol",
        "l"
      ],
      [
        "Ġent",
        "ire"
      ],
      [
        "av",
        "al"
      ],
      [
        "c",
        "il"
      ],
      [
        "ep",
        "end"
      ],
      [
        "ĠE",
        "m"
      ],
      [
        "Ġy",
        "oung"
      ],
      [
        "Ġco",
        "ast"
      ],
      [
        "Ġpoin",
        "ts"
      ],
      [
        "Ġ",
        "!"
      ],
      [
        "Ġmil",
        "es"
      ],
      [
        "i",
        "us"
      ],
      [
        "Ġb",
        "ody"
      ],
      [
        "l",
        "ess"
      ],
      [
        "Ġa",
        "ward"
      ],
      [
        "Ġimp",
        "ro"
      ],
      [
        "ĠAustral",
        "ian"
      ],
      [
        "Ġro",
        "ute"
      ],
      [
        "Ġm",
        "ember"
      ],
      [
        "od",
        "es"
      ],
      [
        "ough",
        "t"
      ],
      [
        "g",
        "round"
      ],
      [
        "ri",
        "pt"
      ],
      [
        "Ġw",
        "omen"
      ],
      [
        "Ġact",
        "iv"
      ],
      [
        "Ġr",
        "ange"
      ],
      [
        "as",
        "k"
      ],
      [
        "iv",
        "il"
      ],
      [
        "he",
        "re"
      ],
      [
        "m",
        "s"
      ],
      [
        "Ġcaus",
        "ed"
      ],
      [
        "Ġstart",
        "ed"
      ],
      [
        "Ġdec",
        "ided"
      ],
      [
        "st",
        "er"
      ],
      [
        "i",
        "ers"
      ],
      [
        "ĠP",
        "art"
      ],
      [
        "Ġfeat",
        "ures"
      ],
      [
        "d",
        "ay"
      ],
      [
        "lect",
        "ed"
      ],
      [
        "ĠA",
        "ct"
      ],
      [
        "ĠS",
        "ch"
      ],
      [
        "Ġgener",
        "al"
      ],
      [
        "Ġp",
        "ain"
      ],
      [
        "ĠP",
        "er"
      ],
      [
        "Ġevent",
        "ually"
      ],
      [
        "at",
        "ors"
      ],
      [
        "ir",
        "on"
      ],
      [
        "i",
        "ec"
      ],
      [
        "ĠAf",
        "ric"
      ],
      [
        "m",
        "en"
      ],
      [
        "in",
        "t"
      ],
      [
        "ĠTh",
        "om"
      ],
      [
        "ĠM",
        "ed"
      ],
      [
        "um",
        "b"
      ],
      [
        "d",
        "en"
      ],
      [
        "ĠY",
        "ou"
      ],
      [
        "con",
        "om"
      ],
      [
        "op",
        "h"
      ],
      [
        "og",
        "n"
      ],
      [
        "Ġr",
        "ace"
      ],
      [
        "Ġar",
        "ch"
      ],
      [
        "u",
        "k"
      ],
      [
        "Ġv",
        "ot"
      ],
      [
        "it",
        "ar"
      ],
      [
        "Ġgro",
        "w"
      ],
      [
        "Ġman",
        "ag"
      ],
      [
        "Ġfe",
        "et"
      ],
      [
        "pp",
        "ed"
      ],
      [
        "us",
        "h"
      ],
      [
        "ris",
        "on"
      ],
      [
        "Ġto",
        "get"
      ],
      [
        "Ġtoget",
        "her"
      ],
      [
        "Ġadd",
        "ed"
      ],
      [
        "Ġt",
        "re"
      ],
      [
        "ĠDav",
        "id"
      ],
      [
        "Ġh",
        "old"
      ],
      [
        "Ġc",
        "ut"
      ],
      [
        "ĠR",
        "oyal"
      ],
      [
        "ber",
        "t"
      ],
      [
        "ĠR",
        "ich"
      ],
      [
        "iv",
        "id"
      ],
      [
        "Ġwh",
        "ite"
      ],
      [
        "ĠH",
        "ouse"
      ],
      [
        "Ġon",
        "ce"
      ],
      [
        "Ġn",
        "ov"
      ],
      [
        "amp",
        "le"
      ],
      [
        "am",
        "ent"
      ],
      [
        "Ġform",
        "ed"
      ],
      [
        "Ġ18",
        "8"
      ],
      [
        "Ġar",
        "g"
      ],
      [
        "Ġloc",
        "ated"
      ],
      [
        "ĠQ",
        "u"
      ],
      [
        "ree",
        "k"
      ],
      [
        "o",
        "ff"
      ],
      [
        "Ġst",
        "ri"
      ],
      [
        "ĠP",
        "e"
      ],
      [
        "ur",
        "b"
      ],
      [
        "Ġcon",
        "n"
      ],
      [
        "Ġmod",
        "ern"
      ],
      [
        "Ġen",
        "c"
      ],
      [
        "Ġinst",
        "ead"
      ],
      [
        "d",
        "le"
      ],
      [
        "he",
        "ad"
      ],
      [
        "rough",
        "t"
      ],
      [
        "ac",
        "es"
      ],
      [
        "ort",
        "s"
      ],
      [
        "Ġro",
        "und"
      ],
      [
        "Ġ",
        "esc"
      ],
      [
        "ar",
        "a"
      ],
      [
        "Ġb",
        "all"
      ],
      [
        "em",
        "y"
      ],
      [
        "Ġ3",
        "1"
      ],
      [
        "Ġm",
        "ix"
      ],
      [
        "Ġimport",
        "ant"
      ],
      [
        "Ġp",
        "ri"
      ],
      [
        "Ġcre",
        "w"
      ],
      [
        "c",
        "ing"
      ],
      [
        "Ġs",
        "aw"
      ],
      [
        "Ġa",
        "ction"
      ],
      [
        "Ġcomple",
        "ted"
      ],
      [
        "Ġre",
        "du"
      ],
      [
        "Ġplay",
        "ing"
      ],
      [
        "ect",
        "s"
      ],
      [
        "one",
        "y"
      ],
      [
        "id",
        "s"
      ],
      [
        "c",
        "ent"
      ],
      [
        "r",
        "ated"
      ],
      [
        "ell",
        "s"
      ],
      [
        "ĠIt",
        "al"
      ],
      [
        "at",
        "a"
      ],
      [
        "ĠBl",
        "ack"
      ],
      [
        "Ġins",
        "p"
      ],
      [
        "ĠInd",
        "ian"
      ],
      [
        "Ġb",
        "ase"
      ],
      [
        "Ġm",
        "ater"
      ],
      [
        "ĠIn",
        "tern"
      ],
      [
        "Ġ200",
        "4"
      ],
      [
        "Ġpop",
        "ulation"
      ],
      [
        "Ġm",
        "ot"
      ],
      [
        "Ġsur",
        "v"
      ],
      [
        "ĠH",
        "ist"
      ],
      [
        "Ġv",
        "oc"
      ],
      [
        "l",
        "in"
      ],
      [
        "Ġas",
        "k"
      ],
      [
        "r",
        "ay"
      ],
      [
        "Ġr",
        "ather"
      ],
      [
        "Ġocc",
        "ur"
      ],
      [
        "Ġopen",
        "ed"
      ],
      [
        "s",
        "c"
      ],
      [
        "Ġst",
        "age"
      ],
      [
        "Ġbeh",
        "ind"
      ],
      [
        "Ġother",
        "s"
      ],
      [
        "Ġf",
        "all"
      ],
      [
        "Ġgun",
        "s"
      ],
      [
        "Ġ18",
        "6"
      ],
      [
        "Ġre",
        "n"
      ],
      [
        "as",
        "ing"
      ],
      [
        "ce",
        "ed"
      ],
      [
        "Ġbro",
        "ther"
      ],
      [
        "wo",
        "od"
      ],
      [
        "em",
        "ents"
      ],
      [
        "ign",
        "ed"
      ],
      [
        "Ġcom",
        "ment"
      ],
      [
        "Ġl",
        "ik"
      ],
      [
        "st",
        "it"
      ],
      [
        "Ġf",
        "if"
      ],
      [
        "Ġs",
        "ite"
      ],
      [
        "Ġl",
        "ive"
      ],
      [
        "Ġwork",
        "s"
      ],
      [
        "nd",
        "er"
      ],
      [
        "Ġl",
        "oss"
      ],
      [
        "Ġb",
        "omb"
      ],
      [
        "Ġwork",
        "ed"
      ],
      [
        "Ġ201",
        "5"
      ],
      [
        "fic",
        "ult"
      ],
      [
        "ĠT",
        "o"
      ],
      [
        "Ġhe",
        "avy"
      ],
      [
        "Ġm",
        "iss"
      ],
      [
        "Ġp",
        "red"
      ],
      [
        "ĠFran",
        "ce"
      ],
      [
        "Ã",
        "¡"
      ],
      [
        "med",
        "i"
      ],
      [
        "ra",
        "p"
      ],
      [
        "Ġsub",
        "sequ"
      ],
      [
        "Ġl",
        "ack"
      ],
      [
        "Ġpart",
        "y"
      ],
      [
        "Ġpro",
        "ble"
      ],
      [
        "le",
        "ction"
      ],
      [
        "Ġdif",
        "ficult"
      ],
      [
        "Ġcl",
        "ose"
      ],
      [
        "Ġconst",
        "ruction"
      ],
      [
        "Ġkn",
        "ow"
      ],
      [
        "ĠS",
        "chool"
      ],
      [
        "Ġrelations",
        "hip"
      ],
      [
        "ar",
        "ch"
      ],
      [
        "Ġh",
        "ost"
      ],
      [
        "Ġweek",
        "s"
      ],
      [
        "ĠM",
        "y"
      ],
      [
        "ist",
        "ic"
      ],
      [
        "Ġorigin",
        "ally"
      ],
      [
        "Ġse",
        "par"
      ],
      [
        "Ġass",
        "oci"
      ],
      [
        "Ġup",
        "on"
      ],
      [
        "Ġpr",
        "act"
      ],
      [
        "Ġre",
        "b"
      ],
      [
        "Ġlead",
        "ing"
      ],
      [
        "Ġapp",
        "oin"
      ],
      [
        "l",
        "ic"
      ],
      [
        "Ġacc",
        "om"
      ],
      [
        "Ġv",
        "ill"
      ],
      [
        "Ġal",
        "most"
      ],
      [
        "ĠS",
        "an"
      ],
      [
        "Ġm",
        "er"
      ],
      [
        "Ġpe",
        "ak"
      ],
      [
        "c",
        "o"
      ],
      [
        "Ġin",
        "j"
      ],
      [
        "Ġdam",
        "age"
      ],
      [
        "ĠW",
        "ash"
      ],
      [
        "ĠN",
        "or"
      ],
      [
        "ĠMich",
        "ael"
      ],
      [
        "un",
        "k"
      ],
      [
        "Ġb",
        "orn"
      ],
      [
        "Ġsc",
        "ored"
      ],
      [
        "Ġfour",
        "th"
      ],
      [
        "os",
        "ition"
      ],
      [
        "ĠEurop",
        "e"
      ],
      [
        "Ġin",
        "form"
      ],
      [
        "ic",
        "a"
      ],
      [
        "Ġm",
        "or"
      ],
      [
        "Ġre",
        "ve"
      ],
      [
        "Ġprov",
        "ided"
      ],
      [
        "m",
        "ing"
      ],
      [
        "Ġc",
        "ase"
      ],
      [
        "Ġgo",
        "al"
      ],
      [
        "Ġcl",
        "os"
      ],
      [
        "bo",
        "ard"
      ],
      [
        "ap",
        "s"
      ],
      [
        "Ġeng",
        "ine"
      ],
      [
        "Ġc",
        "reat"
      ],
      [
        "Ġac",
        "cept"
      ],
      [
        "Ġm",
        "i"
      ],
      [
        "Ġ200",
        "0"
      ],
      [
        "Ġinv",
        "est"
      ],
      [
        "ĠBatt",
        "le"
      ],
      [
        "t",
        "o"
      ],
      [
        "Ġsc",
        "ene"
      ],
      [
        "ell",
        "ow"
      ],
      [
        "ĠP",
        "ort"
      ],
      [
        "Ġhum",
        "an"
      ],
      [
        "ang",
        "u"
      ],
      [
        "u",
        "le"
      ],
      [
        "in",
        "o"
      ],
      [
        "olog",
        "ical"
      ],
      [
        "Ġb",
        "rought"
      ],
      [
        "Ġf",
        "ree"
      ],
      [
        "Ġ5",
        "00"
      ],
      [
        "Ġind",
        "ivid"
      ],
      [
        "Ġfeat",
        "ured"
      ],
      [
        "ul",
        "a"
      ],
      [
        "Ġm",
        "other"
      ],
      [
        "Ġ18",
        "7"
      ],
      [
        "ĠB",
        "est"
      ],
      [
        "Ġle",
        "ast"
      ],
      [
        "Ġk",
        "ing"
      ],
      [
        "am",
        "a"
      ],
      [
        "Ġwork",
        "ing"
      ],
      [
        "Ġallow",
        "ed"
      ],
      [
        "Ġl",
        "aun"
      ],
      [
        "Ġres",
        "ul"
      ],
      [
        "Ġaver",
        "age"
      ],
      [
        "Ġto",
        "wards"
      ],
      [
        "Ġwant",
        "ed"
      ],
      [
        "Ġm",
        "ult"
      ],
      [
        "ĠSt",
        "ar"
      ],
      [
        "Ġind",
        "ust"
      ],
      [
        "av",
        "es"
      ],
      [
        "Ġtrad",
        "ition"
      ],
      [
        "a",
        "ut"
      ],
      [
        "ĠR",
        "ed"
      ],
      [
        "Ġreg",
        "ion"
      ],
      [
        "ĠMus",
        "ic"
      ],
      [
        "Ġbus",
        "iness"
      ],
      [
        "A",
        "fter"
      ],
      [
        "ĠHen",
        "ry"
      ],
      [
        "ĠA",
        "le"
      ],
      [
        "id",
        "ing"
      ],
      [
        "az",
        "ine"
      ],
      [
        "e",
        "e"
      ],
      [
        "ĠV",
        "ir"
      ],
      [
        "Ġv",
        "e"
      ],
      [
        "Ġqu",
        "ick"
      ],
      [
        "Ġtro",
        "ops"
      ],
      [
        "Ġpl",
        "aced"
      ],
      [
        "Ġe",
        "ither"
      ],
      [
        "Ġresp",
        "ect"
      ],
      [
        "Ġc",
        "e"
      ],
      [
        "v",
        "ing"
      ],
      [
        "Ġoff",
        "ice"
      ],
      [
        "Ġcrit",
        "ics"
      ],
      [
        "k",
        "y"
      ],
      [
        "ĠPres",
        "ident"
      ],
      [
        "Ġav",
        "ail"
      ],
      [
        "Ġh",
        "on"
      ],
      [
        "ant",
        "ic"
      ],
      [
        "Ġre",
        "ach"
      ],
      [
        "Ġprof",
        "ess"
      ],
      [
        "Ġex",
        "ample"
      ],
      [
        "Ġmater",
        "ial"
      ],
      [
        "Ġrun",
        "s"
      ],
      [
        "Ġe",
        "conom"
      ],
      [
        "Ġrec",
        "ogn"
      ],
      [
        "Ġf",
        "ar"
      ],
      [
        "ĠQ",
        "ue"
      ],
      [
        "g",
        "o"
      ],
      [
        "ĠWash",
        "ington"
      ],
      [
        "en",
        "ed"
      ],
      [
        "Ġw",
        "ife"
      ],
      [
        "ĠH",
        "ol"
      ],
      [
        "ĠR",
        "ou"
      ],
      [
        "ear",
        "ch"
      ],
      [
        "ch",
        "ie"
      ],
      [
        "Ġne",
        "g"
      ],
      [
        "Ġest",
        "im"
      ],
      [
        "ent",
        "ial"
      ],
      [
        "Ġar",
        "my"
      ],
      [
        "Ġ",
        "z"
      ],
      [
        "Ġf",
        "oc"
      ],
      [
        "r",
        "ight"
      ],
      [
        "esp",
        "ite"
      ],
      [
        "Ġse",
        "x"
      ],
      [
        "ĠM",
        "il"
      ],
      [
        "Ġinter",
        "est"
      ],
      [
        "ĠC",
        "ap"
      ],
      [
        "ĠG",
        "ro"
      ],
      [
        "Ġs",
        "our"
      ],
      [
        "ĠO",
        "ther"
      ],
      [
        "eng",
        "th"
      ],
      [
        "Ġgener",
        "ally"
      ],
      [
        "Ġm",
        "ass"
      ],
      [
        "Ġ200",
        "3"
      ],
      [
        "Ġjoin",
        "ed"
      ],
      [
        "Ġra",
        "il"
      ],
      [
        "Ġd",
        "ou"
      ],
      [
        "Ġ",
        "Ã"
      ],
      [
        "ill",
        "s"
      ],
      [
        "quad",
        "ron"
      ],
      [
        "ĠP",
        "aul"
      ],
      [
        "Ġpro",
        "per"
      ],
      [
        "ĠC",
        "our"
      ],
      [
        "ĠA",
        "g"
      ],
      [
        "en",
        "es"
      ],
      [
        "ĠB",
        "el"
      ],
      [
        "Ġcur",
        "rent"
      ],
      [
        "Ġde",
        "v"
      ],
      [
        "our",
        "n"
      ],
      [
        "ĠC",
        "ro"
      ],
      [
        "u",
        "ff"
      ],
      [
        "Ġev",
        "ents"
      ],
      [
        "o",
        "f"
      ],
      [
        "ĠC",
        "up"
      ],
      [
        "Ġbelie",
        "ved"
      ],
      [
        "it",
        "ch"
      ],
      [
        "Ġpartic",
        "ip"
      ],
      [
        "ĠRober",
        "t"
      ],
      [
        "re",
        "y"
      ],
      [
        "Ġf",
        "ig"
      ],
      [
        "ĠK",
        "e"
      ],
      [
        "ollow",
        "ing"
      ],
      [
        "v",
        "ille"
      ],
      [
        "Ġ3",
        "5"
      ],
      [
        "ĠH",
        "all"
      ],
      [
        "o",
        "or"
      ],
      [
        "ĠAng",
        "el"
      ],
      [
        "Ġvict",
        "ory"
      ],
      [
        "Ġrepl",
        "aced"
      ],
      [
        "art",
        "ment"
      ],
      [
        "Ġdesign",
        "ed"
      ],
      [
        "Ġm",
        "ph"
      ],
      [
        "ict",
        "ion"
      ],
      [
        "Ġg",
        "rad"
      ],
      [
        "Ġr",
        "ul"
      ],
      [
        "ĠH",
        "am"
      ],
      [
        "ĠG",
        "ame"
      ],
      [
        "it",
        "te"
      ],
      [
        "Ġso",
        "on"
      ],
      [
        "Ġn",
        "omin"
      ],
      [
        "Ġis",
        "land"
      ],
      [
        "Ġf",
        "und"
      ],
      [
        "x",
        "ic"
      ],
      [
        "er",
        "ous"
      ],
      [
        "Ġh",
        "ours"
      ],
      [
        "ĠG",
        "reat"
      ],
      [
        "Ġem",
        "ploy"
      ],
      [
        "Ġpres",
        "ident"
      ],
      [
        "u",
        "el"
      ],
      [
        "Ġro",
        "om"
      ],
      [
        "it",
        "or"
      ],
      [
        "ific",
        "ation"
      ],
      [
        "ar",
        "n"
      ],
      [
        "Ġinvol",
        "ved"
      ],
      [
        "al",
        "ed"
      ],
      [
        "v",
        "al"
      ],
      [
        "Ġsur",
        "f"
      ],
      [
        "Ġfin",
        "ished"
      ],
      [
        "z",
        "e"
      ],
      [
        "mer",
        "c"
      ],
      [
        "in",
        "ist"
      ],
      [
        "Ġst",
        "ru"
      ],
      [
        "ĠEurop",
        "ean"
      ],
      [
        "r",
        "ac"
      ],
      [
        "ĠCh",
        "ampionship"
      ],
      [
        "as",
        "ion"
      ],
      [
        "w",
        "est"
      ],
      [
        "in",
        "f"
      ],
      [
        "in",
        "n"
      ],
      [
        "Ġbre",
        "ak"
      ],
      [
        "ap",
        "er"
      ],
      [
        "ĠM",
        "ary"
      ],
      [
        "a",
        "ren"
      ],
      [
        "ĠL",
        "ou"
      ],
      [
        "Ġh",
        "or"
      ],
      [
        "ra",
        "in"
      ],
      [
        "if",
        "f"
      ],
      [
        "Ġs",
        "aying"
      ],
      [
        "ĠF",
        "irst"
      ],
      [
        "em",
        "or"
      ],
      [
        "Ġcour",
        "t"
      ],
      [
        "Ġsh",
        "ot"
      ],
      [
        "Ġth",
        "reat"
      ],
      [
        "Ġsc",
        "ore"
      ],
      [
        "Ġopen",
        "ing"
      ],
      [
        "Ġreg",
        "ular"
      ],
      [
        "ĠR",
        "oman"
      ],
      [
        "B",
        "C"
      ],
      [
        "Ġdirect",
        "or"
      ],
      [
        "Ġdes",
        "p"
      ],
      [
        "Ġl",
        "ength"
      ],
      [
        "le",
        "g"
      ],
      [
        "c",
        "her"
      ],
      [
        "ĠL",
        "a"
      ],
      [
        "ad",
        "es"
      ],
      [
        "Ġind",
        "ic"
      ],
      [
        "Ġcon",
        "duct"
      ],
      [
        "Ġlarg",
        "est"
      ],
      [
        "Ġcont",
        "rib"
      ],
      [
        "Ġtra",
        "vel"
      ],
      [
        "Ġh",
        "om"
      ],
      [
        "ou",
        "l"
      ],
      [
        "k",
        "i"
      ],
      [
        "Ġposs",
        "ible"
      ],
      [
        "ecut",
        "ive"
      ],
      [
        "n",
        "ow"
      ],
      [
        "Ġmin",
        "utes"
      ],
      [
        "Ġ",
        "ill"
      ],
      [
        "Ġhigh",
        "way"
      ],
      [
        "Ġd",
        "ro"
      ],
      [
        "Ġs",
        "outhern"
      ],
      [
        "ish",
        "ing"
      ],
      [
        "Ġh",
        "y"
      ],
      [
        "ĠM",
        "al"
      ],
      [
        "ic",
        "le"
      ],
      [
        "Ġhig",
        "hest"
      ],
      [
        "Ġrem",
        "ov"
      ],
      [
        "Ġearl",
        "ier"
      ],
      [
        "Ġinit",
        "ially"
      ],
      [
        "Ġt",
        "est"
      ],
      [
        "ag",
        "o"
      ],
      [
        "Ġl",
        "y"
      ],
      [
        "ĠM",
        "art"
      ],
      [
        "ĠPl",
        "ay"
      ],
      [
        "Ġavail",
        "able"
      ],
      [
        "Ġparticular",
        "ly"
      ],
      [
        "Ġper",
        "cent"
      ],
      [
        "and",
        "er"
      ],
      [
        "ant",
        "ry"
      ],
      [
        "Ġh",
        "ard"
      ],
      [
        "ann",
        "ed"
      ],
      [
        "Ġse",
        "qu"
      ],
      [
        "Ġtra",
        "ining"
      ],
      [
        "Ġ200",
        "1"
      ],
      [
        "ĠAt",
        "l"
      ],
      [
        "ud",
        "e"
      ],
      [
        "Ġm",
        "ust"
      ],
      [
        "Ġfor",
        "ced"
      ],
      [
        "p",
        "ly"
      ],
      [
        "Ġex",
        "ist"
      ],
      [
        "ip",
        "p"
      ],
      [
        "ĠRep",
        "ublic"
      ],
      [
        "h",
        "ib"
      ],
      [
        "ĠV",
        "al"
      ],
      [
        "ri",
        "an"
      ],
      [
        "ograph",
        "y"
      ],
      [
        "as",
        "y"
      ],
      [
        "Ġp",
        "ark"
      ],
      [
        "ĠD",
        "an"
      ],
      [
        "ĠÂ",
        "°"
      ],
      [
        "ĠN",
        "avy"
      ],
      [
        "ĠSc",
        "ott"
      ],
      [
        "ĠS",
        "ome"
      ],
      [
        "ĠM",
        "et"
      ],
      [
        "ĠB",
        "er"
      ],
      [
        "ate",
        "g"
      ],
      [
        "Ġresp",
        "ons"
      ],
      [
        "Ġend",
        "ed"
      ],
      [
        "Ġqu",
        "ar"
      ],
      [
        "ĠD",
        "on"
      ],
      [
        "ĠKing",
        "dom"
      ],
      [
        "ĠM",
        "ac"
      ],
      [
        "ĠRou",
        "te"
      ],
      [
        "Ġturn",
        "ed"
      ],
      [
        "Ġw",
        "all"
      ],
      [
        "Ġex",
        "c"
      ],
      [
        "Ġsoc",
        "ial"
      ],
      [
        "ut",
        "ure"
      ],
      [
        "ĠS",
        "ing"
      ],
      [
        "Ġstud",
        "io"
      ],
      [
        "em",
        "s"
      ],
      [
        "ĠD",
        "r"
      ],
      [
        "if",
        "orn"
      ],
      [
        "ra",
        "g"
      ],
      [
        "ĠM",
        "id"
      ],
      [
        "i",
        "os"
      ],
      [
        "Ġch",
        "ange"
      ],
      [
        "Ġl",
        "angu"
      ],
      [
        "ĠM",
        "ag"
      ],
      [
        "Ġpra",
        "ised"
      ],
      [
        "Ġpass",
        "ed"
      ],
      [
        "Ġpr",
        "iv"
      ],
      [
        "Ġb",
        "ill"
      ],
      [
        "at",
        "ural"
      ],
      [
        "Ġp",
        "iec"
      ],
      [
        "Ġincre",
        "ased"
      ],
      [
        "Ġob",
        "ject"
      ],
      [
        "ĠW",
        "il"
      ],
      [
        "r",
        "up"
      ],
      [
        "Ġsup",
        "er"
      ],
      [
        "Ġed",
        "uc"
      ],
      [
        "Ġh",
        "urricane"
      ],
      [
        "Ġreg",
        "ard"
      ],
      [
        "Ġnort",
        "hern"
      ],
      [
        "he",
        "ast"
      ],
      [
        "ĠD",
        "ep"
      ],
      [
        "ĠIntern",
        "ational"
      ],
      [
        "Ġke",
        "ep"
      ],
      [
        "Ġph",
        "ys"
      ],
      [
        "Ġcent",
        "ral"
      ],
      [
        "ight",
        "s"
      ],
      [
        "Ġnov",
        "el"
      ],
      [
        "Ġ200",
        "2"
      ],
      [
        "Ġrel",
        "ig"
      ],
      [
        "ĠCh",
        "urch"
      ],
      [
        "Ġspe",
        "ed"
      ],
      [
        "Ġappear",
        "ance"
      ],
      [
        "Ġun",
        "its"
      ],
      [
        "Ġp",
        "ast"
      ],
      [
        "ers",
        "hip"
      ],
      [
        "ĠChar",
        "les"
      ],
      [
        "ĠO",
        "ff"
      ],
      [
        "ke",
        "y"
      ],
      [
        "Ġst",
        "op"
      ],
      [
        "ĠCanad",
        "a"
      ],
      [
        "or",
        "ing"
      ],
      [
        "re",
        "m"
      ],
      [
        "Ġch",
        "urch"
      ],
      [
        "end",
        "ed"
      ],
      [
        "Ġim",
        "medi"
      ],
      [
        "Ġc",
        "ou"
      ],
      [
        "ĠCal",
        "iforn"
      ],
      [
        "ĠVir",
        "gin"
      ],
      [
        "u",
        "ter"
      ],
      [
        "ĠB",
        "ut"
      ],
      [
        "Ġsy",
        "m"
      ],
      [
        "st",
        "on"
      ],
      [
        "oc",
        "r"
      ],
      [
        "Ġdis",
        "p"
      ],
      [
        "ĠWh",
        "ite"
      ],
      [
        "Ġme",
        "as"
      ],
      [
        "Ġord",
        "ered"
      ],
      [
        "augh",
        "ter"
      ],
      [
        "ĠThom",
        "as"
      ],
      [
        "Ġt",
        "reat"
      ],
      [
        "Ġpro",
        "b"
      ],
      [
        "ĠB",
        "ay"
      ],
      [
        "Ġt",
        "aking"
      ],
      [
        "fer",
        "ence"
      ],
      [
        "ĠP",
        "al"
      ],
      [
        "ĠS",
        "en"
      ],
      [
        "ry",
        "ing"
      ],
      [
        "ĠR",
        "ock"
      ],
      [
        "ĠBro",
        "wn"
      ],
      [
        "itte",
        "e"
      ],
      [
        "ĠMc",
        "C"
      ],
      [
        "s",
        "el"
      ],
      [
        "Ġl",
        "ove"
      ],
      [
        "Ġind",
        "epend"
      ],
      [
        "Ġsign",
        "ed"
      ],
      [
        "Ġmov",
        "e"
      ],
      [
        "iqu",
        "e"
      ],
      [
        "ĠR",
        "es"
      ],
      [
        "il",
        "ities"
      ],
      [
        "Ġa",
        "chie"
      ],
      [
        "et",
        "work"
      ],
      [
        "Ġbet",
        "ter"
      ],
      [
        "um",
        "p"
      ],
      [
        "Ġp",
        "ers"
      ],
      [
        "ĠCaliforn",
        "ia"
      ],
      [
        "it",
        "z"
      ],
      [
        "ĠS",
        "l"
      ],
      [
        "ak",
        "er"
      ],
      [
        "ĠUn",
        "ion"
      ],
      [
        "Ġa",
        "p"
      ],
      [
        "ar",
        "ily"
      ],
      [
        "ec",
        "ess"
      ],
      [
        "Ġin",
        "n"
      ],
      [
        "Ġwind",
        "s"
      ],
      [
        "Ġcom",
        "merc"
      ],
      [
        "Ġw",
        "at"
      ],
      [
        "Ġen",
        "ough"
      ],
      [
        "Ġpos",
        "itive"
      ],
      [
        "ĠIs",
        "land"
      ],
      [
        "ear",
        "s"
      ],
      [
        "n",
        "el"
      ],
      [
        "m",
        "a"
      ],
      [
        "Ġacc",
        "ording"
      ],
      [
        "Ġh",
        "ous"
      ],
      [
        "um",
        "e"
      ],
      [
        "ĠSm",
        "ith"
      ],
      [
        "Ġsp",
        "ent"
      ],
      [
        "ĠM",
        "o"
      ],
      [
        "ĠM",
        "er"
      ],
      [
        "ĠCour",
        "t"
      ],
      [
        "ell",
        "ed"
      ],
      [
        "Ġgo",
        "ing"
      ],
      [
        "Ġp",
        "ot"
      ],
      [
        "Ġab",
        "ove"
      ],
      [
        "ap",
        "t"
      ],
      [
        "Ġs",
        "low"
      ],
      [
        "ank",
        "s"
      ],
      [
        "Ġout",
        "side"
      ],
      [
        "Ġfilm",
        "s"
      ],
      [
        "ĠG",
        "overn"
      ],
      [
        "ĠG",
        "od"
      ],
      [
        "Ġfe",
        "el"
      ],
      [
        "Ġto",
        "ld"
      ],
      [
        "ĠS",
        "am"
      ],
      [
        "Ġfoot",
        "ball"
      ],
      [
        "ber",
        "g"
      ],
      [
        "qu",
        "are"
      ],
      [
        "Ġc",
        "lear"
      ],
      [
        "Ġprevious",
        "ly"
      ],
      [
        "u",
        "ation"
      ],
      [
        "Ġst",
        "ates"
      ],
      [
        "Ġqu",
        "est"
      ],
      [
        "Ġrecord",
        "ing"
      ],
      [
        "ĠT",
        "wo"
      ],
      [
        "Ġme",
        "an"
      ],
      [
        "and",
        "ing"
      ],
      [
        "ĠA",
        "ward"
      ],
      [
        "le",
        "b"
      ],
      [
        "Ġn",
        "ine"
      ],
      [
        "ĠAle",
        "x"
      ],
      [
        "he",
        "t"
      ],
      [
        "Ġ6",
        "0"
      ],
      [
        "Ġp",
        "ur"
      ],
      [
        "us",
        "ion"
      ],
      [
        "Ġ199",
        "0"
      ],
      [
        "Ġsub",
[...]
